{
  "version": "1.0",
  "truncation": null,
  "padding": null,
  "added_tokens": [
    {
      "id": 0,
      "content": "<unk>",
      "single_word": false,
      "lstrip": false,
      "rstrip": false,
      "normalized": false,
      "special": true
    },
    {
      "id": 1,
      "content": "<s>",
      "single_word": false,
      "lstrip": false,
      "rstrip": false,
      "normalized": false,
      "special": true
    },
    {
      "id": 2,
      "content": "</s>",
      "single_word": false,
      "lstrip": false,
      "rstrip": false,
      "normalized": false,
      "special": true
    },
    {
      "id": 3,
      "content": "<|im_start|>",
      "single_word": false,
      "lstrip": false,
      "rstrip": false,
      "normalized": false,
      "special": true
    },
    {
      "id": 4,
      "content": "<|im_end|>",
      "single_word": false,
      "lstrip": false,
      "rstrip": false,
      "normalized": false,
      "special": true
    },
    {
      "id": 5,
      "content": "<tool_call>",
      "single_word": false,
      "lstrip": false,
      "rstrip": false,
      "normalized": false,
      "special": true
    },
    {
      "id": 6,
      "content": "</tool_call>",
      "single_word": false,
      "lstrip": false,
      "rstrip": false,
      "normalized": false,
      "special": true
    }
  ],
  "normalizer": {
    "type": "Sequence",
    "normalizers": [
      {
        "type": "Prepend",
        "prepend": "▁"
      },
      {
        "type": "Replace",
        "pattern": {
          "String": " "
        },
        "content": "▁"
      }
    ]
  },
  "pre_tokenizer": null,
  "post_processor": {
    "type": "TemplateProcessing",
    "single": [
      {
        "SpecialToken": {
          "id": "<s>",
          "type_id": 0
        }
      },
      {
        "Sequence": {
          "id": "A",
          "type_id": 0
        }
      }
    ],
    "pair": [
      {
        "SpecialToken": {
          "id": "<s>",
          "type_id": 0
        }
      },
      {
        "Sequence": {
          "id": "A",
          "type_id": 0
        }
      },
      {
        "SpecialToken": {
          "id": "<s>",
          "type_id": 1
        }
      },
      {
        "Sequence": {
          "id": "B",
          "type_id": 1
        }
      }
    ],
    "special_tokens": {
      "<s>": {
        "id": "<s>",
        "ids": [
          1
        ],
        "tokens": [
          "<s>"
        ]
      }
    }
  },
  "decoder": {
    "type": "Sequence",
    "decoders": [
      {
        "type": "Replace",
        "pattern": {
          "String": "▁"
        },
        "content": " "
      },
      {
        "type": "ByteFallback"
      },
      {
        "type": "Fuse"
      },
      {
        "type": "Strip",
        "content": " ",
        "start": 1,
        "stop": 0
      }
    ]
  },
  "model": {
    "type": "BPE",
    "dropout": null,
    "unk_token": "<unk>",
    "continuing_subword_prefix": null,
    "end_of_word_suffix": null,
    "fuse_unk": true,
    "byte_fallback": true,
    "ignore_merges": false,
    "vocab": {
      "<unk>": 0,
      "<s>": 1,
      "</s>": 2,
      "<|im_start|>": 3,
      "<|im_end|>": 4,
      "<tool_call>": 5,
      "</tool_call>": 6,
      "<0x00>": 7,
      "<0x01>": 8,
      "<0x02>": 9,
      "<0x03>": 10,
      "<0x04>": 11,
      "<0x05>": 12,
      "<0x06>": 13,
      "<0x07>": 14,
      "<0x08>": 15,
      "<0x09>": 16,
      "<0x0A>": 17,
      "<0x0B>": 18,
      "<0x0C>": 19,
      "<0x0D>": 20,
      "<0x0E>": 21,
      "<0x0F>": 22,
      "<0x10>": 23,
      "<0x11>": 24,
      "<0x12>": 25,
      "<0x13>": 26,
      "<0x14>": 27,
      "<0x15>": 28,
      "<0x16>": 29,
      "<0x17>": 30,
      "<0x18>": 31,
      "<0x19>": 32,
      "<0x1A>": 33,
      "<0x1B>": 34,
      "<0x1C>": 35,
      "<0x1D>": 36,
      "<0x1E>": 37,
      "<0x1F>": 38,
      "<0x20>": 39,
      "<0x21>": 40,
      "<0x22>": 41,
      "<0x23>": 42,
      "<0x24>": 43,
      "<0x25>": 44,
      "<0x26>": 45,
      "<0x27>": 46,
      "<0x28>": 47,
      "<0x29>": 48,
      "<0x2A>": 49,
      "<0x2B>": 50,
      "<0x2C>": 51,
      "<0x2D>": 52,
      "<0x2E>": 53,
      "<0x2F>": 54,
      "<0x30>": 55,
      "<0x31>": 56,
      "<0x32>": 57,
      "<0x33>": 58,
      "<0x34>": 59,
      "<0x35>": 60,
      "<0x36>": 61,
      "<0x37>": 62,
      "<0x38>": 63,
      "<0x39>": 64,
      "<0x3A>": 65,
      "<0x3B>": 66,
      "<0x3C>": 67,
      "<0x3D>": 68,
      "<0x3E>": 69,
      "<0x3F>": 70,
      "<0x40>": 71,
      "<0x41>": 72,
      "<0x42>": 73,
      "<0x43>": 74,
      "<0x44>": 75,
      "<0x45>": 76,
      "<0x46>": 77,
      "<0x47>": 78,
      "<0x48>": 79,
      "<0x49>": 80,
      "<0x4A>": 81,
      "<0x4B>": 82,
      "<0x4C>": 83,
      "<0x4D>": 84,
      "<0x4E>": 85,
      "<0x4F>": 86,
      "<0x50>": 87,
      "<0x51>": 88,
      "<0x52>": 89,
      "<0x53>": 90,
      "<0x54>": 91,
      "<0x55>": 92,
      "<0x56>": 93,
      "<0x57>": 94,
      "<0x58>": 95,
      "<0x59>": 96,
      "<0x5A>": 97,
      "<0x5B>": 98,
      "<0x5C>": 99,
      "<0x5D>": 100,
      "<0x5E>": 101,
      "<0x5F>": 102,
      "<0x60>": 103,
      "<0x61>": 104,
      "<0x62>": 105,
      "<0x63>": 106,
      "<0x64>": 107,
      "<0x65>": 108,
      "<0x66>": 109,
      "<0x67>": 110,
      "<0x68>": 111,
      "<0x69>": 112,
      "<0x6A>": 113,
      "<0x6B>": 114,
      "<0x6C>": 115,
      "<0x6D>": 116,
      "<0x6E>": 117,
      "<0x6F>": 118,
      "<0x70>": 119,
      "<0x71>": 120,
      "<0x72>": 121,
      "<0x73>": 122,
      "<0x74>": 123,
      "<0x75>": 124,
      "<0x76>": 125,
      "<0x77>": 126,
      "<0x78>": 127,
      "<0x79>": 128,
      "<0x7A>": 129,
      "<0x7B>": 130,
      "<0x7C>": 131,
      "<0x7D>": 132,
      "<0x7E>": 133,
      "<0x7F>": 134,
      "<0x80>": 135,
      "<0x81>": 136,
      "<0x82>": 137,
      "<0x83>": 138,
      "<0x84>": 139,
      "<0x85>": 140,
      "<0x86>": 141,
      "<0x87>": 142,
      "<0x88>": 143,
      "<0x89>": 144,
      "<0x8A>": 145,
      "<0x8B>": 146,
      "<0x8C>": 147,
      "<0x8D>": 148,
      "<0x8E>": 149,
      "<0x8F>": 150,
      "<0x90>": 151,
      "<0x91>": 152,
      "<0x92>": 153,
      "<0x93>": 154,
      "<0x94>": 155,
      "<0x95>": 156,
      "<0x96>": 157,
      "<0x97>": 158,
      "<0x98>": 159,
      "<0x99>": 160,
      "<0x9A>": 161,
      "<0x9B>": 162,
      "<0x9C>": 163,
      "<0x9D>": 164,
      "<0x9E>": 165,
      "<0x9F>": 166,
      "<0xA0>": 167,
      "<0xA1>": 168,
      "<0xA2>": 169,
      "<0xA3>": 170,
      "<0xA4>": 171,
      "<0xA5>": 172,
      "<0xA6>": 173,
      "<0xA7>": 174,
      "<0xA8>": 175,
      "<0xA9>": 176,
      "<0xAA>": 177,
      "<0xAB>": 178,
      "<0xAC>": 179,
      "<0xAD>": 180,
      "<0xAE>": 181,
      "<0xAF>": 182,
      "<0xB0>": 183,
      "<0xB1>": 184,
      "<0xB2>": 185,
      "<0xB3>": 186,
      "<0xB4>": 187,
      "<0xB5>": 188,
      "<0xB6>": 189,
      "<0xB7>": 190,
      "<0xB8>": 191,
      "<0xB9>": 192,
      "<0xBA>": 193,
      "<0xBB>": 194,
      "<0xBC>": 195,
      "<0xBD>": 196,
      "<0xBE>": 197,
      "<0xBF>": 198,
      "<0xC0>": 199,
      "<0xC1>": 200,
      "<0xC2>": 201,
      "<0xC3>": 202,
      "<0xC4>": 203,
      "<0xC5>": 204,
      "<0xC6>": 205,
      "<0xC7>": 206,
      "<0xC8>": 207,
      "<0xC9>": 208,
      "<0xCA>": 209,
      "<0xCB>": 210,
      "<0xCC>": 211,
      "<0xCD>": 212,
      "<0xCE>": 213,
      "<0xCF>": 214,
      "<0xD0>": 215,
      "<0xD1>": 216,
      "<0xD2>": 217,
      "<0xD3>": 218,
      "<0xD4>": 219,
      "<0xD5>": 220,
      "<0xD6>": 221,
      "<0xD7>": 222,
      "<0xD8>": 223,
      "<0xD9>": 224,
      "<0xDA>": 225,
      "<0xDB>": 226,
      "<0xDC>": 227,
      "<0xDD>": 228,
      "<0xDE>": 229,
      "<0xDF>": 230,
      "<0xE0>": 231,
      "<0xE1>": 232,
      "<0xE2>": 233,
      "<0xE3>": 234,
      "<0xE4>": 235,
      "<0xE5>": 236,
      "<0xE6>": 237,
      "<0xE7>": 238,
      "<0xE8>": 239,
      "<0xE9>": 240,
      "<0xEA>": 241,
      "<0xEB>": 242,
      "<0xEC>": 243,
      "<0xED>": 244,
      "<0xEE>": 245,
      "<0xEF>": 246,
      "<0xF0>": 247,
      "<0xF1>": 248,
      "<0xF2>": 249,
      "<0xF3>": 250,
      "<0xF4>": 251,
      "<0xF5>": 252,
      "<0xF6>": 253,
      "<0xF7>": 254,
      "<0xF8>": 255,
      "<0xF9>": 256,
      "<0xFA>": 257,
      "<0xFB>": 258,
      "<0xFC>": 259,
      "<0xFD>": 260,
      "<0xFE>": 261,
      "<0xFF>": 262,
      "ie": 263,
      "▁p": 264,
      "▁w": 265,
      "▁s": 266,
      "▁z": 267,
      "na": 268,
      "ow": 269,
      "ni": 270,
      "cz": 271,
      "rz": 272,
      "nie": 273,
      "ch": 274,
      "st": 275,
      "ra": 276,
      "▁d": 277,
      "▁o": 278,
      "▁t": 279,
      "ro": 280,
      "▁m": 281,
      "▁k": 282,
      "▁po": 283,
      "▁na": 284,
      "▁i": 285,
      "sz": 286,
      "dz": 287,
      "li": 288,
      "ne": 289,
      "je": 290,
      "go": 291,
      "ał": 292,
      "ny": 293,
      "ię": 294,
      "rze": 295,
      "le": 296,
      "▁b": 297,
      "ka": 298,
      "ci": 299,
      "ar": 300,
      "re": 301,
      "▁za": 302,
      "▁do": 303,
      "ów": 304,
      "at": 305,
      "ki": 306,
      "▁P": 307,
      "nia": 308,
      "▁nie": 309,
      "▁u": 310,
      "mi": 311,
      "▁je": 312,
      "▁się": 313,
      "owa": 314,
      "▁wy": 315,
      "że": 316,
      "rzy": 317,
      "ła": 318,
      "▁-": 319,
      "ko": 320,
      "ja": 321,
      "▁a": 322,
      "ce": 323,
      "no": 324,
      "wa": 325,
      "ry": 326,
      "wi": 327,
      "ją": 328,
      "▁prze": 329,
      "la": 330,
      "▁W": 331,
      "cy": 332,
      "ta": 333,
      "ku": 334,
      "da": 335,
      "er": 336,
      "or": 337,
      "czy": 338,
      "ty": 339,
      "em": 340,
      "ło": 341,
      "kie": 342,
      "▁S": 343,
      "cze": 344,
      "▁ko": 345,
      "po": 346,
      "ści": 347,
      "▁ro": 348,
      "▁g": 349,
      "en": 350,
      "cie": 351,
      "dzi": 352,
      "wo": 353,
      "cj": 354,
      "dy": 355,
      "▁M": 356,
      "▁od": 357,
      "▁N": 358,
      "▁K": 359,
      "nych": 360,
      "sta": 361,
      "▁T": 362,
      "dzie": 363,
      "▁że": 364,
      "ego": 365,
      "tó": 366,
      "tu": 367,
      "ia": 368,
      "▁A": 369,
      "to": 370,
      "ej": 371,
      "ma": 372,
      "▁to": 373,
      "▁któ": 374,
      "ru": 375,
      "▁mo": 376,
      "wie": 377,
      "▁D": 378,
      "lu": 379,
      "cji": 380,
      "my": 381,
      "owy": 382,
      "▁ty": 383,
      "▁C": 384,
      "▁przy": 385,
      "▁ja": 386,
      "by": 387,
      "szy": 388,
      "▁B": 389,
      "▁by": 390,
      "ała": 391,
      "▁pod": 392,
      "▁ta": 393,
      "▁f": 394,
      "zy": 395,
      "▁Po": 396,
      "lo": 397,
      "mie": 398,
      "an": 399,
      "te": 400,
      "▁J": 401,
      "ży": 402,
      "▁jest": 403,
      "▁Z": 404,
      "▁R": 405,
      "▁(": 406,
      "▁c": 407,
      "▁pro": 408,
      "cza": 409,
      "▁\"": 410,
      "owie": 411,
      "▁O": 412,
      "▁sp": 413,
      "ad": 414,
      "ną": 415,
      "ły": 416,
      "ca": 417,
      "ob": 418,
      "si": 419,
      "▁in": 420,
      "za": 421,
      "raz": 422,
      "ski": 423,
      "ek": 424,
      "pi": 425,
      "łu": 426,
      "nej": 427,
      "nego": 428,
      "▁ma": 429,
      "owi": 430,
      "▁ob": 431,
      "▁dz": 432,
      "du": 433,
      "mo": 434,
      "ść": 435,
      "▁pra": 436,
      "▁ś": 437,
      "ga": 438,
      "▁ch": 439,
      "ró": 440,
      "▁roz": 441,
      "▁st": 442,
      "▁G": 443,
      "▁mi": 444,
      "▁te": 445,
      "skie": 446,
      "wy": 447,
      "▁sz": 448,
      "sze": 449,
      "▁I": 450,
      "▁re": 451,
      "gi": 452,
      "nym": 453,
      "▁ni": 454,
      "mu": 455,
      "bi": 456,
      "▁e": 457,
      "▁L": 458,
      "on": 459,
      "▁wie": 460,
      "▁cz": 461,
      "sa": 462,
      "pie": 463,
      "▁jed": 464,
      "▁r": 465,
      "▁|": 466,
      "su": 467,
      "niu": 468,
      "▁pa": 469,
      "ska": 470,
      "cja": 471,
      "niej": 472,
      "▁mie": 473,
      "sy": 474,
      "owo": 475,
      "ków": 476,
      "ata": 477,
      "in": 478,
      "▁lu": 479,
      "▁co": 480,
      "▁przez": 481,
      "▁jak": 482,
      "▁U": 483,
      "▁czy": 484,
      "ez": 485,
      "ju": 486,
      "cho": 487,
      "kt": 488,
      "de": 489,
      "dze": 490,
      "pa": 491,
      "▁go": 492,
      "▁który": 493,
      "▁tak": 494,
      "il": 495,
      "ności": 496,
      "bie": 497,
      "▁Na": 498,
      "▁spo": 499,
      "ały": 500,
      "ało": 501,
      "do": 502,
      "al": 503,
      "▁F": 504,
      "we": 505,
      "▁sta": 506,
      "nt": 507,
      "bli": 508,
      "▁li": 509,
      "▁Nie": 510,
      "▁E": 511,
      "owe": 512,
      "owych": 513,
      "ier": 514,
      "un": 515,
      "▁które": 516,
      "gra": 517,
      "sp": 518,
      "▁ze": 519,
      "sty": 520,
      "▁naj": 521,
      "▁h": 522,
      "rzą": 523,
      "▁tym": 524,
      "▁dla": 525,
      "fi": 526,
      "am": 527,
      "ję": 528,
      "sie": 529,
      "ba": 530,
      "▁H": 531,
      "pu": 532,
      "ół": 533,
      "▁n": 534,
      "sza": 535,
      "▁są": 536,
      "▁ra": 537,
      "men": 538,
      "▁zna": 539,
      "▁bę": 540,
      "dni": 541,
      "sto": 542,
      "kła": 543,
      "zna": 544,
      "pe": 545,
      "rowa": 546,
      "▁wi": 547,
      "bo": 548,
      "▁wo": 549,
      "▁dzie": 550,
      "jąc": 551,
      "stę": 552,
      "owej": 553,
      "jący": 554,
      "▁mu": 555,
      "▁kon": 556,
      "▁przed": 557,
      "▁roku": 558,
      "gu": 559,
      "czą": 560,
      "zu": 561,
      "ost": 562,
      "art": 563,
      "▁ale": 564,
      "▁ka": 565,
      "▁oraz": 566,
      "cia": 567,
      "▁le": 568,
      "▁dzi": 569,
      "pra": 570,
      "kre": 571,
      "▁pu": 572,
      "▁Je": 573,
      "nę": 574,
      "ona": 575,
      "..": 576,
      "▁l": 577,
      "▁wię": 578,
      "os": 579,
      "▁poz": 580,
      "▁Pol": 581,
      "bu": 582,
      "ak": 583,
      "▁da": 584,
      "nika": 585,
      "niem": 586,
      "▁może": 587,
      "lko": 588,
      "nu": 589,
      "▁ju": 590,
      "spo": 591,
      "dział": 592,
      "▁wła": 593,
      "szyst": 594,
      "so": 595,
      "sk": 596,
      "▁tego": 597,
      "cyj": 598,
      "rod": 599,
      "owego": 600,
      "wia": 601,
      "dzo": 602,
      "▁fi": 603,
      "jące": 604,
      "▁spra": 605,
      "▁ce": 606,
      "▁Za": 607,
      "ować": 608,
      "ran": 609,
      "▁lub": 610,
      "▁sy": 611,
      "czas": 612,
      "▁sa": 613,
      "▁de": 614,
      "ur": 615,
      "czo": 616,
      "▁swo": 617,
      "▁wz": 618,
      "▁już": 619,
      "wią": 620,
      "▁jego": 621,
      "śli": 622,
      "nd": 623,
      "stęp": 624,
      "owania": 625,
      "▁publi": 626,
      "for": 627,
      "ował": 628,
      "▁bez": 629,
      "aty": 630,
      "szcze": 631,
      "skiego": 632,
      "co": 633,
      "▁ży": 634,
      "ście": 635,
      "▁bar": 636,
      "▁me": 637,
      "▁To": 638,
      "ńst": 639,
      "▁bo": 640,
      "▁wszyst": 641,
      "ze": 642,
      "▁będzie": 643,
      "io": 644,
      "nak": 645,
      "me": 646,
      "wó": 647,
      "mia": 648,
      "▁pot": 649,
      "kiem": 650,
      "dza": 651,
      "▁Mi": 652,
      "▁powie": 653,
      "sią": 654,
      "tycz": 655,
      "nik": 656,
      "▁Ko": 657,
      "▁sto": 658,
      "się": 659,
      "▁tylko": 660,
      "cu": 661,
      "rę": 662,
      "▁pe": 663,
      "▁Ch": 664,
      "▁pi": 665,
      "cje": 666,
      "js": 667,
      "kę": 668,
      "atego": 669,
      "pad": 670,
      "skiej": 671,
      "ri": 672,
      "tów": 673,
      "kacji": 674,
      "gl": 675,
      "cią": 676,
      "ji": 677,
      "cha": 678,
      "▁os": 679,
      "rza": 680,
      "▁moż": 681,
      "▁Wy": 682,
      "łą": 683,
      "▁jej": 684,
      "ność": 685,
      "▁też": 686,
      "ża": 687,
      "cję": 688,
      "▁pre": 689,
      "dzy": 690,
      "▁pier": 691,
      "▁świ": 692,
      "▁ich": 693,
      "powie": 694,
      "el": 695,
      "▁Do": 696,
      "▁we": 697,
      "▁był": 698,
      "nię": 699,
      "▁zost": 700,
      "▁usta": 701,
      "▁jednak": 702,
      "wię": 703,
      "ką": 704,
      "ter": 705,
      "cznie": 706,
      "ób": 707,
      "owanie": 708,
      "uro": 709,
      "kich": 710,
      "czne": 711,
      "▁war": 712,
      "▁miejs": 713,
      "▁sob": 714,
      "▁no": 715,
      "dą": 716,
      "▁mog": 717,
      "lej": 718,
      "ut": 719,
      "żo": 720,
      "▁być": 721,
      "▁jako": 722,
      "ców": 723,
      "▁rów": 724,
      "owym": 725,
      "▁gdy": 726,
      "▁Ja": 727,
      "▁ry": 728,
      "),": 729,
      "▁pow": 730,
      "▁także": 731,
      "ówi": 732,
      "▁Data": 733,
      "ec": 734,
      "kład": 735,
      "czę": 736,
      "ria": 737,
      "▁było": 738,
      "▁Ma": 739,
      "ól": 740,
      "śmy": 741,
      "py": 742,
      "▁bu": 743,
      "▁pierw": 744,
      "se": 745,
      "▁działa": 746,
      "▁sie": 747,
      "he": 748,
      "▁gł": 749,
      "sko": 750,
      "▁rze": 751,
      "▁publikacji": 752,
      "▁dy": 753,
      "▁ba": 754,
      "nio": 755,
      "▁og": 756,
      "skich": 757,
      "▁cho": 758,
      "um": 759,
      "łem": 760,
      "cznych": 761,
      "den": 762,
      "ową": 763,
      "osta": 764,
      "▁kie": 765,
      "rak": 766,
      "▁Mo": 767,
      "▁Ro": 768,
      "▁czę": 769,
      "ii": 770,
      "▁op": 771,
      "▁praw": 772,
      "kim": 773,
      "słu": 774,
      "▁wyko": 775,
      "ąd": 776,
      "śnie": 777,
      "dzenia": 778,
      "ary": 779,
      "▁okre": 780,
      "nist": 781,
      "▁du": 782,
      "▁Prze": 783,
      "gie": 784,
      "▁cza": 785,
      "▁raz": 786,
      "▁wa": 787,
      "▁ost": 788,
      "▁bi": 789,
      "dzą": 790,
      "▁Pa": 791,
      "prowa": 792,
      "trzy": 793,
      "▁Ka": 794,
      "wał": 795,
      "dnie": 796,
      "▁poli": 797,
      "▁tej": 798,
      "szą": 799,
      "łe": 800,
      "war": 801,
      "▁stro": 802,
      "▁lo": 803,
      "nymi": 804,
      "cej": 805,
      "▁dru": 806,
      "tem": 807,
      "▁cie": 808,
      "▁wsp": 809,
      "▁gru": 810,
      "▁pol": 811,
      "nowi": 812,
      "▁wyda": 813,
      "▁mówi": 814,
      "jących": 815,
      "cą": 816,
      "▁kra": 817,
      "▁lat": 818,
      "▁dob": 819,
      "szych": 820,
      "im": 821,
      "róż": 822,
      "▁nad": 823,
      "ategoria": 824,
      "▁tu": 825,
      "▁niż": 826,
      "ns": 827,
      "▁ku": 828,
      "▁ten": 829,
      "czenia": 830,
      "▁bardzo": 831,
      "▁Kategoria": 832,
      "▁V": 833,
      "rzę": 834,
      "rą": 835,
      "wet": 836,
      "▁równie": 837,
      "▁samo": 838,
      "▁jeszcze": 839,
      "▁sk": 840,
      "▁sobie": 841,
      "dat": 842,
      "ktu": 843,
      "▁Przy": 844,
      "▁tra": 845,
      "prze": 846,
      "▁tem": 847,
      "▁or": 848,
      "wier": 849,
      "▁ż": 850,
      "ge": 851,
      "kiego": 852,
      "▁Co": 853,
      "skim": 854,
      "▁gra": 855,
      "ór": 856,
      "praw": 857,
      "sia": 858,
      "sła": 859,
      "kow": 860,
      "rzu": 861,
      "ner": 862,
      "▁powi": 863,
      "▁prac": 864,
      "iędzy": 865,
      "▁ar": 866,
      "▁również": 867,
      "dar": 868,
      "▁kil": 869,
      "czu": 870,
      "cznej": 871,
      "dziej": 872,
      "stem": 873,
      "czego": 874,
      "bra": 875,
      "▁pla": 876,
      "▁Ś": 877,
      "▁Le": 878,
      "ników": 879,
      "ct": 880,
      "owane": 881,
      "▁mnie": 882,
      "stu": 883,
      "▁proc": 884,
      "nku": 885,
      "szt": 886,
      "▁można": 887,
      "▁odpowie": 888,
      "nii": 889,
      "ali": 890,
      "rem": 891,
      "zie": 892,
      "kty": 893,
      "lę": 894,
      "pis": 895,
      "nek": 896,
      "wać": 897,
      "szka": 898,
      "\",": 899,
      "▁zł": 900,
      "sku": 901,
      "▁su": 902,
      "dów": 903,
      "▁która": 904,
      "lar": 905,
      "▁Ale": 906,
      "▁ci": 907,
      "liwo": 908,
      "ral": 909,
      "kiej": 910,
      "▁Re": 911,
      "▁zd": 912,
      "szym": 913,
      "rów": 914,
      "nął": 915,
      "▁In": 916,
      "▁zwią": 917,
      "▁trze": 918,
      "forma": 919,
      "▁których": 920,
      "▁była": 921,
      "lem": 922,
      "▁produ": 923,
      "ate": 924,
      "owia": 925,
      "▁my": 926,
      "▁swoje": 927,
      "▁Ta": 928,
      "▁nawet": 929,
      "dę": 930,
      "ng": 931,
      "▁al": 932,
      "▁St": 933,
      "liśmy": 934,
      "▁im": 935,
      "kach": 936,
      "▁sze": 937,
      "et": 938,
      "▁dnia": 939,
      "▁kom": 940,
      "▁Od": 941,
      "kra": 942,
      "ste": 943,
      "dow": 944,
      "kaz": 945,
      "▁Bo": 946,
      "▁przypad": 947,
      "▁każ": 948,
      "▁ust": 949,
      "▁jedno": 950,
      "fe": 951,
      "▁Te": 952,
      "▁środ": 953,
      "tych": 954,
      "▁of": 955,
      "▁sam": 956,
      "pro": 957,
      "waż": 958,
      "szo": 959,
      "owany": 960,
      "▁Ty": 961,
      "▁Mar": 962,
      "czyć": 963,
      "pre": 964,
      "▁spraw": 965,
      "▁powo": 966,
      "▁Wie": 967,
      "di": 968,
      "gani": 969,
      "▁kolej": 970,
      "szej": 971,
      "ród": 972,
      "▁Euro": 973,
      "▁si": 974,
      "sł": 975,
      "▁pew": 976,
      "▁zło": 977,
      "▁spos": 978,
      "ństwa": 979,
      "▁cał": 980,
      "leż": 981,
      "ort": 982,
      "▁dro": 983,
      "▁hi": 984,
      "gro": 985,
      "▁pracy": 986,
      "tor": 987,
      "▁dłu": 988,
      "pły": 989,
      "▁pie": 990,
      "▁fir": 991,
      "▁Li": 992,
      "tek": 993,
      "owią": 994,
      "▁pan": 995,
      "czenie": 996,
      "gł": 997,
      "▁fun": 998,
      "▁Pro": 999,
      "ciu": 1000,
      "▁lata": 1001,
      "▁Sz": 1002,
      "wiad": 1003,
      "▁Ra": 1004,
      "▁kiedy": 1005,
      "▁musi": 1006,
      "▁Czy": 1007,
      "daw": 1008,
      "▁zosta": 1009,
      "▁tych": 1010,
      "wania": 1011,
      "▁prowa": 1012,
      "▁rodzi": 1013,
      "▁szcze": 1014,
      "▁art": 1015,
      "▁którym": 1016,
      "łat": 1017,
      "▁War": 1018,
      "▁słu": 1019,
      "▁ser": 1020,
      "▁znaj": 1021,
      "▁Jak": 1022,
      "oba": 1023,
      "▁zmie": 1024,
      "ałem": 1025,
      "▁rozpo": 1026,
      "▁ok": 1027,
      "▁for": 1028,
      "▁ru": 1029,
      "mina": 1030,
      "stą": 1031,
      "nią": 1032,
      "tnie": 1033,
      "▁będą": 1034,
      "dem": 1035,
      "▁więc": 1036,
      "▁uży": 1037,
      "▁mar": 1038,
      "▁Pols": 1039,
      "▁czas": 1040,
      "zi": 1041,
      "dzić": 1042,
      "▁sko": 1043,
      "▁Bi": 1044,
      "mier": 1045,
      "czny": 1046,
      "now": 1047,
      "oru": 1048,
      "▁woj": 1049,
      "▁mają": 1050,
      "▁stra": 1051,
      "▁on": 1052,
      "cznego": 1053,
      "lne": 1054,
      "res": 1055,
      "▁spe": 1056,
      "▁ją": 1057,
      "▁Ar": 1058,
      "▁podat": 1059,
      "dłu": 1060,
      "▁Pod": 1061,
      "▁Pi": 1062,
      "▁uwa": 1063,
      "▁posta": 1064,
      "rząd": 1065,
      "kcji": 1066,
      "▁ek": 1067,
      "dzenie": 1068,
      "▁nich": 1069,
      "więk": 1070,
      "lnie": 1071,
      "peł": 1072,
      "▁zro": 1073,
      "czej": 1074,
      "▁fa": 1075,
      "▁stanowi": 1076,
      "dził": 1077,
      "▁aby": 1078,
      "▁koń": 1079,
      "kar": 1080,
      "szego": 1081,
      "▁między": 1082,
      "▁szy": 1083,
      "ód": 1084,
      "▁ele": 1085,
      "tk": 1086,
      "nicy": 1087,
      "▁gospo": 1088,
      "...": 1089,
      "ment": 1090,
      "▁ostat": 1091,
      "▁poja": 1092,
      "łowie": 1093,
      "▁osób": 1094,
      "▁fina": 1095,
      "▁gdzie": 1096,
      "▁tam": 1097,
      "ent": 1098,
      "▁róż": 1099,
      "▁,": 1100,
      "nad": 1101,
      "czył": 1102,
      "czywi": 1103,
      "ol": 1104,
      "ren": 1105,
      "gę": 1106,
      "▁więk": 1107,
      "▁Wi": 1108,
      "▁został": 1109,
      "scy": 1110,
      "▁zw": 1111,
      "▁Sta": 1112,
      "▁proce": 1113,
      "kry": 1114,
      "strze": 1115,
      "▁podsta": 1116,
      "▁której": 1117,
      "▁więcej": 1118,
      "▁sprze": 1119,
      "ciw": 1120,
      "▁By": 1121,
      "ński": 1122,
      "▁informa": 1123,
      "pisy": 1124,
      "▁*": 1125,
      "▁gło": 1126,
      "nem": 1127,
      "szu": 1128,
      "trz": 1129,
      "▁ml": 1130,
      "rzysta": 1131,
      "▁sposób": 1132,
      "jem": 1133,
      "tua": 1134,
      "▁doty": 1135,
      "▁Pra": 1136,
      "▁pomo": 1137,
      "bior": 1138,
      "ój": 1139,
      "zacji": 1140,
      "▁au": 1141,
      "▁zda": 1142,
      "▁We": 1143,
      "▁bra": 1144,
      "sji": 1145,
      "logi": 1146,
      "ąda": 1147,
      "miast": 1148,
      "lności": 1149,
      "▁wyso": 1150,
      "óź": 1151,
      "stwa": 1152,
      "erw": 1153,
      "fa": 1154,
      "▁system": 1155,
      "▁nau": 1156,
      "mniej": 1157,
      "▁gospodar": 1158,
      "ing": 1159,
      "▁kar": 1160,
      "▁mia": 1161,
      "nios": 1162,
      "chu": 1163,
      "kona": 1164,
      "▁X": 1165,
      "▁mat": 1166,
      "ck": 1167,
      "cją": 1168,
      "dnia": 1169,
      "ti": 1170,
      "ato": 1171,
      "nów": 1172,
      "▁Ż": 1173,
      "leży": 1174,
      "ścia": 1175,
      "mię": 1176,
      "wiet": 1177,
      "▁mogą": 1178,
      "▁zach": 1179,
      "mio": 1180,
      "glę": 1181,
      "▁Polsce": 1182,
      "kro": 1183,
      "mów": 1184,
      "▁były": 1185,
      "róci": 1186,
      "lnych": 1187,
      "dł": 1188,
      "▁warto": 1189,
      "▁fil": 1190,
      "owała": 1191,
      "szcza": 1192,
      "▁kont": 1193,
      "▁którzy": 1194,
      "▁nas": 1195,
      "ezpie": 1196,
      "▁szko": 1197,
      "▁społe": 1198,
      "grani": 1199,
      "gól": 1200,
      "▁sytua": 1201,
      "tni": 1202,
      "kami": 1203,
      "▁mieszka": 1204,
      "cych": 1205,
      "nić": 1206,
      "▁Lu": 1207,
      "▁nim": 1208,
      "▁włas": 1209,
      "▁miał": 1210,
      "▁ksią": 1211,
      "▁chwi": 1212,
      "dia": 1213,
      "▁niez": 1214,
      "▁żeby": 1215,
      "ryka": 1216,
      "▁tele": 1217,
      "▁pię": 1218,
      "ve": 1219,
      "dno": 1220,
      "pli": 1221,
      "▁obowią": 1222,
      "▁[": 1223,
      "▁okreś": 1224,
      "▁innych": 1225,
      "▁the": 1226,
      "liwości": 1227,
      "ich": 1228,
      "pew": 1229,
      "▁świad": 1230,
      "atu": 1231,
      "świad": 1232,
      "wu": 1233,
      "▁ga": 1234,
      "▁organi": 1235,
      "chy": 1236,
      "cę": 1237,
      "kowa": 1238,
      "▁peł": 1239,
      "▁przypadku": 1240,
      "wali": 1241,
      "sem": 1242,
      "▁ła": 1243,
      "▁głów": 1244,
      "▁trzy": 1245,
      "dowa": 1246,
      "▁wzro": 1247,
      "stor": 1248,
      "▁kilka": 1249,
      "żej": 1250,
      "maga": 1251,
      "zuje": 1252,
      "▁decy": 1253,
      "▁zgo": 1254,
      "▁właści": 1255,
      "▁Cz": 1256,
      "stępu": 1257,
      "▁cią": 1258,
      "▁powiedział": 1259,
      "bezpie": 1260,
      "mości": 1261,
      "zji": 1262,
      "▁osob": 1263,
      "▁współ": 1264,
      "iado": 1265,
      "▁ustawy": 1266,
      "żenia": 1267,
      "gen": 1268,
      "▁rę": 1269,
      "▁wska": 1270,
      "żą": 1271,
      "kłada": 1272,
      "and": 1273,
      "▁Wo": 1274,
      "zyden": 1275,
      "▁Naj": 1276,
      "\".": 1277,
      "▁cy": 1278,
      "bę": 1279,
      "tę": 1280,
      "cki": 1281,
      "▁Sa": 1282,
      "▁potrze": 1283,
      "▁kró": 1284,
      "pej": 1285,
      "chodzi": 1286,
      "tka": 1287,
      "two": 1288,
      "▁miejsce": 1289,
      "▁powin": 1290,
      "stru": 1291,
      "▁zawo": 1292,
      "gło": 1293,
      "▁sprawie": 1294,
      "ho": 1295,
      "▁przeciw": 1296,
      "▁sku": 1297,
      "pisa": 1298,
      "▁Ni": 1299,
      "▁albo": 1300,
      ").": 1301,
      "lą": 1302,
      "▁świat": 1303,
      "szło": 1304,
      "▁bardziej": 1305,
      "▁bie": 1306,
      "▁oko": 1307,
      "▁wszystko": 1308,
      "od": 1309,
      "▁obec": 1310,
      "▁teraz": 1311,
      "nienia": 1312,
      "▁wiel": 1313,
      "▁mę": 1314,
      "▁mowa": 1315,
      "▁prob": 1316,
      "ktor": 1317,
      "▁zdo": 1318,
      "▁kobie": 1319,
      "trzyma": 1320,
      "▁inter": 1321,
      "▁tru": 1322,
      "▁ponad": 1323,
      "▁progra": 1324,
      "▁Da": 1325,
      "czna": 1326,
      "▁pracow": 1327,
      "▁niego": 1328,
      "▁kry": 1329,
      "żeli": 1330,
      "łon": 1331,
      "ene": 1332,
      "nąć": 1333,
      "▁jeśli": 1334,
      "▁zaw": 1335,
      "stawi": 1336,
      "lnego": 1337,
      "stwo": 1338,
      "rzenia": 1339,
      "▁proje": 1340,
      "▁naz": 1341,
      "łam": 1342,
      "▁Ba": 1343,
      "ul": 1344,
      "▁finans": 1345,
      "ony": 1346,
      "▁la": 1347,
      "▁Ł": 1348,
      "▁Kon": 1349,
      "nach": 1350,
      "ha": 1351,
      "cznym": 1352,
      "muje": 1353,
      "dź": 1354,
      "ską": 1355,
      "śniej": 1356,
      "▁zwy": 1357,
      "▁se": 1358,
      "nosi": 1359,
      "żenie": 1360,
      "▁dwa": 1361,
      "▁życie": 1362,
      "arów": 1363,
      "duje": 1364,
      "▁szyb": 1365,
      "▁pół": 1366,
      "usz": 1367,
      "▁Tak": 1368,
      "▁ad": 1369,
      "got": 1370,
      "lep": 1371,
      "▁książ": 1372,
      "jącego": 1373,
      "działa": 1374,
      "wój": 1375,
      "lny": 1376,
      "▁two": 1377,
      "▁począ": 1378,
      "▁sł": 1379,
      "pera": 1380,
      "▁podczas": 1381,
      "dług": 1382,
      "▁wal": 1383,
      "tora": 1384,
      "▁ludzi": 1385,
      "▁Warsza": 1386,
      "nistra": 1387,
      "▁bada": 1388,
      ".,": 1389,
      "lat": 1390,
      "▁kla": 1391,
      "wem": 1392,
      "tar": 1393,
      "▁py": 1394,
      "▁Me": 1395,
      "mach": 1396,
      "stytu": 1397,
      "mar": 1398,
      "II": 1399,
      "▁Polski": 1400,
      "is": 1401,
      "▁póź": 1402,
      "om": 1403,
      "▁żad": 1404,
      "der": 1405,
      "koń": 1406,
      "gląda": 1407,
      "▁mło": 1408,
      "▁Ros": 1409,
      "menta": 1410,
      "▁konie": 1411,
      "▁człowie": 1412,
      "uje": 1413,
      "chro": 1414,
      "wanie": 1415,
      "taj": 1416,
      "form": 1417,
      "▁par": 1418,
      "redni": 1419,
      "▁wiele": 1420,
      "▁latach": 1421,
      "▁zie": 1422,
      "▁zap": 1423,
      "nta": 1424,
      "be": 1425,
      "stąpi": 1426,
      "ber": 1427,
      "▁cię": 1428,
      "dać": 1429,
      "nił": 1430,
      "net": 1431,
      "▁mó": 1432,
      "▁licz": 1433,
      "▁związ": 1434,
      "▁coś": 1435,
      "▁zrobi": 1436,
      "chi": 1437,
      "▁części": 1438,
      "▁którego": 1439,
      "▁świe": 1440,
      "▁właśnie": 1441,
      "▁mniej": 1442,
      "cześniej": 1443,
      "tku": 1444,
      "▁jedy": 1445,
      "star": 1446,
      "lenia": 1447,
      "stra": 1448,
      "▁wszystkich": 1449,
      "sów": 1450,
      "liz": 1451,
      "soby": 1452,
      "sad": 1453,
      "gan": 1454,
      "▁kto": 1455,
      "▁wprowa": 1456,
      "kaza": 1457,
      "wą": 1458,
      "▁zmia": 1459,
      "▁siebie": 1460,
      "lnej": 1461,
      "wiąza": 1462,
      "gle": 1463,
      "nister": 1464,
      "czną": 1465,
      "par": 1466,
      "one": 1467,
      "▁czasu": 1468,
      "wen": 1469,
      "bor": 1470,
      "biera": 1471,
      "ekla": 1472,
      "lega": 1473,
      "▁Roz": 1474,
      "min": 1475,
      "cię": 1476,
      "ntów": 1477,
      "▁tran": 1478,
      "bar": 1479,
      "▁czasie": 1480,
      "▁pró": 1481,
      "utor": 1482,
      "tra": 1483,
      "▁czyli": 1484,
      "▁poprze": 1485,
      "nętrz": 1486,
      "lan": 1487,
      "dzia": 1488,
      "▁Ju": 1489,
      "▁wpły": 1490,
      "▁ani": 1491,
      "▁polity": 1492,
      "▁zapew": 1493,
      "▁należy": 1494,
      "▁Fran": 1495,
      "▁dzieci": 1496,
      "lni": 1497,
      "▁um": 1498,
      "per": 1499,
      "▁De": 1500,
      "owanych": 1501,
      "▁drugie": 1502,
      "▁ws": 1503,
      "wór": 1504,
      "▁inte": 1505,
      "rom": 1506,
      "▁ban": 1507,
      "ięki": 1508,
      "pl": 1509,
      "▁An": 1510,
      "dzieć": 1511,
      "niki": 1512,
      "▁udział": 1513,
      "▁cze": 1514,
      "▁pozy": 1515,
      "▁ter": 1516,
      "▁inwe": 1517,
      "▁euro": 1518,
      "▁funk": 1519,
      "wnętrz": 1520,
      "któ": 1521,
      "▁tech": 1522,
      "▁Ob": 1523,
      "ształ": 1524,
      "▁tys": 1525,
      "vi": 1526,
      "▁so": 1527,
      "rek": 1528,
      "tedy": 1529,
      "▁związa": 1530,
      "th": 1531,
      "zen": 1532,
      "▁chce": 1533,
      "▁spół": 1534,
      "▁kre": 1535,
      "▁zamie": 1536,
      "▁pkt": 1537,
      "▁stosu": 1538,
      "▁wzglę": 1539,
      "meryka": 1540,
      "▁sprzeda": 1541,
      "tego": 1542,
      "▁Fi": 1543,
      "▁ozna": 1544,
      "▁jakie": 1545,
      "▁oce": 1546,
      "▁ponie": 1547,
      "▁Al": 1548,
      "latego": 1549,
      "▁an": 1550,
      "▁pun": 1551,
      "▁życia": 1552,
      "nęła": 1553,
      "wę": 1554,
      "pod": 1555,
      "▁takie": 1556,
      "ple": 1557,
      "▁niej": 1558,
      "▁Polska": 1559,
      "▁podob": 1560,
      "dał": 1561,
      "▁gro": 1562,
      "▁dotyczą": 1563,
      "▁nam": 1564,
      "▁zakre": 1565,
      "lie": 1566,
      "czności": 1567,
      "cach": 1568,
      "▁Jeśli": 1569,
      "▁warun": 1570,
      "▁temu": 1571,
      "śród": 1572,
      "ńskiego": 1573,
      "▁mln": 1574,
      "por": 1575,
      "gdy": 1576,
      "owiada": 1577,
      "tery": 1578,
      "ryw": 1579,
      "ss": 1580,
      "ok": 1581,
      "▁Ga": 1582,
      "▁nic": 1583,
      "czywiście": 1584,
      "▁pozio": 1585,
      "cka": 1586,
      "▁ak": 1587,
      "zo": 1588,
      "▁Mu": 1589,
      "▁zde": 1590,
      "ers": 1591,
      "czyna": 1592,
      "któw": 1593,
      "▁godzi": 1594,
      "tuł": 1595,
      "▁SS": 1596,
      "▁kosz": 1597,
      "ałe": 1598,
      "▁przedsię": 1599,
      "tury": 1600,
      "ństwo": 1601,
      "▁Jed": 1602,
      "mian": 1603,
      "cer": 1604,
      "▁prezyden": 1605,
      "▁specja": 1606,
      "rach": 1607,
      "▁każdy": 1608,
      "▁Jest": 1609,
      "▁wielu": 1610,
      "strz": 1611,
      "▁zawie": 1612,
      "▁dni": 1613,
      "datk": 1614,
      "ścią": 1615,
      "man": 1616,
      "▁Pre": 1617,
      "jącej": 1618,
      "▁doku": 1619,
      "▁bud": 1620,
      "tyw": 1621,
      "▁czym": 1622,
      "▁wykona": 1623,
      "▁jaki": 1624,
      "▁myś": 1625,
      "tej": 1626,
      "▁chci": 1627,
      "▁No": 1628,
      "▁em": 1629,
      "hi": 1630,
      "szę": 1631,
      "▁jeden": 1632,
      "mal": 1633,
      "krai": 1634,
      "▁cały": 1635,
      "syj": 1636,
      "▁pyta": 1637,
      "▁And": 1638,
      "▁klu": 1639,
      "tr": 1640,
      "▁śmier": 1641,
      "▁Pola": 1642,
      "▁Wa": 1643,
      "▁eksp": 1644,
      "▁Gdy": 1645,
      "eri": 1646,
      "jąca": 1647,
      "siada": 1648,
      "▁później": 1649,
      "▁następ": 1650,
      "tru": 1651,
      "▁stu": 1652,
      "▁por": 1653,
      "▁zdr": 1654,
      "▁obie": 1655,
      "▁Pe": 1656,
      "nki": 1657,
      "owana": 1658,
      "▁prawa": 1659,
      "▁kole": 1660,
      "▁choć": 1661,
      "▁kraju": 1662,
      "▁uzna": 1663,
      "▁tę": 1664,
      "pada": 1665,
      "łów": 1666,
      "byt": 1667,
      "▁wcześniej": 1668,
      "▁Kie": 1669,
      "fia": 1670,
      "▁stanie": 1671,
      "fek": 1672,
      "▁waż": 1673,
      "tał": 1674,
      "mienia": 1675,
      "czni": 1676,
      "▁strony": 1677,
      "▁usłu": 1678,
      "▁wszystkie": 1679,
      "▁ener": 1680,
      "▁US": 1681,
      "▁obro": 1682,
      "zd": 1683,
      "myś": 1684,
      "cyjnych": 1685,
      "▁tro": 1686,
      "▁star": 1687,
      "byw": 1688,
      "owarzy": 1689,
      "chodzą": 1690,
      "daje": 1691,
      "▁elekt": 1692,
      "kowi": 1693,
      "▁robi": 1694,
      "czeń": 1695,
      "log": 1696,
      "▁tre": 1697,
      "cjona": 1698,
      "sięcy": 1699,
      "▁ho": 1700,
      "▁tr": 1701,
      "sti": 1702,
      "▁dobrze": 1703,
      "twa": 1704,
      "▁zawsze": 1705,
      "wóch": 1706,
      "czych": 1707,
      "▁kilku": 1708,
      "▁zam": 1709,
      "▁part": 1710,
      "stów": 1711,
      "▁rynku": 1712,
      "▁domu": 1713,
      "▁trzeba": 1714,
      "▁pom": 1715,
      "▁człon": 1716,
      "▁została": 1717,
      "szenia": 1718,
      "ństw": 1719,
      "żyć": 1720,
      "▁przygot": 1721,
      "▁ofi": 1722,
      "▁Hi": 1723,
      "▁kier": 1724,
      "jącym": 1725,
      "▁aż": 1726,
      "▁auto": 1727,
      "stro": 1728,
      "▁Rekla": 1729,
      "lność": 1730,
      "żczy": 1731,
      "kle": 1732,
      "dniej": 1733,
      "łę": 1734,
      "kom": 1735,
      "▁osoby": 1736,
      "▁szczegól": 1737,
      "śnia": 1738,
      "▁ostatni": 1739,
      "szedł": 1740,
      "▁ot": 1741,
      "sił": 1742,
      "▁sek": 1743,
      "▁cha": 1744,
      "sły": 1745,
      "▁miała": 1746,
      "jęcia": 1747,
      "▁okaz": 1748,
      "▁histor": 1749,
      "obec": 1750,
      "▁spotka": 1751,
      "▁pły": 1752,
      "wyż": 1753,
      "nk": 1754,
      "pozy": 1755,
      "cyjne": 1756,
      "▁dwóch": 1757,
      "dal": 1758,
      "▁wspól": 1759,
      "▁kontro": 1760,
      "żył": 1761,
      "▁Reklama": 1762,
      "▁wnios": 1763,
      "▁rzą": 1764,
      "lenie": 1765,
      "▁wysoko": 1766,
      "gna": 1767,
      "▁wszystkim": 1768,
      "łka": 1769,
      "▁Sp": 1770,
      "▁kraj": 1771,
      "▁uzy": 1772,
      "▁rozwiąza": 1773,
      "gii": 1774,
      "▁ona": 1775,
      "▁Go": 1776,
      "▁pamię": 1777,
      "▁wynika": 1778,
      "dne": 1779,
      "us": 1780,
      "▁mógł": 1781,
      "▁pozosta": 1782,
      "▁przedsiębior": 1783,
      "▁woje": 1784,
      "czes": 1785,
      "▁Jo": 1786,
      "roni": 1787,
      "zm": 1788,
      "▁reali": 1789,
      "gląd": 1790,
      "▁sza": 1791,
      "▁komu": 1792,
      "raca": 1793,
      "▁mili": 1794,
      "pom": 1795,
      "▁So": 1796,
      "tki": 1797,
      "▁Bar": 1798,
      "czone": 1799,
      "gą": 1800,
      "mentu": 1801,
      "▁Or": 1802,
      "▁wieku": 1803,
      "tą": 1804,
      "▁Rze": 1805,
      "tach": 1806,
      "▁określo": 1807,
      "▁podej": 1808,
      "▁często": 1809,
      "wane": 1810,
      "▁ist": 1811,
      "▁czyn": 1812,
      "piero": 1813,
      "▁np": 1814,
      "pita": 1815,
      "ks": 1816,
      "▁odpowiedzi": 1817,
      "▁rok": 1818,
      "▁Tu": 1819,
      "▁czego": 1820,
      "▁ha": 1821,
      "owaniu": 1822,
      "niku": 1823,
      "laz": 1824,
      "▁Au": 1825,
      "▁umie": 1826,
      "czeniu": 1827,
      "ard": 1828,
      "▁uro": 1829,
      "▁Nr": 1830,
      "▁pierwszy": 1831,
      "wer": 1832,
      "▁zaj": 1833,
      "▁obowiąz": 1834,
      "▁Bu": 1835,
      "stos": 1836,
      "piej": 1837,
      "wała": 1838,
      "▁ofer": 1839,
      "▁bezpie": 1840,
      "tera": 1841,
      "zja": 1842,
      "▁wtedy": 1843,
      "chę": 1844,
      "▁razem": 1845,
      "pat": 1846,
      "▁danych": 1847,
      "żu": 1848,
      "▁swoich": 1849,
      "▁Dla": 1850,
      "▁stycz": 1851,
      "cież": 1852,
      "żli": 1853,
      "▁poś": 1854,
      "▁samy": 1855,
      "▁Europej": 1856,
      "▁prawo": 1857,
      "▁Sy": 1858,
      "▁miesią": 1859,
      "▁La": 1860,
      "▁Ho": 1861,
      "▁pła": 1862,
      "owski": 1863,
      "▁ucze": 1864,
      "▁pat": 1865,
      "czyła": 1866,
      "jącą": 1867,
      "▁wyja": 1868,
      "miec": 1869,
      "▁świata": 1870,
      "▁przedstawi": 1871,
      "▁Cho": 1872,
      "▁stwier": 1873,
      "▁należ": 1874,
      "▁łą": 1875,
      "▁dzien": 1876,
      "▁regu": 1877,
      "naj": 1878,
      "▁II": 1879,
      "▁Przypisy": 1880,
      "▁temat": 1881,
      "raj": 1882,
      "▁ź": 1883,
      "▁tygo": 1884,
      "▁ograni": 1885,
      "▁ję": 1886,
      "▁jednost": 1887,
      "▁takich": 1888,
      "owali": 1889,
      "mentów": 1890,
      "▁Dzie": 1891,
      "ciąg": 1892,
      "ten": 1893,
      "▁przyzna": 1894,
      "▁stos": 1895,
      "▁wyra": 1896,
      "▁przeprowa": 1897,
      "cił": 1898,
      "rzenie": 1899,
      "▁loka": 1900,
      "▁bli": 1901,
      "▁kieru": 1902,
      "▁arty": 1903,
      "nami": 1904,
      "▁zau": 1905,
      "sław": 1906,
      "ździe": 1907,
      "▁najwięk": 1908,
      "▁rodza": 1909,
      "▁daw": 1910,
      "▁oj": 1911,
      "▁lecz": 1912,
      "▁dostęp": 1913,
      "▁inne": 1914,
      "▁politycz": 1915,
      "▁wymaga": 1916,
      "▁moje": 1917,
      "szko": 1918,
      "bardziej": 1919,
      "▁ki": 1920,
      "che": 1921,
      "▁moc": 1922,
      "▁ne": 1923,
      "mii": 1924,
      "▁postęp": 1925,
      "▁Kiedy": 1926,
      "▁pojawi": 1927,
      "▁Ne": 1928,
      "nict": 1929,
      "rządzenia": 1930,
      "nienie": 1931,
      "▁posiada": 1932,
      "len": 1933,
      "▁Du": 1934,
      "▁celu": 1935,
      "ly": 1936,
      "śmie": 1937,
      "▁osią": 1938,
      "▁mamy": 1939,
      "▁dosta": 1940,
      "▁firmy": 1941,
      "lnym": 1942,
      "cego": 1943,
      "ery": 1944,
      "▁rzecz": 1945,
      "▁sil": 1946,
      "cent": 1947,
      "▁ochro": 1948,
      "▁podstawie": 1949,
      "rych": 1950,
      "▁potem": 1951,
      "cześnie": 1952,
      "nością": 1953,
      "▁wrze": 1954,
      "onu": 1955,
      "▁tłu": 1956,
      "nawi": 1957,
      "▁coraz": 1958,
      "niesie": 1959,
      "▁chło": 1960,
      "cić": 1961,
      "▁wą": 1962,
      "▁Fa": 1963,
      "lim": 1964,
      "trze": 1965,
      "iadomości": 1966,
      "▁służ": 1967,
      "▁sytuacji": 1968,
      "▁państwa": 1969,
      "▁informacji": 1970,
      "▁niektó": 1971,
      "▁Ku": 1972,
      "ciel": 1973,
      "▁poko": 1974,
      "wego": 1975,
      "▁klie": 1976,
      "ministra": 1977,
      "▁problem": 1978,
      "ałam": 1979,
      "mysł": 1980,
      "▁mieć": 1981,
      "▁mężczy": 1982,
      "bym": 1983,
      "lacji": 1984,
      "▁spad": 1985,
      "owiem": 1986,
      "▁zada": 1987,
      "ver": 1988,
      "??": 1989,
      "▁Se": 1990,
      "▁żo": 1991,
      "▁zasa": 1992,
      "▁którą": 1993,
      "▁stop": 1994,
      "▁twa": 1995,
      "▁nr": 1996,
      "▁książki": 1997,
      "nes": 1998,
      "▁nowe": 1999,
      "IE": 2000,
      "nuje": 2001,
      "▁zało": 2002,
      "ńskiej": 2003,
      "▁and": 2004,
      "▁konku": 2005,
      "▁zakoń": 2006,
      "▁zu": 2007,
      "orów": 2008,
      "rzyć": 2009,
      "▁otrzy": 2010,
      "tuje": 2011,
      "tami": 2012,
      "▁długo": 2013,
      "szenie": 2014,
      "▁początku": 2015,
      "▁część": 2016,
      "▁miejsc": 2017,
      "▁ska": 2018,
      "▁zdecy": 2019,
      "▁gene": 2020,
      "szech": 2021,
      "▁opu": 2022,
      "szyscy": 2023,
      "▁wyłą": 2024,
      "owości": 2025,
      "uka": 2026,
      "óż": 2027,
      "mis": 2028,
      "kol": 2029,
      "▁wspo": 2030,
      "liwość": 2031,
      "▁dziś": 2032,
      "▁kro": 2033,
      "▁poza": 2034,
      "▁czerw": 2035,
      "▁zaś": 2036,
      "▁taki": 2037,
      "wiat": 2038,
      "▁rozm": 2039,
      "ktyw": 2040,
      "▁zarzą": 2041,
      "ler": 2042,
      "▁skład": 2043,
      "▁Tagi": 2044,
      "▁ana": 2045,
      "▁uwagę": 2046,
      "▁TV": 2047,
      "fo": 2048,
      "wódz": 2049,
      "▁działania": 2050,
      "▁Ukrai": 2051,
      "czki": 2052,
      "tel": 2053,
      "▁dzięki": 2054,
      "▁Mie": 2055,
      "mawia": 2056,
      "▁języ": 2057,
      "▁współpra": 2058,
      "bia": 2059,
      "wala": 2060,
      "▁czu": 2061,
      "▁Y": 2062,
      "▁zre": 2063,
      "▁one": 2064,
      "rucho": 2065,
      "prawdę": 2066,
      "owymi": 2067,
      "▁zdoby": 2068,
      "▁opera": 2069,
      "▁lip": 2070,
      "kla": 2071,
      "ke": 2072,
      "cenia": 2073,
      "▁zwie": 2074,
      "kuje": 2075,
      "dach": 2076,
      "▁jednym": 2077,
      "▁podkre": 2078,
      "gnie": 2079,
      "aru": 2080,
      "▁swoją": 2081,
      "nowa": 2082,
      "▁świecie": 2083,
      "▁Może": 2084,
      "▁grani": 2085,
      "ckiego": 2086,
      "▁wę": 2087,
      "▁.": 2088,
      "▁powsta": 2089,
      "▁inwesty": 2090,
      "▁The": 2091,
      "rzył": 2092,
      "▁dom": 2093,
      "land": 2094,
      "▁wło": 2095,
      "cjach": 2096,
      "▁chwili": 2097,
      "▁nigdy": 2098,
      "▁Pu": 2099,
      "dzę": 2100,
      "piera": 2101,
      "▁najlep": 2102,
      "tym": 2103,
      "czeństwa": 2104,
      "▁wobec": 2105,
      "cami": 2106,
      "pę": 2107,
      "▁zain": 2108,
      "▁iż": 2109,
      "▁wartości": 2110,
      "▁zmienia": 2111,
      "▁mode": 2112,
      "spek": 2113,
      "ciem": 2114,
      "gar": 2115,
      "▁nią": 2116,
      "czony": 2117,
      "stan": 2118,
      "▁razie": 2119,
      "▁kul": 2120,
      "bro": 2121,
      "czonych": 2122,
      "owę": 2123,
      "▁najbardziej": 2124,
      "▁Dz": 2125,
      "lach": 2126,
      "▁jedynie": 2127,
      "wych": 2128,
      "ięk": 2129,
      "▁repre": 2130,
      "▁szybko": 2131,
      "▁Ży": 2132,
      "szcz": 2133,
      "AT": 2134,
      "nomi": 2135,
      "▁sty": 2136,
      "leg": 2137,
      "▁miasta": 2138,
      "▁efek": 2139,
      "▁samocho": 2140,
      "▁Wiel": 2141,
      "▁Si": 2142,
      "▁Ha": 2143,
      "ciąż": 2144,
      "▁powodu": 2145,
      "▁muzy": 2146,
      "ńska": 2147,
      "yba": 2148,
      "misji": 2149,
      "▁sztu": 2150,
      "▁Jednak": 2151,
      "▁zawiera": 2152,
      "pła": 2153,
      "rami": 2154,
      "▁sier": 2155,
      "rum": 2156,
      "▁opi": 2157,
      "▁Pier": 2158,
      "ium": 2159,
      "▁zakresie": 2160,
      "hat": 2161,
      "tro": 2162,
      "▁przyja": 2163,
      "szczę": 2164,
      "▁Według": 2165,
      "wiek": 2166,
      "cep": 2167,
      "let": 2168,
      "▁mieszkań": 2169,
      "▁Dzi": 2170,
      "ster": 2171,
      "▁Be": 2172,
      "rzo": 2173,
      "podob": 2174,
      "▁kwiet": 2175,
      "▁chodzi": 2176,
      "tne": 2177,
      "▁bowiem": 2178,
      "dli": 2179,
      "kura": 2180,
      "▁zoba": 2181,
      "▁swoim": 2182,
      "▁około": 2183,
      "wz": 2184,
      "rafi": 2185,
      "kolwiek": 2186,
      "com": 2187,
      "▁stronie": 2188,
      "lna": 2189,
      "▁Lo": 2190,
      "▁kierow": 2191,
      "▁ogło": 2192,
      "ogra": 2193,
      "▁oczy": 2194,
      "▁korzysta": 2195,
      "▁eg": 2196,
      "▁ameryka": 2197,
      "▁większo": 2198,
      "▁księ": 2199,
      "▁miejscu": 2200,
      "ździer": 2201,
      "cyjnego": 2202,
      "▁działalności": 2203,
      "wić": 2204,
      "noc": 2205,
      "▁listo": 2206,
      "▁przykład": 2207,
      "wały": 2208,
      "▁wej": 2209,
      "▁rząd": 2210,
      "▁przewo": 2211,
      "▁jeste": 2212,
      "▁przej": 2213,
      "▁Uni": 2214,
      "▁drugi": 2215,
      "▁Autor": 2216,
      "▁Poli": 2217,
      "row": 2218,
      "▁Spo": 2219,
      "▁jeżeli": 2220,
      "▁zespo": 2221,
      "▁swojej": 2222,
      "▁oś": 2223,
      "gh": 2224,
      "tacji": 2225,
      "▁stycznia": 2226,
      "▁mam": 2227,
      "▁fo": 2228,
      "▁Rad": 2229,
      "▁każd": 2230,
      "ld": 2231,
      "▁pani": 2232,
      "ir": 2233,
      "▁zostały": 2234,
      "▁isto": 2235,
      "fika": 2236,
      "łym": 2237,
      "▁Jego": 2238,
      "▁sobą": 2239,
      "▁związku": 2240,
      "▁znale": 2241,
      "▁obej": 2242,
      "▁paździer": 2243,
      "▁samym": 2244,
      "rii": 2245,
      "możli": 2246,
      "chał": 2247,
      "▁cięż": 2248,
      "▁Su": 2249,
      "▁at": 2250,
      "▁Cy": 2251,
      "▁Ze": 2252,
      "▁urzę": 2253,
      "▁słowa": 2254,
      "▁sez": 2255,
      "▁dwu": 2256,
      "gry": 2257,
      "▁Ru": 2258,
      "tkow": 2259,
      "dziła": 2260,
      "▁odpowiedni": 2261,
      "oważ": 2262,
      "▁ponieważ": 2263,
      "▁ciągu": 2264,
      "▁telewi": 2265,
      "▁Ry": 2266,
      "▁kan": 2267,
      "▁wybra": 2268,
      "rzch": 2269,
      "▁per": 2270,
      "▁Niem": 2271,
      "ser": 2272,
      "cieli": 2273,
      "tat": 2274,
      "▁rozu": 2275,
      "▁Ci": 2276,
      "▁Ca": 2277,
      "owano": 2278,
      "▁oznacza": 2279,
      "jo": 2280,
      "▁powst": 2281,
      "▁gó": 2282,
      "▁zmiany": 2283,
      "▁uważa": 2284,
      "dności": 2285,
      "▁dodatk": 2286,
      "czym": 2287,
      "▁dalej": 2288,
      "▁firm": 2289,
      "▁naprawdę": 2290,
      "racji": 2291,
      "▁wyna": 2292,
      "▁zaczę": 2293,
      "▁wypad": 2294,
      "▁drugiej": 2295,
      "cyjny": 2296,
      "liza": 2297,
      "▁zwięk": 2298,
      "▁zwo": 2299,
      "ion": 2300,
      "▁ludzie": 2301,
      "rót": 2302,
      ".)": 2303,
      "▁mał": 2304,
      "▁państw": 2305,
      "kł": 2306,
      "nien": 2307,
      "kowych": 2308,
      "▁szczę": 2309,
      "▁zale": 2310,
      "▁be": 2311,
      "▁nato": 2312,
      "spoli": 2313,
      "▁zapa": 2314,
      "mieniu": 2315,
      "▁USA": 2316,
      "▁natomiast": 2317,
      "jął": 2318,
      "west": 2319,
      "czka": 2320,
      "▁wyro": 2321,
      "▁szan": 2322,
      "▁Są": 2323,
      "▁odby": 2324,
      "▁dlatego": 2325,
      "▁Jan": 2326,
      "▁miło": 2327,
      "▁uczest": 2328,
      "▁Wła": 2329,
      "▁miejsca": 2330,
      "▁prawie": 2331,
      "▁wyż": 2332,
      "rzał": 2333,
      "▁kwo": 2334,
      "▁tyle": 2335,
      "▁wykony": 2336,
      "nij": 2337,
      "arówno": 2338,
      "▁Woj": 2339,
      "▁preze": 2340,
      "--": 2341,
      "emu": 2342,
      "▁ł": 2343,
      "▁wraz": 2344,
      "dopodob": 2345,
      "▁nowych": 2346,
      "sach": 2347,
      "jedno": 2348,
      "▁dzień": 2349,
      "dzeni": 2350,
      "▁zatru": 2351,
      "ton": 2352,
      "▁koniec": 2353,
      "▁sierp": 2354,
      "ron": 2355,
      "rzej": 2356,
      "zw": 2357,
      "▁zmian": 2358,
      "bieg": 2359,
      "narod": 2360,
      "wal": 2361,
      "menty": 2362,
      "▁ramach": 2363,
      "cyjnej": 2364,
      "▁sce": 2365,
      "▁My": 2366,
      "wszy": 2367,
      "▁łat": 2368,
      "▁stwo": 2369,
      "▁rozwo": 2370,
      "czaj": 2371,
      "▁krzy": 2372,
      "tyka": 2373,
      "▁przyj": 2374,
      "▁kredy": 2375,
      "cem": 2376,
      "▁Wszyst": 2377,
      "▁Gra": 2378,
      "niejsze": 2379,
      "▁zbyt": 2380,
      "▁Tytuł": 2381,
      "lia": 2382,
      "kazuje": 2383,
      "▁wybor": 2384,
      "tom": 2385,
      "▁możliwości": 2386,
      "▁minu": 2387,
      "▁Art": 2388,
      "▁obu": 2389,
      "▁potwier": 2390,
      "▁dopiero": 2391,
      "▁wśród": 2392,
      "zależ": 2393,
      "moc": 2394,
      "kce": 2395,
      "ortu": 2396,
      "śla": 2397,
      "kowe": 2398,
      "▁grudnia": 2399,
      "▁potrzeb": 2400,
      "▁He": 2401,
      "▁dwie": 2402,
      "pomina": 2403,
      "▁administra": 2404,
      "▁pozost": 2405,
      "▁uzyska": 2406,
      "▁pozwo": 2407,
      "▁niewie": 2408,
      "▁maja": 2409,
      "mencie": 2410,
      "▁najmniej": 2411,
      "▁wciąż": 2412,
      "▁sły": 2413,
      "czął": 2414,
      "▁zaku": 2415,
      "▁Minister": 2416,
      "▁jednej": 2417,
      "▁odp": 2418,
      "▁ud": 2419,
      "wach": 2420,
      "▁jednego": 2421,
      "▁zm": 2422,
      "▁sło": 2423,
      "▁trafi": 2424,
      "qu": 2425,
      "onów": 2426,
      "lii": 2427,
      "serw": 2428,
      "are": 2429,
      "▁Bry": 2430,
      "sek": 2431,
      "wym": 2432,
      "▁czerwca": 2433,
      "▁PiS": 2434,
      "▁nowo": 2435,
      "wają": 2436,
      "fer": 2437,
      "▁Krzy": 2438,
      "▁zewnętrz": 2439,
      "▁osiąg": 2440,
      "▁podmio": 2441,
      "nter": 2442,
      "▁zy": 2443,
      "▁wra": 2444,
      "▁sen": 2445,
      "▁głos": 2446,
      "pisów": 2447,
      "wej": 2448,
      "▁klasy": 2449,
      "pospoli": 2450,
      "kół": 2451,
      "rybu": 2452,
      "▁marca": 2453,
      "▁znalaz": 2454,
      "nione": 2455,
      "▁dziew": 2456,
      "niach": 2457,
      "pia": 2458,
      "inform": 2459,
      "▁dowo": 2460,
      "▁przewi": 2461,
      "dzieli": 2462,
      "▁drz": 2463,
      "▁doświad": 2464,
      "▁materi": 2465,
      "▁fak": 2466,
      "▁rzeczy": 2467,
      "▁końcu": 2468,
      "▁docho": 2469,
      "bud": 2470,
      "▁towarzy": 2471,
      "▁film": 2472,
      "▁sieci": 2473,
      "nne": 2474,
      "nikiem": 2475,
      "▁połu": 2476,
      "▁podstaw": 2477,
      "▁możli": 2478,
      "wany": 2479,
      "logii": 2480,
      "▁termi": 2481,
      "ałych": 2482,
      "▁sła": 2483,
      "▁mld": 2484,
      "▁Rob": 2485,
      "▁kur": 2486,
      "łnie": 2487,
      "▁września": 2488,
      "▁pienię": 2489,
      "▁pozna": 2490,
      "tura": 2491,
      "ble": 2492,
      "sh": 2493,
      "▁czar": 2494,
      "pol": 2495,
      "▁istnie": 2496,
      "żna": 2497,
      "▁przede": 2498,
      "▁Ge": 2499,
      "▁lipca": 2500,
      "▁Tym": 2501,
      "▁prostu": 2502,
      "▁zostanie": 2503,
      "ówczas": 2504,
      "▁popu": 2505,
      "spół": 2506,
      "▁cu": 2507,
      "▁jestem": 2508,
      "chem": 2509,
      "krę": 2510,
      "▁Jeżeli": 2511,
      "▁skar": 2512,
      "▁grupy": 2513,
      "dek": 2514,
      "▁Przed": 2515,
      "▁cent": 2516,
      "mienie": 2517,
      "gów": 2518,
      "▁eko": 2519,
      "para": 2520,
      "▁byli": 2521,
      "▁dokona": 2522,
      "tyj": 2523,
      "▁okoli": 2524,
      "▁wojewódz": 2525,
      "wicz": 2526,
      "szczy": 2527,
      "▁rosyj": 2528,
      "▁wysokości": 2529,
      "strzost": 2530,
      "▁jakby": 2531,
      "tp": 2532,
      "lony": 2533,
      "szła": 2534,
      "rakt": 2535,
      "pełnie": 2536,
      "feren": 2537,
      "tow": 2538,
      "▁ubezpie": 2539,
      "▁v": 2540,
      "▁Teraz": 2541,
      "▁gdyby": 2542,
      "▁człowieka": 2543,
      "cym": 2544,
      "▁umowy": 2545,
      "▁ile": 2546,
      "▁połą": 2547,
      "cko": 2548,
      "▁końca": 2549,
      "▁Dy": 2550,
      "▁wykorzysta": 2551,
      "▁psy": 2552,
      "▁UE": 2553,
      "▁myśli": 2554,
      "▁kam": 2555,
      "▁wykorzy": 2556,
      "▁zarówno": 2557,
      "maty": 2558,
      "rozu": 2559,
      "▁dużo": 2560,
      "▁wynosi": 2561,
      "▁mówił": 2562,
      "ńczy": 2563,
      "▁proble": 2564,
      "▁okresie": 2565,
      "wski": 2566,
      "▁ge": 2567,
      "ńskie": 2568,
      "▁wyją": 2569,
      "▁środowi": 2570,
      "▁kwietnia": 2571,
      "nim": 2572,
      "▁cel": 2573,
      "▁możemy": 2574,
      "▁obraz": 2575,
      "poś": 2576,
      "teres": 2577,
      "rócił": 2578,
      "▁Kar": 2579,
      "▁śmierci": 2580,
      "▁obecnie": 2581,
      "▁brz": 2582,
      "▁według": 2583,
      "ger": 2584,
      "dio": 2585,
      "▁wojsk": 2586,
      "▁poda": 2587,
      "śni": 2588,
      "▁przekona": 2589,
      "▁czeka": 2590,
      "prac": 2591,
      "es": 2592,
      "▁poło": 2593,
      "▁techno": 2594,
      "▁ide": 2595,
      "▁nieu": 2596,
      "▁odpowiedzial": 2597,
      "▁zasad": 2598,
      "▁względu": 2599,
      "▁hand": 2600,
      "iadomo": 2601,
      "▁opie": 2602,
      "▁przyczy": 2603,
      "▁wywo": 2604,
      "tny": 2605,
      "ósł": 2606,
      "▁konsu": 2607,
      "mał": 2608,
      "▁zawar": 2609,
      "▁dobre": 2610,
      "▁lek": 2611,
      "▁tek": 2612,
      "ią": 2613,
      "▁regi": 2614,
      "▁swój": 2615,
      "▁pierwsze": 2616,
      "▁składa": 2617,
      "▁powinien": 2618,
      "▁przyszło": 2619,
      "żony": 2620,
      "▁zauwa": 2621,
      "▁gry": 2622,
      "▁wszyscy": 2623,
      "▁emery": 2624,
      "▁cen": 2625,
      "▁spoj": 2626,
      "▁reprezen": 2627,
      "▁głę": 2628,
      "▁budow": 2629,
      "▁potrafi": 2630,
      "▁kształ": 2631,
      "▁Wiadomości": 2632,
      "▁Bibli": 2633,
      "▁chciał": 2634,
      "▁użytkow": 2635,
      "▁budże": 2636,
      "▁niepo": 2637,
      "kowej": 2638,
      "▁pomocy": 2639,
      "▁kolei": 2640,
      "▁nadzie": 2641,
      "szel": 2642,
      "▁spa": 2643,
      "▁nor": 2644,
      "ńskich": 2645,
      "▁twier": 2646,
      "▁duży": 2647,
      "▁otwar": 2648,
      "▁swojego": 2649,
      "ąc": 2650,
      "▁tytu": 2651,
      "nka": 2652,
      "▁tere": 2653,
      "cio": 2654,
      "▁przestrze": 2655,
      "▁wojny": 2656,
      "▁Fun": 2657,
      "▁zagro": 2658,
      "▁zamk": 2659,
      "▁rozwi": 2660,
      "▁trzech": 2661,
      "kazu": 2662,
      "▁środków": 2663,
      "cjon": 2664,
      "kwi": 2665,
      "cen": 2666,
      "pier": 2667,
      "▁ktoś": 2668,
      "▁wyzna": 2669,
      "▁szef": 2670,
      "▁ucie": 2671,
      "▁para": 2672,
      "nar": 2673,
      "▁gmi": 2674,
      "▁poinform": 2675,
      "▁ogrom": 2676,
      "▁wypo": 2677,
      "▁ata": 2678,
      "va": 2679,
      "▁przecież": 2680,
      "▁rzu": 2681,
      "ściej": 2682,
      "▁Wło": 2683,
      "▁uli": 2684,
      "▁pięk": 2685,
      "atyw": 2686,
      "▁Sto": 2687,
      "▁Lin": 2688,
      "kazy": 2689,
      "▁zgodnie": 2690,
      "▁października": 2691,
      "wienia": 2692,
      "gno": 2693,
      "▁miesięcy": 2694,
      "▁konta": 2695,
      "żone": 2696,
      "chód": 2697,
      "▁premie": 2698,
      "▁zapy": 2699,
      "▁zrobić": 2700,
      "tać": 2701,
      "▁pole": 2702,
      "towa": 2703,
      "mart": 2704,
      "trów": 2705,
      "nięcia": 2706,
      "▁kwest": 2707,
      "▁Fe": 2708,
      "▁media": 2709,
      "jęcie": 2710,
      "▁pracowników": 2711,
      "ałą": 2712,
      "tur": 2713,
      "lną": 2714,
      "▁różnych": 2715,
      "▁ści": 2716,
      "▁historii": 2717,
      "chodni": 2718,
      "▁Wil": 2719,
      "▁listopada": 2720,
      "czek": 2721,
      "ciej": 2722,
      "▁oba": 2723,
      "▁trochę": 2724,
      "erwo": 2725,
      "▁zapro": 2726,
      "kładu": 2727,
      "▁wyb": 2728,
      "zyj": 2729,
      "dniu": 2730,
      "▁tzw": 2731,
      "wersy": 2732,
      "▁apli": 2733,
      "szcie": 2734,
      "▁wygra": 2735,
      "▁dem": 2736,
      "▁pią": 2737,
      "▁projekt": 2738,
      "▁pozwala": 2739,
      "bą": 2740,
      "▁nadal": 2741,
      "▁pracę": 2742,
      "▁dziennika": 2743,
      "▁typu": 2744,
      "tural": 2745,
      "▁gwia": 2746,
      "szał": 2747,
      "kształ": 2748,
      "▁ocze": 2749,
      "▁Bra": 2750,
      "▁Par": 2751,
      "▁dal": 2752,
      "łaszcza": 2753,
      "▁organiza": 2754,
      "ckie": 2755,
      "dami": 2756,
      "▁aktyw": 2757,
      "▁sprzedaży": 2758,
      "▁wyj": 2759,
      "▁Narod": 2760,
      "▁internet": 2761,
      "▁jedną": 2762,
      "▁wygląda": 2763,
      "▁Warszawie": 2764,
      "▁instytu": 2765,
      "dzone": 2766,
      "▁brak": 2767,
      "▁Pio": 2768,
      "▁chyba": 2769,
      "ckiej": 2770,
      "▁Ban": 2771,
      "▁rekla": 2772,
      "▁tutaj": 2773,
      "▁okrę": 2774,
      "▁Wię": 2775,
      "▁wystar": 2776,
      "ńskim": 2777,
      "▁Zoba": 2778,
      "ciaż": 2779,
      "ścio": 2780,
      "▁komunika": 2781,
      "źnie": 2782,
      "▁systemu": 2783,
      "▁leka": 2784,
      "▁prawdzi": 2785,
      "▁wielo": 2786,
      "▁pora": 2787,
      "ciela": 2788,
      "rew": 2789,
      "▁następu": 2790,
      "▁przezna": 2791,
      "▁usług": 2792,
      "▁pr": 2793,
      "rzeć": 2794,
      "▁zastos": 2795,
      "nnych": 2796,
      "▁zainteres": 2797,
      "stwie": 2798,
      "▁obyw": 2799,
      "▁pierwszej": 2800,
      "▁Pan": 2801,
      "▁budy": 2802,
      "równa": 2803,
      "▁lepiej": 2804,
      "▁krót": 2805,
      "▁otrzyma": 2806,
      "▁sierpnia": 2807,
      "▁choro": 2808,
      "▁poważ": 2809,
      "▁Rady": 2810,
      "les": 2811,
      "▁pryw": 2812,
      "▁obli": 2813,
      "▁takiego": 2814,
      "▁cieka": 2815,
      "▁lep": 2816,
      "▁Ste": 2817,
      "cenie": 2818,
      "▁świę": 2819,
      "niósł": 2820,
      "ura": 2821,
      "IA": 2822,
      "▁produk": 2823,
      "łaty": 2824,
      "staw": 2825,
      "▁stara": 2826,
      "▁urzą": 2827,
      "▁nieco": 2828,
      "▁PO": 2829,
      "▁zawod": 2830,
      "ału": 2831,
      "wersyte": 2832,
      "▁wybo": 2833,
      "▁dość": 2834,
      "kowy": 2835,
      "▁ludz": 2836,
      "dzeniu": 2837,
      "▁sę": 2838,
      "▁Rosji": 2839,
      "owało": 2840,
      "▁meto": 2841,
      "zmu": 2842,
      "chać": 2843,
      "stawia": 2844,
      "▁znajduje": 2845,
      "tychczas": 2846,
      "▁Ten": 2847,
      "▁Cie": 2848,
      "▁ryzy": 2849,
      "jaw": 2850,
      "dzeń": 2851,
      "▁polskich": 2852,
      "▁speł": 2853,
      "zio": 2854,
      "▁średni": 2855,
      "▁stru": 2856,
      "▁pienią": 2857,
      "▁fizy": 2858,
      "sło": 2859,
      "▁Europy": 2860,
      "▁decyz": 2861,
      "▁znaleź": 2862,
      "▁Ce": 2863,
      "wił": 2864,
      "▁lotni": 2865,
      "▁zaczyna": 2866,
      "▁wszel": 2867,
      "▁powierzch": 2868,
      "lił": 2869,
      "▁trak": 2870,
      "▁zob": 2871,
      "dro": 2872,
      "▁uśmie": 2873,
      "▁tow": 2874,
      "▁pomoc": 2875,
      "▁zagrani": 2876,
      "krotnie": 2877,
      "▁Gru": 2878,
      "▁rzeczywi": 2879,
      "czeni": 2880,
      "▁Był": 2881,
      "▁fran": 2882,
      "owały": 2883,
      "▁zwycię": 2884,
      "▁Chi": 2885,
      "▁bezpoś": 2886,
      "▁sukce": 2887,
      "jemy": 2888,
      "ografia": 2889,
      "wało": 2890,
      "▁Sam": 2891,
      "▁nimi": 2892,
      "stw": 2893,
      "▁oświad": 2894,
      "stety": 2895,
      "giel": 2896,
      "▁am": 2897,
      "▁zrozu": 2898,
      "▁tłuma": 2899,
      "US": 2900,
      "sami": 2901,
      "gła": 2902,
      "strzy": 2903,
      "▁innymi": 2904,
      "nale": 2905,
      "▁km": 2906,
      "▁rodziny": 2907,
      "lin": 2908,
      "zent": 2909,
      "id": 2910,
      "▁dane": 2911,
      "▁przedmio": 2912,
      "▁zostało": 2913,
      "tycznie": 2914,
      "▁rozpoczę": 2915,
      "▁decyzji": 2916,
      "▁Cze": 2917,
      "▁dokład": 2918,
      "▁kr": 2919,
      "▁zostać": 2920,
      "▁całkowi": 2921,
      "zdy": 2922,
      "bliż": 2923,
      "tyczne": 2924,
      "▁możliwość": 2925,
      "▁ul": 2926,
      "▁wido": 2927,
      "▁wymie": 2928,
      "lić": 2929,
      "▁udzie": 2930,
      "▁minister": 2931,
      "łych": 2932,
      "ft": 2933,
      "▁występu": 2934,
      "▁znacznie": 2935,
      "gram": 2936,
      "▁narod": 2937,
      "Dz": 2938,
      "▁jas": 2939,
      "koj": 2940,
      "jach": 2941,
      "▁Ser": 2942,
      "miar": 2943,
      "▁wówczas": 2944,
      "czność": 2945,
      "▁ogól": 2946,
      "▁wiem": 2947,
      "▁jaką": 2948,
      "alne": 2949,
      "wzglę": 2950,
      "▁ostatnich": 2951,
      "giem": 2952,
      "▁źród": 2953,
      "▁Zie": 2954,
      "szyć": 2955,
      "codaw": 2956,
      "▁podatku": 2957,
      "son": 2958,
      "sor": 2959,
      "▁szero": 2960,
      "▁charak": 2961,
      "▁powiedzieć": 2962,
      "▁Inter": 2963,
      "▁utwo": 2964,
      "obie": 2965,
      "onie": 2966,
      "▁wiadomo": 2967,
      "▁informacje": 2968,
      "przy": 2969,
      "▁żołnie": 2970,
      "▁najważ": 2971,
      "▁zab": 2972,
      "▁program": 2973,
      "▁upraw": 2974,
      "▁pił": 2975,
      "rysty": 2976,
      "▁mieli": 2977,
      "▁powiedziała": 2978,
      "▁lutego": 2979,
      "dny": 2980,
      "▁poczu": 2981,
      "tal": 2982,
      "▁każdym": 2983,
      "▁mimo": 2984,
      "▁Ost": 2985,
      "▁gdyż": 2986,
      "▁skrzy": 2987,
      "rzeń": 2988,
      "▁Ber": 2989,
      "▁wyłącznie": 2990,
      "▁prób": 2991,
      "▁zupełnie": 2992,
      "owaniem": 2993,
      "▁razy": 2994,
      "▁koncer": 2995,
      "▁wynagro": 2996,
      "▁pracu": 2997,
      "sługu": 2998,
      "▁wspom": 2999,
      "▁drzwi": 3000,
      "▁spowo": 3001,
      "▁niemiec": 3002,
      "▁rodzaju": 3003,
      "▁Dlatego": 3004,
      "▁niemal": 3005,
      "kowego": 3006,
      "story": 3007,
      "niał": 3008,
      "▁spółki": 3009,
      "▁sprawy": 3010,
      "▁mor": 3011,
      "▁inf": 3012,
      "▁drodze": 3013,
      "fy": 3014,
      "lizacji": 3015,
      "▁serwi": 3016,
      "sługi": 3017,
      "▁takim": 3018,
      "▁wice": 3019,
      "▁płat": 3020,
      "▁europej": 3021,
      "▁Op": 3022,
      "▁niektórych": 3023,
      "▁wzrost": 3024,
      "▁biz": 3025,
      "▁szczeg": 3026,
      "▁reje": 3027,
      "ckich": 3028,
      "▁blo": 3029,
      "▁kompu": 3030,
      "▁chwilę": 3031,
      "▁zdrowia": 3032,
      "▁Zjedno": 3033,
      "▁plan": 3034,
      "dr": 3035,
      "lał": 3036,
      "▁mogła": 3037,
      "dra": 3038,
      "▁nowego": 3039,
      "▁ilo": 3040,
      "▁okres": 3041,
      "▁dra": 3042,
      "▁kad": 3043,
      "▁Hu": 3044,
      "▁koro": 3045,
      "▁Sport": 3046,
      "fie": 3047,
      "▁rozwoju": 3048,
      "▁tysięcy": 3049,
      "▁produkcji": 3050,
      "▁bro": 3051,
      "rój": 3052,
      "▁przepisów": 3053,
      "tna": 3054,
      "▁odda": 3055,
      "▁pierwszym": 3056,
      "▁prywat": 3057,
      "▁stronę": 3058,
      "▁zarządza": 3059,
      "szuki": 3060,
      "▁korzy": 3061,
      "▁Uro": 3062,
      "▁dow": 3063,
      "▁obo": 3064,
      "▁życiu": 3065,
      "▁dia": 3066,
      "▁mężczyz": 3067,
      "▁uda": 3068,
      "▁fundu": 3069,
      "▁pewno": 3070,
      "▁stre": 3071,
      "▁cywi": 3072,
      "▁Pla": 3073,
      "tnych": 3074,
      "▁twór": 3075,
      "▁stał": 3076,
      "wienie": 3077,
      "biega": 3078,
      "▁strze": 3079,
      "Ba": 3080,
      "▁znajdu": 3081,
      "▁naszych": 3082,
      "▁'": 3083,
      "▁Mat": 3084,
      "klu": 3085,
      "▁mogli": 3086,
      "szpa": 3087,
      "▁fe": 3088,
      "▁Zobacz": 3089,
      "▁organ": 3090,
      "▁chcą": 3091,
      "▁orze": 3092,
      "▁sąd": 3093,
      "lone": 3094,
      "pospolitej": 3095,
      "stał": 3096,
      "▁takiej": 3097,
      "▁?": 3098,
      "RA": 3099,
      "jąć": 3100,
      "▁zapo": 3101,
      "▁nierucho": 3102,
      "reszcie": 3103,
      "zer": 3104,
      "▁autor": 3105,
      "▁wspar": 3106,
      "noszą": 3107,
      "▁zobowią": 3108,
      "▁zdecyd": 3109,
      "fli": 3110,
      "▁Trze": 3111,
      "nków": 3112,
      "▁he": 3113,
      "▁nikt": 3114,
      "▁kandy": 3115,
      "▁mało": 3116,
      "godnie": 3117,
      "▁następnie": 3118,
      "▁prowadzą": 3119,
      "siaj": 3120,
      "▁dziedzi": 3121,
      "▁Ada": 3122,
      "nny": 3123,
      "ctwa": 3124,
      "▁złotych": 3125,
      "szył": 3126,
      "▁głównie": 3127,
      "▁robo": 3128,
      "▁udało": 3129,
      "▁nadz": 3130,
      "▁Bibliografia": 3131,
      "▁poje": 3132,
      "▁przycho": 3133,
      "▁aktu": 3134,
      "wio": 3135,
      "puszcza": 3136,
      "bur": 3137,
      "niony": 3138,
      "▁ciem": 3139,
      "▁bry": 3140,
      "tere": 3141,
      "▁procent": 3142,
      "▁jakim": 3143,
      "▁energii": 3144,
      "▁akcji": 3145,
      "▁międzynarod": 3146,
      "rzem": 3147,
      "▁ponow": 3148,
      "tory": 3149,
      "▁popular": 3150,
      "▁/": 3151,
      "▁szuka": 3152,
      "suje": 3153,
      "▁pisa": 3154,
      "▁nowy": 3155,
      "▁Ki": 3156,
      "ktury": 3157,
      "▁kierunku": 3158,
      "listy": 3159,
      "▁śle": 3160,
      "▁pis": 3161,
      "skiem": 3162,
      "▁polski": 3163,
      "żd": 3164,
      "skar": 3165,
      "▁wewnętrz": 3166,
      "▁sym": 3167,
      "▁innego": 3168,
      "fikacji": 3169,
      "▁osobi": 3170,
      "▁człowiek": 3171,
      "▁zja": 3172,
      "▁jakiś": 3173,
      "▁poł": 3174,
      "▁obsz": 3175,
      "rytor": 3176,
      "▁skute": 3177,
      "▁ziemi": 3178,
      "▁ab": 3179,
      "▁odw": 3180,
      "▁Sej": 3181,
      "▁piłka": 3182,
      "▁Kra": 3183,
      "▁odkry": 3184,
      "kor": 3185,
      "wną": 3186,
      "▁raczej": 3187,
      "▁gór": 3188,
      "▁Przez": 3189,
      "▁postaci": 3190,
      "▁pomocą": 3191,
      "▁Ad": 3192,
      "▁wpływ": 3193,
      "cjami": 3194,
      "▁Rosja": 3195,
      "dnych": 3196,
      "usza": 3197,
      "▁dotyczące": 3198,
      "kować": 3199,
      "lek": 3200,
      "▁szpita": 3201,
      "▁Sie": 3202,
      "obra": 3203,
      "pienia": 3204,
      "▁zagra": 3205,
      "▁dobry": 3206,
      "▁bran": 3207,
      "▁dyre": 3208,
      "▁druży": 3209,
      "ckim": 3210,
      "▁błę": 3211,
      "▁transp": 3212,
      "kowie": 3213,
      "▁wody": 3214,
      "▁dotychczas": 3215,
      "▁Gre": 3216,
      "▁powinna": 3217,
      "▁przypomina": 3218,
      "▁poprzez": 3219,
      "wart": 3220,
      "▁Pie": 3221,
      "▁mieszkańców": 3222,
      "▁pomiędzy": 3223,
      "wanych": 3224,
      "najmniej": 3225,
      "▁przysz": 3226,
      "sę": 3227,
      "dwie": 3228,
      "▁zmar": 3229,
      "try": 3230,
      "▁nauczy": 3231,
      "▁przer": 3232,
      "▁jednocześnie": 3233,
      "legło": 3234,
      "ert": 3235,
      "▁dr": 3236,
      "▁prawdopodob": 3237,
      "nowie": 3238,
      "▁pieniądze": 3239,
      "▁trady": 3240,
      "ZE": 3241,
      "▁rozporządzenia": 3242,
      "źni": 3243,
      "▁miały": 3244,
      "▁ur": 3245,
      "ou": 3246,
      "▁smart": 3247,
      "naczej": 3248,
      "▁kolejne": 3249,
      "twór": 3250,
      "▁napis": 3251,
      "▁oni": 3252,
      "▁For": 3253,
      "▁gi": 3254,
      "▁Świat": 3255,
      "▁Unii": 3256,
      "▁ukry": 3257,
      "▁zdaniem": 3258,
      "▁stanu": 3259,
      "pla": 3260,
      "▁przeciwko": 3261,
      "▁medy": 3262,
      "wana": 3263,
      "▁ple": 3264,
      "▁całej": 3265,
      "spra": 3266,
      "▁try": 3267,
      "ach": 3268,
      "▁Już": 3269,
      "▁oczywiście": 3270,
      "▁jedna": 3271,
      "▁badania": 3272,
      "nci": 3273,
      "▁stat": 3274,
      "ksy": 3275,
      "▁Bie": 3276,
      "nięcie": 3277,
      "▁ode": 3278,
      "larów": 3279,
      "kąd": 3280,
      "▁mini": 3281,
      "▁Pierw": 3282,
      "▁terytor": 3283,
      "▁PK": 3284,
      "cła": 3285,
      "▁najbliż": 3286,
      "grzy": 3287,
      "▁Ameryka": 3288,
      "▁programu": 3289,
      "niła": 3290,
      "cznik": 3291,
      "ina": 3292,
      ".\"": 3293,
      "rócić": 3294,
      "rad": 3295,
      "▁anty": 3296,
      "▁Iz": 3297,
      "owość": 3298,
      "▁nazy": 3299,
      "▁poziomie": 3300,
      "▁związane": 3301,
      "▁agen": 3302,
      "▁aktor": 3303,
      "AR": 3304,
      "▁dło": 3305,
      "▁prowadzi": 3306,
      "wiąz": 3307,
      "▁osoba": 3308,
      "pię": 3309,
      "▁czynności": 3310,
      "▁papie": 3311,
      "▁zni": 3312,
      "czeniem": 3313,
      "atun": 3314,
      "▁trans": 3315,
      "▁ceny": 3316,
      "▁prezydenta": 3317,
      "▁Cza": 3318,
      "zwy": 3319,
      "ian": 3320,
      "▁stało": 3321,
      "▁bezpieczeństwa": 3322,
      "▁wybu": 3323,
      "▁znajdzie": 3324,
      "robi": 3325,
      "wan": 3326,
      "nic": 3327,
      "działu": 3328,
      "▁liczba": 3329,
      "rie": 3330,
      "zda": 3331,
      "▁zabi": 3332,
      "▁wyniku": 3333,
      "port": 3334,
      "▁północ": 3335,
      "nans": 3336,
      "wła": 3337,
      "▁umożli": 3338,
      "pić": 3339,
      "▁zewnętrzne": 3340,
      "owanego": 3341,
      "▁zim": 3342,
      "▁nasze": 3343,
      "▁zatem": 3344,
      "ściu": 3345,
      "kazać": 3346,
      "▁III": 3347,
      "▁intere": 3348,
      "▁rządu": 3349,
      "▁utrzyma": 3350,
      "syw": 3351,
      "lus": 3352,
      "▁zwłaszcza": 3353,
      "wiają": 3354,
      "▁sub": 3355,
      "▁obni": 3356,
      "▁zmniej": 3357,
      "jów": 3358,
      "▁odpowiada": 3359,
      "▁Joh": 3360,
      "▁postępowania": 3361,
      "▁Europejskiej": 3362,
      "ST": 3363,
      "▁zależ": 3364,
      "▁Cent": 3365,
      "niejszych": 3366,
      "▁pięć": 3367,
      "dna": 3368,
      "ciele": 3369,
      "lub": 3370,
      "szczegól": 3371,
      "▁telef": 3372,
      "▁wypowie": 3373,
      "▁Pow": 3374,
      "stości": 3375,
      "roz": 3376,
      "▁odci": 3377,
      "▁wych": 3378,
      "kon": 3379,
      "owanej": 3380,
      "▁samego": 3381,
      "szczenia": 3382,
      "▁profe": 3383,
      "▁wyraz": 3384,
      "▁pracodaw": 3385,
      "osen": 3386,
      "licza": 3387,
      "óle": 3388,
      ");": 3389,
      "▁doprowa": 3390,
      "▁określa": 3391,
      "▁skó": 3392,
      "▁cztery": 3393,
      "▁pytanie": 3394,
      "bry": 3395,
      "▁poru": 3396,
      "▁siedzi": 3397,
      "▁sprzę": 3398,
      "AN": 3399,
      "▁przyję": 3400,
      "[/": 3401,
      "▁prakty": 3402,
      "gach": 3403,
      "▁polskiej": 3404,
      "tw": 3405,
      "owskiego": 3406,
      "▁wydaje": 3407,
      "▁dodat": 3408,
      "▁świet": 3409,
      "▁każdego": 3410,
      "▁oto": 3411,
      "▁całą": 3412,
      "▁Uniwersyte": 3413,
      "kładzie": 3414,
      "▁szczególnie": 3415,
      "żyła": 3416,
      "▁muszą": 3417,
      "nał": 3418,
      "▁miało": 3419,
      "nica": 3420,
      "nawiru": 3421,
      "▁ude": 3422,
      "wit": 3423,
      "▁Stra": 3424,
      "▁niezwy": 3425,
      "▁drze": 3426,
      "pij": 3427,
      "▁niedo": 3428,
      "▁organiz": 3429,
      "▁dziewczy": 3430,
      "▁dolarów": 3431,
      "▁naszej": 3432,
      "krzy": 3433,
      "▁ochrony": 3434,
      "▁duże": 3435,
      "▁polskiego": 3436,
      "▁wer": 3437,
      "▁kryzy": 3438,
      "▁większość": 3439,
      "▁wydat": 3440,
      "▁zaję": 3441,
      "▁Pat": 3442,
      "▁sport": 3443,
      "mat": 3444,
      "OR": 3445,
      "▁dział": 3446,
      "waniu": 3447,
      "czona": 3448,
      "▁kobiety": 3449,
      "▁oczeki": 3450,
      "lor": 3451,
      "▁obok": 3452,
      "świet": 3453,
      "▁Polaków": 3454,
      "it": 3455,
      "▁rośli": 3456,
      "nictwa": 3457,
      "▁niewy": 3458,
      "▁taka": 3459,
      "▁Dzięki": 3460,
      "umer": 3461,
      "▁Musi": 3462,
      "▁zaczął": 3463,
      "▁zabezpie": 3464,
      "twie": 3465,
      "▁musiał": 3466,
      "▁Bę": 3467,
      "▁względem": 3468,
      "▁dosko": 3469,
      "▁elektry": 3470,
      "▁wartość": 3471,
      "▁indy": 3472,
      "kał": 3473,
      "▁oficja": 3474,
      "▁mistrzost": 3475,
      "▁rozumie": 3476,
      "lina": 3477,
      "▁odwo": 3478,
      "knął": 3479,
      "▁firma": 3480,
      "waj": 3481,
      "▁Oczywiście": 3482,
      "▁śmie": 3483,
      "lew": 3484,
      "publi": 3485,
      "▁techni": 3486,
      "▁porówna": 3487,
      "▁Polskiej": 3488,
      "▁czasem": 3489,
      "▁Praw": 3490,
      "okra": 3491,
      "▁seria": 3492,
      "▁konty": 3493,
      "▁natural": 3494,
      "▁bru": 3495,
      "gia": 3496,
      "demii": 3497,
      "▁występ": 3498,
      "▁zasta": 3499,
      "▁doko": 3500,
      "▁zaraz": 3501,
      "▁dowie": 3502,
      "▁are": 3503,
      "▁popra": 3504,
      "▁udo": 3505,
      "▁got": 3506,
      "kowski": 3507,
      "▁sama": 3508,
      "sztą": 3509,
      "▁będziemy": 3510,
      "lona": 3511,
      "▁stanowią": 3512,
      "wolu": 3513,
      "▁widać": 3514,
      "zasad": 3515,
      "▁konkuren": 3516,
      "ff": 3517,
      "▁czwar": 3518,
      "▁dlaczego": 3519,
      "lno": 3520,
      "▁konkre": 3521,
      "▁zazna": 3522,
      "▁dłuż": 3523,
      "▁Europie": 3524,
      "▁opowie": 3525,
      "żeń": 3526,
      "▁szczy": 3527,
      "pów": 3528,
      "▁Kró": 3529,
      "▁wskaza": 3530,
      "▁Wszystko": 3531,
      "▁znaleźć": 3532,
      "▁działalność": 3533,
      "▁Szcze": 3534,
      "plo": 3535,
      "▁dziecko": 3536,
      "▁opar": 3537,
      "▁prokura": 3538,
      "▁spodzie": 3539,
      "▁zobowiąza": 3540,
      "▁Pozna": 3541,
      "▁Dru": 3542,
      "▁skle": 3543,
      "▁prawda": 3544,
      "rządzenie": 3545,
      "▁postanowi": 3546,
      "▁history": 3547,
      "▁pali": 3548,
      "tycznych": 3549,
      "▁powro": 3550,
      "▁sposob": 3551,
      "▁doj": 3552,
      "▁nada": 3553,
      "▁chociaż": 3554,
      "▁uwzglę": 3555,
      "czyk": 3556,
      "żona": 3557,
      "▁bezpośredni": 3558,
      "▁poch": 3559,
      "dzeniem": 3560,
      "▁kapi": 3561,
      "▁kosztów": 3562,
      "▁dodał": 3563,
      "▁Szy": 3564,
      "onal": 3565,
      "nęło": 3566,
      "bio": 3567,
      "▁prezydent": 3568,
      "▁przewodni": 3569,
      "widu": 3570,
      "▁całym": 3571,
      "cyjnym": 3572,
      "▁zawodni": 3573,
      "▁Ludzie": 3574,
      "▁ostate": 3575,
      "▁wier": 3576,
      "nionych": 3577,
      "▁wygląd": 3578,
      "pierw": 3579,
      "▁Każ": 3580,
      "▁czo": 3581,
      "rób": 3582,
      "cale": 3583,
      "kazał": 3584,
      "▁wyp": 3585,
      "▁prezes": 3586,
      "lot": 3587,
      "▁mogę": 3588,
      "▁was": 3589,
      "▁innym": 3590,
      "▁Kraj": 3591,
      "bów": 3592,
      "▁znów": 3593,
      "▁anali": 3594,
      "kać": 3595,
      "▁kobiet": 3596,
      "szek": 3597,
      "ciąga": 3598,
      "▁głębo": 3599,
      "▁Warto": 3600,
      "nowu": 3601,
      "ądź": 3602,
      "czeństwo": 3603,
      "▁liczby": 3604,
      "▁naszym": 3605,
      "▁Czę": 3606,
      "twarza": 3607,
      "▁czyta": 3608,
      "▁sprawę": 3609,
      ">>": 3610,
      "▁ekonomi": 3611,
      "▁dź": 3612,
      "▁Szko": 3613,
      "▁wielko": 3614,
      "▁cór": 3615,
      "▁niezależ": 3616,
      "▁Toma": 3617,
      "▁ogóle": 3618,
      "IT": 3619,
      "▁kata": 3620,
      "▁Gu": 3621,
      "▁chę": 3622,
      "▁artyku": 3623,
      "▁dale": 3624,
      "▁taką": 3625,
      "▁zwro": 3626,
      "▁możliwe": 3627,
      "▁Andrzej": 3628,
      "ciec": 3629,
      "▁powy": 3630,
      "OW": 3631,
      "▁trakcie": 3632,
      "dała": 3633,
      "▁Krak": 3634,
      "▁Linki": 3635,
      "▁niewiel": 3636,
      "ciła": 3637,
      "▁przepisy": 3638,
      "▁inaczej": 3639,
      "▁usu": 3640,
      "dniego": 3641,
      "▁forma": 3642,
      "▁San": 3643,
      "▁młody": 3644,
      "czący": 3645,
      "▁nu": 3646,
      "▁tur": 3647,
      "nnego": 3648,
      "▁zgło": 3649,
      "woje": 3650,
      "▁wystąpi": 3651,
      "gla": 3652,
      "letni": 3653,
      "terze": 3654,
      "▁świado": 3655,
      "▁organizacji": 3656,
      "▁nazwi": 3657,
      "mują": 3658,
      "▁pory": 3659,
      "▁polega": 3660,
      "▁zasady": 3661,
      "bal": 3662,
      "▁ostatnie": 3663,
      "▁wniosek": 3664,
      "▁pana": 3665,
      "▁powinny": 3666,
      "leń": 3667,
      "▁Wal": 3668,
      "miany": 3669,
      "diów": 3670,
      "organi": 3671,
      "▁opo": 3672,
      "▁wprowadza": 3673,
      "chani": 3674,
      "▁mój": 3675,
      "▁wyposa": 3676,
      "▁nastąpi": 3677,
      "▁pieniędzy": 3678,
      "▁godzin": 3679,
      "▁dotyczy": 3680,
      "▁francu": 3681,
      "▁Dob": 3682,
      "mę": 3683,
      "▁pomyś": 3684,
      "▁TVP": 3685,
      "ws": 3686,
      "▁głową": 3687,
      "▁Piotr": 3688,
      "tkowo": 3689,
      "▁bio": 3690,
      "▁Gro": 3691,
      "tual": 3692,
      "▁porozu": 3693,
      "▁pojaz": 3694,
      "▁tytułu": 3695,
      "▁strate": 3696,
      "▁kontroli": 3697,
      "▁tajem": 3698,
      "tyki": 3699,
      "sława": 3700,
      "tkiem": 3701,
      "▁mocno": 3702,
      "▁działań": 3703,
      "dliwości": 3704,
      "▁Fil": 3705,
      "IN": 3706,
      "▁is": 3707,
      "▁Opis": 3708,
      "▁jakieś": 3709,
      "▁myśl": 3710,
      "ństwie": 3711,
      "▁naszego": 3712,
      "▁cało": 3713,
      "Bo": 3714,
      "kcja": 3715,
      "▁dziw": 3716,
      "atel": 3717,
      "▁Warszawa": 3718,
      "▁VAT": 3719,
      "▁klientów": 3720,
      "grafi": 3721,
      "▁uch": 3722,
      "▁reli": 3723,
      "▁cier": 3724,
      "działem": 3725,
      "▁momencie": 3726,
      "rakter": 3727,
      "tnej": 3728,
      "▁potę": 3729,
      "▁Vi": 3730,
      "▁instru": 3731,
      "gad": 3732,
      "rócz": 3733,
      "▁Dlaczego": 3734,
      "▁El": 3735,
      "▁nocy": 3736,
      "▁Q": 3737,
      "▁drogi": 3738,
      "▁stosunku": 3739,
      "▁pacje": 3740,
      "▁kampa": 3741,
      "▁nowej": 3742,
      "nom": 3743,
      "lika": 3744,
      "ator": 3745,
      "▁wers": 3746,
      "▁poszczegól": 3747,
      "cyjna": 3748,
      "ya": 3749,
      "▁zaka": 3750,
      "▁nar": 3751,
      "▁Di": 3752,
      "▁kart": 3753,
      "wki": 3754,
      "▁wniosku": 3755,
      "▁poprzedni": 3756,
      "nęły": 3757,
      "▁Tur": 3758,
      "▁Piłka": 3759,
      "VI": 3760,
      "▁badań": 3761,
      "▁obserw": 3762,
      "▁Zda": 3763,
      "dzonych": 3764,
      "▁Jej": 3765,
      "▁PR": 3766,
      "▁zespołu": 3767,
      "▁trudno": 3768,
      "▁żadnych": 3769,
      "▁nieo": 3770,
      "▁prote": 3771,
      "▁prę": 3772,
      "▁tytuł": 3773,
      "▁proces": 3774,
      "owanym": 3775,
      "czyli": 3776,
      "▁dostar": 3777,
      "▁zła": 3778,
      "▁wokół": 3779,
      "czasem": 3780,
      "▁trakt": 3781,
      "▁kolejnych": 3782,
      "▁litera": 3783,
      "▁projektu": 3784,
      "ph": 3785,
      "▁obję": 3786,
      "▁Tele": 3787,
      "▁jesteśmy": 3788,
      "▁odno": 3789,
      "▁Rzeczy": 3790,
      "▁kolo": 3791,
      "▁Obec": 3792,
      "▁inny": 3793,
      "▁:": 3794,
      "nnej": 3795,
      "krót": 3796,
      "▁charakter": 3797,
      "▁porząd": 3798,
      "▁Francji": 3799,
      "▁rynek": 3800,
      "▁dysku": 3801,
      "▁archi": 3802,
      "▁fakt": 3803,
      "▁Niemiec": 3804,
      "▁swego": 3805,
      "▁wątp": 3806,
      "▁Nor": 3807,
      "dzony": 3808,
      "sen": 3809,
      "pisu": 3810,
      "mit": 3811,
      "▁ruchu": 3812,
      "mery": 3813,
      "▁zapewnia": 3814,
      "▁eta": 3815,
      "▁dar": 3816,
      "▁ciała": 3817,
      "hater": 3818,
      "▁spę": 3819,
      "▁poziom": 3820,
      "▁chi": 3821,
      "▁Win": 3822,
      "▁kogo": 3823,
      "▁Urodzeni": 3824,
      "▁koronawiru": 3825,
      "▁smartf": 3826,
      "▁noc": 3827,
      "ang": 3828,
      "▁Głów": 3829,
      "ON": 3830,
      "▁Sł": 3831,
      "▁dziecka": 3832,
      "▁Kto": 3833,
      "rzyła": 3834,
      "▁Sze": 3835,
      "▁emo": 3836,
      "gn": 3837,
      "▁poświę": 3838,
      "▁wynik": 3839,
      "▁Car": 3840,
      "▁warunki": 3841,
      "▁propozy": 3842,
      "wnątrz": 3843,
      "▁pogo": 3844,
      "spi": 3845,
      "limpij": 3846,
      "▁koszt": 3847,
      "dzna": 3848,
      "▁Ap": 3849,
      "▁stan": 3850,
      "▁terenie": 3851,
      "▁zapła": 3852,
      "gaż": 3853,
      "▁zapowie": 3854,
      "▁ręce": 3855,
      "ade": 3856,
      "▁y": 3857,
      "waran": 3858,
      "▁maszy": 3859,
      "▁obywate": 3860,
      "▁pokry": 3861,
      "▁urządzenia": 3862,
      "▁zez": 3863,
      "▁dzisiaj": 3864,
      "rocła": 3865,
      "cjonari": 3866,
      "▁komple": 3867,
      "miona": 3868,
      "▁zad": 3869,
      "▁pocho": 3870,
      "groma": 3871,
      "łach": 3872,
      "▁Podczas": 3873,
      "▁otwo": 3874,
      "▁podkreśla": 3875,
      "▁Fo": 3876,
      "ałym": 3877,
      "▁niebezpie": 3878,
      "▁zaba": 3879,
      "wskiego": 3880,
      "▁kos": 3881,
      "chodniej": 3882,
      "▁twarzy": 3883,
      "▁Podob": 3884,
      "Nie": 3885,
      "▁Bryta": 3886,
      "▁blisko": 3887,
      "▁południ": 3888,
      "▁rz": 3889,
      "▁funkcjon": 3890,
      "▁konsek": 3891,
      "tychmiast": 3892,
      "ogle": 3893,
      "▁sur": 3894,
      "zacja": 3895,
      "▁sytuacja": 3896,
      "▁handl": 3897,
      "▁Man": 3898,
      "▁pal": 3899,
      "▁powinno": 3900,
      "▁indywidu": 3901,
      "▁pokoju": 3902,
      "▁nagle": 3903,
      "▁Tylko": 3904,
      "▁Lon": 3905,
      "lik": 3906,
      "▁zbli": 3907,
      "▁szczegół": 3908,
      "▁odpowiednio": 3909,
      "▁mię": 3910,
      "tion": 3911,
      "▁stand": 3912,
      "▁należą": 3913,
      "▁konkur": 3914,
      "▁uczu": 3915,
      "▁linii": 3916,
      "▁najwyż": 3917,
      "link": 3918,
      "▁natychmiast": 3919,
      "▁numer": 3920,
      "▁Har": 3921,
      "▁służby": 3922,
      "▁dodaje": 3923,
      "▁Spra": 3924,
      "▁widzi": 3925,
      "▁nieruchomości": 3926,
      "▁rolę": 3927,
      "▁mocy": 3928,
      "sić": 3929,
      "ll": 3930,
      "▁nadzieję": 3931,
      "lami": 3932,
      "▁dokumentów": 3933,
      "▁kana": 3934,
      "▁energe": 3935,
      "▁osie": 3936,
      "rea": 3937,
      "▁podlega": 3938,
      "misja": 3939,
      "▁opubli": 3940,
      "▁przynajmniej": 3941,
      "▁poten": 3942,
      "▁th": 3943,
      "▁ło": 3944,
      "▁pomi": 3945,
      "▁ciebie": 3946,
      "pach": 3947,
      "▁Poz": 3948,
      "ill": 3949,
      "▁usły": 3950,
      "zem": 3951,
      "▁pozytyw": 3952,
      "▁poży": 3953,
      "▁śre": 3954,
      "lacja": 3955,
      "▁twarz": 3956,
      "szto": 3957,
      "ńca": 3958,
      "waża": 3959,
      "rzuca": 3960,
      "ght": 3961,
      "czach": 3962,
      "▁Ponad": 3963,
      "▁władzy": 3964,
      "▁meczu": 3965,
      "wor": 3966,
      "czał": 3967,
      "▁ponownie": 3968,
      "spie": 3969,
      "óg": 3970,
      "▁prezen": 3971,
      "▁Kolej": 3972,
      "▁jednostki": 3973,
      "ić": 3974,
      "▁szkoły": 3975,
      "▁punktu": 3976,
      "▁skie": 3977,
      "▁grup": 3978,
      "kowane": 3979,
      "▁minut": 3980,
      "▁przestęp": 3981,
      "▁Że": 3982,
      "▁dziesię": 3983,
      "▁różne": 3984,
      "rab": 3985,
      "nieść": 3986,
      "zują": 3987,
      "ssi": 3988,
      "▁Powie": 3989,
      "jącymi": 3990,
      "▁gatun": 3991,
      "▁doszło": 3992,
      "▁Ti": 3993,
      "▁formie": 3994,
      "▁głowy": 3995,
      "▁Słu": 3996,
      "szki": 3997,
      "ścić": 3998,
      "▁policja": 3999,
      "▁wspiera": 4000,
      "▁moim": 4001,
      "▁Mimo": 4002,
      "▁Bez": 4003,
      "▁spokoj": 4004,
      "▁reak": 4005,
      "▁uzasad": 4006,
      "▁odpar": 4007,
      "▁ważne": 4008,
      "▁koszty": 4009,
      "sną": 4010,
      "dzono": 4011,
      "▁polityki": 4012,
      "krótce": 4013,
      "niesi": 4014,
      "▁razu": 4015,
      "▁mil": 4016,
      "nin": 4017,
      "ślił": 4018,
      "dko": 4019,
      "▁bram": 4020,
      "▁grze": 4021,
      "▁usługi": 4022,
      "▁wzią": 4023,
      "wód": 4024,
      "cał": 4025,
      "▁powszech": 4026,
      "widen": 4027,
      "tnego": 4028,
      "▁przeło": 4029,
      "▁walki": 4030,
      "chow": 4031,
      "▁Google": 4032,
      "▁wyz": 4033,
      "cin": 4034,
      "nisty": 4035,
      "wiać": 4036,
      "▁Czytaj": 4037,
      "▁opowiada": 4038,
      "▁upad": 4039,
      "częściej": 4040,
      "nnie": 4041,
      "▁dokładnie": 4042,
      "▁nasz": 4043,
      "pon": 4044,
      "▁zatrzyma": 4045,
      "▁gospodarki": 4046,
      "▁wcale": 4047,
      "czyło": 4048,
      "▁zbro": 4049,
      "▁czerwo": 4050,
      "kowym": 4051,
      "▁tar": 4052,
      "pełnia": 4053,
      "▁łatwo": 4054,
      "▁krajów": 4055,
      "Po": 4056,
      "▁elektroni": 4057,
      "grze": 4058,
      "▁słucha": 4059,
      "dyn": 4060,
      "▁powierzchni": 4061,
      "▁krę": 4062,
      "▁wykorzysty": 4063,
      "▁zakłada": 4064,
      "prost": 4065,
      "tycznej": 4066,
      "tąd": 4067,
      "▁Nau": 4068,
      "▁Zna": 4069,
      "torem": 4070,
      "▁bądź": 4071,
      "▁utrzy": 4072,
      "▁pozba": 4073,
      "▁fan": 4074,
      "▁wreszcie": 4075,
      "logia": 4076,
      "żonych": 4077,
      "▁daje": 4078,
      "cyjną": 4079,
      "▁filmu": 4080,
      "wans": 4081,
      "▁znowu": 4082,
      "▁Nawet": 4083,
      "▁rozwiązania": 4084,
      "▁Wę": 4085,
      "tności": 4086,
      "mią": 4087,
      "jąco": 4088,
      "▁pamięci": 4089,
      "▁parla": 4090,
      "lepiej": 4091,
      "▁kolejny": 4092,
      "ame": 4093,
      "wiera": 4094,
      "▁pierwszego": 4095,
      "car": 4096,
      "▁ką": 4097,
      "▁trwa": 4098,
      "miał": 4099,
      "tt": 4100,
      "▁partii": 4101,
      "▁ogląda": 4102,
      "br": 4103,
      "▁publicznych": 4104,
      "▁włą": 4105,
      "▁naru": 4106,
      "ER": 4107,
      "▁tygodni": 4108,
      "kował": 4109,
      "▁członków": 4110,
      "▁okazji": 4111,
      "TA": 4112,
      "▁powinni": 4113,
      "▁Kaczy": 4114,
      "▁masz": 4115,
      "▁współpracy": 4116,
      "▁XX": 4117,
      "działy": 4118,
      "▁stwierdził": 4119,
      "▁pę": 4120,
      "▁Jaro": 4121,
      "wencji": 4122,
      "▁die": 4123,
      "▁przyby": 4124,
      "stka": 4125,
      "gorz": 4126,
      "żem": 4127,
      "łeś": 4128,
      "▁wersji": 4129,
      "cznymi": 4130,
      "sja": 4131,
      "▁terminie": 4132,
      "owin": 4133,
      "▁niedzie": 4134,
      "▁niezbę": 4135,
      "▁dobra": 4136,
      "▁król": 4137,
      "kój": 4138,
      "▁wią": 4139,
      "▁Kom": 4140,
      "▁oprac": 4141,
      "▁kapitał": 4142,
      "czkę": 4143,
      "▁<": 4144,
      "▁On": 4145,
      "chun": 4146,
      "▁ujaw": 4147,
      "▁charaktery": 4148,
      "▁en": 4149,
      "zeta": 4150,
      "nicj": 4151,
      "nictwo": 4152,
      "▁tysią": 4153,
      "ven": 4154,
      "▁siły": 4155,
      "owań": 4156,
      "▁ekra": 4157,
      "czono": 4158,
      "mość": 4159,
      "▁epi": 4160,
      "mieni": 4161,
      "żeniem": 4162,
      "▁byłoby": 4163,
      "▁up": 4164,
      "▁każdej": 4165,
      "gryw": 4166,
      "budowa": 4167,
      "▁Mam": 4168,
      "▁Am": 4169,
      "▁oskar": 4170,
      "▁Można": 4171,
      "▁pozycji": 4172,
      "▁Os": 4173,
      "▁stosuje": 4174,
      "trza": 4175,
      "mówie": 4176,
      "▁zdjęcia": 4177,
      "▁klucz": 4178,
      "dzili": 4179,
      "▁rozpozna": 4180,
      "szli": 4181,
      "▁związanych": 4182,
      "del": 4183,
      "▁Bru": 4184,
      "▁zespół": 4185,
      "▁Spraw": 4186,
      "▁głowę": 4187,
      "▁ć": 4188,
      "▁dyrektor": 4189,
      "▁Pół": 4190,
      "▁Af": 4191,
      "▁całego": 4192,
      "mer": 4193,
      "▁Cytat": 4194,
      "▁treści": 4195,
      "zów": 4196,
      "stych": 4197,
      "▁dowód": 4198,
      "ręcz": 4199,
      "mil": 4200,
      "▁x": 4201,
      "▁dniu": 4202,
      "widł": 4203,
      "▁potrzeby": 4204,
      "tować": 4205,
      "▁Adam": 4206,
      "▁pewnością": 4207,
      "pią": 4208,
      "▁kor": 4209,
      "▁zwykle": 4210,
      "▁Preze": 4211,
      "▁RP": 4212,
      "▁Więcej": 4213,
      "▁gu": 4214,
      "ksand": 4215,
      "▁dyspo": 4216,
      "▁poni": 4217,
      "▁psycho": 4218,
      "▁Tra": 4219,
      "kracza": 4220,
      "deo": 4221,
      "▁przedstawia": 4222,
      "▁miasto": 4223,
      "niosła": 4224,
      "▁foto": 4225,
      "ścioła": 4226,
      "są": 4227,
      "ono": 4228,
      "▁Ang": 4229,
      "▁plat": 4230,
      "owicz": 4231,
      "▁katego": 4232,
      "ują": 4233,
      "roż": 4234,
      "syła": 4235,
      "▁wrażenie": 4236,
      "▁podróż": 4237,
      "▁narzę": 4238,
      "ari": 4239,
      "▁chłop": 4240,
      "▁tą": 4241,
      "cro": 4242,
      "▁rady": 4243,
      "▁pomy": 4244,
      "▁połowie": 4245,
      "▁wzrostu": 4246,
      "▁mecz": 4247,
      "ket": 4248,
      "▁brytyj": 4249,
      "dyna": 4250,
      "stej": 4251,
      "niec": 4252,
      "▁Jedno": 4253,
      "łał": 4254,
      "▁Biał": 4255,
      "▁premier": 4256,
      "▁podobnie": 4257,
      "▁codzie": 4258,
      "▁materiał": 4259,
      "▁kwali": 4260,
      "▁oszczę": 4261,
      "▁będę": 4262,
      "▁wyniki": 4263,
      "mos": 4264,
      "▁spy": 4265,
      "kiet": 4266,
      "▁zamknię": 4267,
      "▁samej": 4268,
      "▁jesteś": 4269,
      "▁naby": 4270,
      "▁pośredni": 4271,
      "▁Niestety": 4272,
      "▁uczestni": 4273,
      "▁prof": 4274,
      "dować": 4275,
      "▁drugim": 4276,
      "▁zamiast": 4277,
      "organiz": 4278,
      "▁Zjednoczonych": 4279,
      "▁przyszłości": 4280,
      "▁uwagi": 4281,
      "▁Sąd": 4282,
      "pen": 4283,
      "▁trzyma": 4284,
      "dząc": 4285,
      "▁problemy": 4286,
      "▁syn": 4287,
      "▁br": 4288,
      "ryj": 4289,
      "▁Instytu": 4290,
      "gre": 4291,
      "kcie": 4292,
      "▁Świę": 4293,
      "▁Następ": 4294,
      "▁kandydat": 4295,
      "cow": 4296,
      "▁zbior": 4297,
      "▁wro": 4298,
      "▁pomysł": 4299,
      "żek": 4300,
      "▁wątpliwości": 4301,
      "zę": 4302,
      "▁przeszło": 4303,
      "dziesią": 4304,
      "▁doda": 4305,
      "▁hu": 4306,
      "żeniu": 4307,
      "▁port": 4308,
      "▁odwie": 4309,
      "▁mogło": 4310,
      "▁model": 4311,
      "▁doro": 4312,
      "▁zle": 4313,
      "▁kiedyś": 4314,
      "▁Krzyszto": 4315,
      "▁it": 4316,
      "▁sprawa": 4317,
      "▁nagra": 4318,
      "szone": 4319,
      "▁jakiego": 4320,
      "▁poszuki": 4321,
      "nera": 4322,
      "▁Związ": 4323,
      "wano": 4324,
      "▁Stu": 4325,
      "szczenie": 4326,
      "tymi": 4327,
      "weł": 4328,
      "▁wypadku": 4329,
      "▁obra": 4330,
      "▁zmieni": 4331,
      "gina": 4332,
      "▁realizacji": 4333,
      "skach": 4334,
      "cebo": 4335,
      "tała": 4336,
      "▁konstru": 4337,
      "▁stanowisko": 4338,
      "siej": 4339,
      "▁dotyczących": 4340,
      "▁pasa": 4341,
      "▁większości": 4342,
      "▁utra": 4343,
      "▁zmu": 4344,
      "▁produktów": 4345,
      "spekty": 4346,
      "▁cztere": 4347,
      "wając": 4348,
      "▁powoła": 4349,
      "▁mogły": 4350,
      "▁dzieje": 4351,
      "niejszy": 4352,
      "rag": 4353,
      "ścił": 4354,
      "▁Rz": 4355,
      "dła": 4356,
      "▁rela": 4357,
      "ed": 4358,
      "alnie": 4359,
      "▁uczy": 4360,
      "▁Trzeba": 4361,
      "▁Histor": 4362,
      "▁inform": 4363,
      "chów": 4364,
      "▁głoś": 4365,
      "komu": 4366,
      "kładni": 4367,
      "▁Gene": 4368,
      "deł": 4369,
      "▁Gdyby": 4370,
      "▁zjawi": 4371,
      "▁mechani": 4372,
      "▁warunków": 4373,
      "▁udostęp": 4374,
      "bel": 4375,
      "▁adres": 4376,
      "nice": 4377,
      "amię": 4378,
      "nikami": 4379,
      "mite": 4380,
      "▁reży": 4381,
      "▁dostrze": 4382,
      "▁zakład": 4383,
      "▁Kata": 4384,
      "▁rachun": 4385,
      "▁komór": 4386,
      "kowania": 4387,
      "torów": 4388,
      "▁najnow": 4389,
      "▁+": 4390,
      "▁eksper": 4391,
      "nor": 4392,
      "jmy": 4393,
      "dziel": 4394,
      "ater": 4395,
      "▁konferen": 4396,
      "III": 4397,
      "▁Potem": 4398,
      "▁zapom": 4399,
      "▁odbi": 4400,
      "formy": 4401,
      "▁sygna": 4402,
      "▁ministra": 4403,
      "▁Sh": 4404,
      "▁Stani": 4405,
      "▁potrzebu": 4406,
      "dacji": 4407,
      "dnienia": 4408,
      "▁wydo": 4409,
      "▁Mos": 4410,
      "▁stron": 4411,
      "▁przepisa": 4412,
      "nce": 4413,
      "▁przekro": 4414,
      "▁młodzie": 4415,
      "▁staje": 4416,
      "atr": 4417,
      "▁rozwija": 4418,
      "▁infor": 4419,
      "▁dniem": 4420,
      "▁Karo": 4421,
      "▁mówić": 4422,
      "▁Jeszcze": 4423,
      "▁lubi": 4424,
      "▁bohater": 4425,
      "▁decyzję": 4426,
      "vo": 4427,
      "▁transa": 4428,
      "▁inwestycji": 4429,
      "▁godziny": 4430,
      "▁Aleksand": 4431,
      "▁wchodzi": 4432,
      "gazy": 4433,
      "▁samolo": 4434,
      "kli": 4435,
      "owców": 4436,
      "▁klim": 4437,
      "▁her": 4438,
      "▁poniedział": 4439,
      "▁zwraca": 4440,
      "▁Mor": 4441,
      "atoli": 4442,
      "rabia": 4443,
      "łopo": 4444,
      "▁Fundu": 4445,
      "▁Jako": 4446,
      "onych": 4447,
      "▁znajo": 4448,
      "mon": 4449,
      "▁nag": 4450,
      "leni": 4451,
      "▁sędzi": 4452,
      "▁wez": 4453,
      "▁upły": 4454,
      "lum": 4455,
      "▁rado": 4456,
      "▁niedaw": 4457,
      "▁Hen": 4458,
      "▁pras": 4459,
      "spraw": 4460,
      "▁sądu": 4461,
      "▁całkowicie": 4462,
      "cząc": 4463,
      "▁Komisji": 4464,
      "▁Mia": 4465,
      "niami": 4466,
      "▁pełni": 4467,
      "stego": 4468,
      "▁rozmowie": 4469,
      "▁metrów": 4470,
      "▁robić": 4471,
      "▁zao": 4472,
      "ine": 4473,
      "jona": 4474,
      "▁XI": 4475,
      "wien": 4476,
      "▁trzeci": 4477,
      "▁uśmiech": 4478,
      "jest": 4479,
      "zami": 4480,
      "▁rozwój": 4481,
      "▁Polacy": 4482,
      "▁zabra": 4483,
      "▁jakiej": 4484,
      "▁równo": 4485,
      "▁roze": 4486,
      "rząt": 4487,
      "iera": 4488,
      "▁ofiar": 4489,
      "▁Con": 4490,
      "▁sobo": 4491,
      "▁przypom": 4492,
      "▁Hiszpa": 4493,
      "▁przeby": 4494,
      "▁symbo": 4495,
      "▁podzie": 4496,
      "▁zi": 4497,
      "CH": 4498,
      "▁uz": 4499,
      "torzy": 4500,
      "owałem": 4501,
      "▁=": 4502,
      "▁scena": 4503,
      "▁Wrocła": 4504,
      "▁całe": 4505,
      "skę": 4506,
      "▁jaka": 4507,
      "tali": 4508,
      "▁ostrze": 4509,
      "▁mojej": 4510,
      "ham": 4511,
      "▁opozy": 4512,
      "▁pozwoli": 4513,
      "▁Ws": 4514,
      "▁edu": 4515,
      "cis": 4516,
      "ściach": 4517,
      "▁rękę": 4518,
      "▁promo": 4519,
      "▁Skar": 4520,
      "lon": 4521,
      "nau": 4522,
      "▁sił": 4523,
      "▁Gda": 4524,
      "fr": 4525,
      "▁CO": 4526,
      "▁szczególności": 4527,
      "▁zajm": 4528,
      "▁Ri": 4529,
      "rys": 4530,
      "obi": 4531,
      "▁Mon": 4532,
      "▁Ostat": 4533,
      "▁uważ": 4534,
      "▁stoli": 4535,
      "▁dołą": 4536,
      "▁znaczenie": 4537,
      "jekt": 4538,
      "ley": 4539,
      "▁ścia": 4540,
      "stym": 4541,
      "atomiast": 4542,
      "▁piosen": 4543,
      "▁napisa": 4544,
      "▁szczęście": 4545,
      "▁pisze": 4546,
      "▁milionów": 4547,
      "▁św": 4548,
      "rzędu": 4549,
      "▁głu": 4550,
      "▁procedu": 4551,
      "▁środki": 4552,
      "▁stać": 4553,
      "▁j": 4554,
      "▁zare": 4555,
      "▁ocenia": 4556,
      "▁środowiska": 4557,
      "▁pierwszych": 4558,
      "▁Choć": 4559,
      "▁długi": 4560,
      "▁Prawo": 4561,
      "parta": 4562,
      "▁wizy": 4563,
      "▁kontynu": 4564,
      "▁światowej": 4565,
      "łó": 4566,
      "▁tempera": 4567,
      "▁zaledwie": 4568,
      "▁Part": 4569,
      "▁Natomiast": 4570,
      "▁sezonie": 4571,
      "▁zależy": 4572,
      "lozo": 4573,
      "cone": 4574,
      "▁Ukrainy": 4575,
      "▁wskazuje": 4576,
      "aną": 4577,
      "▁wierzy": 4578,
      "▁przekaza": 4579,
      "▁imię": 4580,
      "▁ca": 4581,
      "????": 4582,
      "▁Informa": 4583,
      "kłady": 4584,
      "▁impre": 4585,
      "nnym": 4586,
      "▁Michał": 4587,
      "ległości": 4588,
      "▁kwa": 4589,
      "OS": 4590,
      "▁kobieta": 4591,
      "▁zwolnie": 4592,
      "▁biznes": 4593,
      "▁zostaną": 4594,
      "▁młod": 4595,
      "owiec": 4596,
      "ciół": 4597,
      "▁defi": 4598,
      "tycznego": 4599,
      "▁zanie": 4600,
      "▁społeczności": 4601,
      "▁aplikacji": 4602,
      "▁oku": 4603,
      "▁zdję": 4604,
      "jeżd": 4605,
      "▁Tru": 4606,
      "▁Polskiego": 4607,
      "▁podło": 4608,
      "stki": 4609,
      "▁Obecnie": 4610,
      "płat": 4611,
      "▁ds": 4612,
      "niom": 4613,
      "ręb": 4614,
      "▁pierwo": 4615,
      "owani": 4616,
      "▁wzię": 4617,
      "▁Agen": 4618,
      "▁publicznej": 4619,
      "▁Kry": 4620,
      "▁ukoń": 4621,
      "▁pas": 4622,
      "kali": 4623,
      "▁podwyż": 4624,
      "▁win": 4625,
      "----": 4626,
      "łego": 4627,
      "▁Bel": 4628,
      "▁min": 4629,
      "pień": 4630,
      "ódz": 4631,
      "▁telewizyj": 4632,
      "▁broni": 4633,
      "tyczny": 4634,
      "▁świadczenia": 4635,
      "turę": 4636,
      "▁zwierzę": 4637,
      "▁popraw": 4638,
      "▁pło": 4639,
      "zację": 4640,
      "▁Czar": 4641,
      "lania": 4642,
      "▁staro": 4643,
      "▁roli": 4644,
      "▁znaczy": 4645,
      "gru": 4646,
      "poli": 4647,
      "▁wiedzieć": 4648,
      "▁maksy": 4649,
      "▁produce": 4650,
      "wiał": 4651,
      "▁ciąg": 4652,
      "▁Wielkiej": 4653,
      "kowo": 4654,
      "▁albu": 4655,
      "▁mobi": 4656,
      "▁jakich": 4657,
      "▁Ich": 4658,
      "cal": 4659,
      "▁Bardzo": 4660,
      "towych": 4661,
      "▁uwie": 4662,
      "▁zako": 4663,
      "▁zanim": 4664,
      "▁kapita": 4665,
      "▁brze": 4666,
      "▁służb": 4667,
      "▁niczym": 4668,
      "▁Robert": 4669,
      "dzania": 4670,
      "▁opa": 4671,
      "▁góry": 4672,
      "koła": 4673,
      "▁Fir": 4674,
      "sługuje": 4675,
      "▁wejścia": 4676,
      "▁określonych": 4677,
      "aliz": 4678,
      "np": 4679,
      "▁pomó": 4680,
      "▁zebra": 4681,
      "▁Pamię": 4682,
      "tnym": 4683,
      "▁Ek": 4684,
      "▁wolności": 4685,
      "▁Prezyden": 4686,
      "▁prak": 4687,
      "▁RO": 4688,
      "▁zastęp": 4689,
      "ściół": 4690,
      "▁di": 4691,
      "▁inten": 4692,
      "▁serii": 4693,
      "▁Jestem": 4694,
      "▁bla": 4695,
      "▁istnieje": 4696,
      "tan": 4697,
      "▁funkcji": 4698,
      "▁stary": 4699,
      "▁konfli": 4700,
      "tarza": 4701,
      "▁urządzeń": 4702,
      "szem": 4703,
      "▁możesz": 4704,
      "dzona": 4705,
      "▁Między": 4706,
      "▁układ": 4707,
      "▁Nic": 4708,
      "▁Facebo": 4709,
      "▁Księ": 4710,
      "▁ojciec": 4711,
      "▁skorzysta": 4712,
      "▁Poza": 4713,
      "▁ubra": 4714,
      "tacja": 4715,
      "ord": 4716,
      "▁Th": 4717,
      "▁wyco": 4718,
      "set": 4719,
      "▁nagro": 4720,
      "▁ojca": 4721,
      "▁unij": 4722,
      "▁Ło": 4723,
      "▁bank": 4724,
      "▁udziału": 4725,
      "żnej": 4726,
      "▁Ex": 4727,
      "▁Świ": 4728,
      "▁Kat": 4729,
      "▁Samo": 4730,
      "▁Zgodnie": 4731,
      "▁czterech": 4732,
      "óz": 4733,
      "▁Niemcy": 4734,
      "▁komputer": 4735,
      "▁zgi": 4736,
      "▁pokona": 4737,
      "▁sami": 4738,
      "▁znik": 4739,
      "▁walu": 4740,
      "▁oka": 4741,
      "mp": 4742,
      "▁reda": 4743,
      "AM": 4744,
      "kiewicz": 4745,
      "naście": 4746,
      "▁gazu": 4747,
      "▁typ": 4748,
      "▁aplika": 4749,
      "dziale": 4750,
      "▁pomie": 4751,
      "▁jakości": 4752,
      "▁mną": 4753,
      "▁wsi": 4754,
      "▁Apple": 4755,
      "Na": 4756,
      "gami": 4757,
      "▁miesię": 4758,
      "▁ucz": 4759,
      "▁krwi": 4760,
      "gię": 4761,
      "▁genera": 4762,
      "▁rozmowy": 4763,
      "▁placów": 4764,
      "▁zasko": 4765,
      "▁warunkach": 4766,
      "▁śpie": 4767,
      "▁najlepiej": 4768,
      "▁skarb": 4769,
      "turze": 4770,
      "dale": 4771,
      "▁wyraźnie": 4772,
      "▁polskie": 4773,
      "▁prowadzenia": 4774,
      "▁polskim": 4775,
      "▁mieście": 4776,
      "szony": 4777,
      "▁prawdopodobnie": 4778,
      "dyj": 4779,
      "▁bły": 4780,
      "gij": 4781,
      "▁urlo": 4782,
      "▁stopniu": 4783,
      "▁Tam": 4784,
      "▁uni": 4785,
      "▁gminy": 4786,
      "▁Myś": 4787,
      "▁bieżą": 4788,
      "▁śla": 4789,
      "▁wraca": 4790,
      "▁więzie": 4791,
      "▁przyjem": 4792,
      "▁glo": 4793,
      "▁poinformował": 4794,
      "ralnego": 4795,
      "▁gwał": 4796,
      "▁stała": 4797,
      "▁odwoła": 4798,
      "▁odzy": 4799,
      "kowany": 4800,
      "landii": 4801,
      "cony": 4802,
      "owska": 4803,
      "▁Ponadto": 4804,
      "▁żadnego": 4805,
      "▁rapor": 4806,
      "▁samorzą": 4807,
      "dera": 4808,
      "▁Kul": 4809,
      "▁premiera": 4810,
      "scypli": 4811,
      "▁grafi": 4812,
      "▁zwierząt": 4813,
      "owaną": 4814,
      "▁wróci": 4815,
      "▁Tymczasem": 4816,
      "▁wybiera": 4817,
      "▁bezpośrednio": 4818,
      "▁użytkowników": 4819,
      "stawa": 4820,
      "▁groma": 4821,
      "▁punktów": 4822,
      "nień": 4823,
      "▁grupa": 4824,
      "▁łu": 4825,
      "ance": 4826,
      "▁podró": 4827,
      "▁Paweł": 4828,
      "▁żąda": 4829,
      "▁krajach": 4830,
      "▁wynagrodzenia": 4831,
      "▁nowym": 4832,
      "▁Gos": 4833,
      "▁okoliczności": 4834,
      "ation": 4835,
      "czonego": 4836,
      "▁obsza": 4837,
      "▁magazy": 4838,
      "▁Lud": 4839,
      "▁realiz": 4840,
      "▁własne": 4841,
      "▁reklam": 4842,
      "▁chcę": 4843,
      "▁Sko": 4844,
      "▁wiadomości": 4845,
      "▁wyróż": 4846,
      "szyła": 4847,
      "▁dwo": 4848,
      "waniem": 4849,
      "▁zobaczyć": 4850,
      "▁ośrod": 4851,
      "▁)": 4852,
      "▁umieję": 4853,
      "▁man": 4854,
      "▁Dziś": 4855,
      "▁Była": 4856,
      "▁zorganiz": 4857,
      "▁państwo": 4858,
      "tul": 4859,
      "gatyw": 4860,
      "▁najczęściej": 4861,
      "The": 4862,
      "▁centrum": 4863,
      "mentem": 4864,
      "tarz": 4865,
      "alnych": 4866,
      "▁Będzie": 4867,
      "mówi": 4868,
      "▁poziomu": 4869,
      "▁TVN": 4870,
      "▁Star": 4871,
      "rzeniu": 4872,
      "chała": 4873,
      "nkach": 4874,
      "gni": 4875,
      "▁Wol": 4876,
      "▁apara": 4877,
      "die": 4878,
      "▁angiel": 4879,
      "▁dotar": 4880,
      "▁Per": 4881,
      "mag": 4882,
      "▁spotkania": 4883,
      "▁drew": 4884,
      "▁far": 4885,
      "▁granicy": 4886,
      "▁Zmar": 4887,
      "▁mówią": 4888,
      "▁wieś": 4889,
      "czer": 4890,
      "▁zarzu": 4891,
      "▁Ślą": 4892,
      "▁Trybu": 4893,
      "▁mm": 4894,
      "▁dyplo": 4895,
      "▁orga": 4896,
      "▁Aby": 4897,
      "▁pobli": 4898,
      "zał": 4899,
      "▁gorą": 4900,
      "▁lekko": 4901,
      "▁znalazł": 4902,
      "▁nową": 4903,
      "▁insta": 4904,
      "szty": 4905,
      "lome": 4906,
      "▁zgroma": 4907,
      "czyły": 4908,
      "▁Ind": 4909,
      "▁zdrowo": 4910,
      "▁sprzedaż": 4911,
      "nęli": 4912,
      "omi": 4913,
      "▁zak": 4914,
      "dziło": 4915,
      "▁okresu": 4916,
      "▁inicj": 4917,
      "▁prędko": 4918,
      "▁szere": 4919,
      "▁siost": 4920,
      "▁che": 4921,
      "▁Zło": 4922,
      "▁Pary": 4923,
      "▁ciep": 4924,
      "ieł": 4925,
      "▁wyobra": 4926,
      "skał": 4927,
      "▁rozmawia": 4928,
      "▁zdra": 4929,
      "▁Wtedy": 4930,
      "▁Gi": 4931,
      "▁Im": 4932,
      "▁podję": 4933,
      "▁niezna": 4934,
      "angaż": 4935,
      "▁edy": 4936,
      "owca": 4937,
      "▁poż": 4938,
      "▁kwoty": 4939,
      "▁opro": 4940,
      "▁Środ": 4941,
      "▁mężczyzn": 4942,
      "▁rozli": 4943,
      "kimi": 4944,
      "▁interes": 4945,
      "cząć": 4946,
      "▁Jana": 4947,
      "▁współczes": 4948,
      "▁specjali": 4949,
      "dowania": 4950,
      "nistrów": 4951,
      "▁podejm": 4952,
      "▁otrzymał": 4953,
      "▁terytorium": 4954,
      "▁wykonywania": 4955,
      "dali": 4956,
      "ning": 4957,
      "▁wyciąg": 4958,
      "czoraj": 4959,
      "tale": 4960,
      "▁zas": 4961,
      "▁przeko": 4962,
      "▁smu": 4963,
      "styczne": 4964,
      "towej": 4965,
      "line": 4966,
      "wiej": 4967,
      "▁śmierć": 4968,
      "niesienia": 4969,
      "▁partner": 4970,
      "orą": 4971,
      "▁zapewne": 4972,
      "SA": 4973,
      "▁poszczególnych": 4974,
      "gor": 4975,
      "głę": 4976,
      "▁wyświet": 4977,
      "▁GB": 4978,
      "▁nami": 4979,
      "▁uzu": 4980,
      "▁ów": 4981,
      "zwyczaj": 4982,
      "ralny": 4983,
      "▁ono": 4984,
      "▁małże": 4985,
      "dnym": 4986,
      "▁studen": 4987,
      "▁Her": 4988,
      "▁eli": 4989,
      "▁towarów": 4990,
      "▁alko": 4991,
      "▁perspekty": 4992,
      "▁gar": 4993,
      "tam": 4994,
      "OK": 4995,
      "▁rzeczywistości": 4996,
      "▁Micha": 4997,
      "▁Kobie": 4998,
      "▁Historia": 4999,
      "rześci": 5000,
      "▁Mosk": 5001,
      "danie": 5002,
      "▁chro": 5003,
      "▁skierowa": 5004,
      "gier": 5005,
      "▁miej": 5006,
      "▁kultury": 5007,
      "▁same": 5008,
      "▁spi": 5009,
      "▁struktu": 5010,
      "▁argu": 5011,
      "▁Uniwersytetu": 5012,
      "rześcija": 5013,
      "▁Tomasz": 5014,
      "▁świą": 5015,
      "▁Zdaniem": 5016,
      "▁zaczęła": 5017,
      "tują": 5018,
      "▁zastrze": 5019,
      "anna": 5020,
      "rząc": 5021,
      "▁władze": 5022,
      "▁zresztą": 5023,
      "▁pia": 5024,
      "▁opinii": 5025,
      "▁wiedział": 5026,
      "▁mężczyzna": 5027,
      "denty": 5028,
      "▁pracownika": 5029,
      "dzać": 5030,
      "▁nieza": 5031,
      "▁stó": 5032,
      "dnej": 5033,
      "▁dokumenta": 5034,
      "niała": 5035,
      "▁zadań": 5036,
      "dło": 5037,
      "▁Mówi": 5038,
      "AP": 5039,
      "żę": 5040,
      "zajem": 5041,
      "▁serca": 5042,
      "▁demokra": 5043,
      "szymi": 5044,
      "▁rzeczywiście": 5045,
      "▁problemów": 5046,
      "▁Anna": 5047,
      "▁sprawach": 5048,
      "arę": 5049,
      "ted": 5050,
      "▁warsza": 5051,
      "▁seku": 5052,
      "▁celem": 5053,
      "▁musimy": 5054,
      "▁komenta": 5055,
      "CZ": 5056,
      "▁Niektó": 5057,
      "▁pewne": 5058,
      "▁dostaw": 5059,
      "wiła": 5060,
      "▁ziem": 5061,
      "twier": 5062,
      "ralnej": 5063,
      "▁abso": 5064,
      "cjo": 5065,
      "▁zali": 5066,
      "▁Państwa": 5067,
      "rzym": 5068,
      "ałoby": 5069,
      "▁Dzien": 5070,
      "▁iz": 5071,
      "▁budowla": 5072,
      "▁podpisa": 5073,
      "▁pochodzą": 5074,
      "▁ostatnim": 5075,
      "To": 5076,
      "▁urucho": 5077,
      "▁statu": 5078,
      "▁Grze": 5079,
      "czości": 5080,
      "▁słów": 5081,
      "▁Jor": 5082,
      "▁ruch": 5083,
      "▁punkt": 5084,
      "▁katoli": 5085,
      "▁Cha": 5086,
      "▁miłość": 5087,
      "▁szeroko": 5088,
      "chni": 5089,
      "▁próbu": 5090,
      "▁negatyw": 5091,
      "▁Miejs": 5092,
      "▁niespo": 5093,
      "▁widzenia": 5094,
      "▁żołnierzy": 5095,
      "▁psychi": 5096,
      "▁kara": 5097,
      "▁rzekł": 5098,
      "▁Gór": 5099,
      "ktora": 5100,
      "▁kryty": 5101,
      "▁owo": 5102,
      "ńcu": 5103,
      "▁twierdzi": 5104,
      "▁sześć": 5105,
      "prawy": 5106,
      "▁ukrai": 5107,
      "sum": 5108,
      "▁przyjaciół": 5109,
      "Za": 5110,
      "▁bisku": 5111,
      "ose": 5112,
      "▁gwaran": 5113,
      "▁Jez": 5114,
      "▁Mał": 5115,
      "▁filozo": 5116,
      "dzień": 5117,
      "▁niech": 5118,
      "▁Rozpo": 5119,
      "▁mów": 5120,
      "▁Każdy": 5121,
      "▁klub": 5122,
      "des": 5123,
      "▁rzad": 5124,
      "dom": 5125,
      "▁drugiego": 5126,
      "nieć": 5127,
      "▁Oba": 5128,
      "rzone": 5129,
      "▁kamie": 5130,
      "▁Nad": 5131,
      "▁spełnia": 5132,
      "▁braku": 5133,
      "dnego": 5134,
      "▁Ab": 5135,
      "▁zamierza": 5136,
      "▁bog": 5137,
      "▁stopni": 5138,
      "▁Jó": 5139,
      "▁ogłoszenia": 5140,
      "ces": 5141,
      "bili": 5142,
      "▁chciała": 5143,
      "rzała": 5144,
      "▁scho": 5145,
      "▁popar": 5146,
      "netu": 5147,
      "ngu": 5148,
      "▁gospodarczej": 5149,
      "▁ustaw": 5150,
      "wodni": 5151,
      "▁Japo": 5152,
      "▁interpre": 5153,
      "▁Ed": 5154,
      "▁odczu": 5155,
      "żne": 5156,
      "▁zaangaż": 5157,
      "▁moja": 5158,
      "▁kup": 5159,
      "▁kocha": 5160,
      "▁napisał": 5161,
      "▁Produ": 5162,
      "▁tygodniu": 5163,
      "▁kategorii": 5164,
      "▁sekre": 5165,
      "▁Krzysztof": 5166,
      "▁wspa": 5167,
      "▁pój": 5168,
      "towe": 5169,
      "▁Ele": 5170,
      "lidar": 5171,
      "▁całkiem": 5172,
      "▁dyrek": 5173,
      "▁zmianie": 5174,
      "▁Gospo": 5175,
      "nują": 5176,
      "▁wil": 5177,
      "▁Jeste": 5178,
      "▁ciało": 5179,
      "▁&": 5180,
      "▁pomaga": 5181,
      "▁rozgryw": 5182,
      "▁Brytanii": 5183,
      "▁turysty": 5184,
      "▁finansów": 5185,
      "▁Wz": 5186,
      "SZ": 5187,
      "▁gę": 5188,
      "glą": 5189,
      "▁Ke": 5190,
      "lonych": 5191,
      "▁Wojcie": 5192,
      "▁Sch": 5193,
      "lera": 5194,
      "▁naro": 5195,
      "▁panu": 5196,
      "dzają": 5197,
      "▁formu": 5198,
      "▁Rów": 5199,
      "▁większe": 5200,
      "▁pytania": 5201,
      "▁New": 5202,
      "▁pewnie": 5203,
      "▁zdecydowanie": 5204,
      "▁plane": 5205,
      "▁krze": 5206,
      "dowy": 5207,
      "▁kłopo": 5208,
      "▁norma": 5209,
      "▁stanowiska": 5210,
      "▁Ol": 5211,
      "▁konstytu": 5212,
      "▁zatrzy": 5213,
      "▁dzisiej": 5214,
      "▁uj": 5215,
      "▁prace": 5216,
      "▁skoń": 5217,
      "▁Ukrainie": 5218,
      "▁kola": 5219,
      "dzię": 5220,
      "sznie": 5221,
      "▁Mag": 5222,
      "▁umożliwia": 5223,
      "struktury": 5224,
      "▁zaufa": 5225,
      "▁bieg": 5226,
      "▁ster": 5227,
      "▁Nowa": 5228,
      "biegł": 5229,
      "trzeb": 5230,
      "▁wypła": 5231,
      "▁rosną": 5232,
      "▁Republi": 5233,
      "lij": 5234,
      "▁liczyć": 5235,
      "tną": 5236,
      "▁rozwiązanie": 5237,
      "▁wykonaw": 5238,
      "▁branży": 5239,
      "▁atrak": 5240,
      "▁drogę": 5241,
      "▁przegra": 5242,
      "▁idzie": 5243,
      "▁rekor": 5244,
      "▁PS": 5245,
      "▁obowiązu": 5246,
      "▁innej": 5247,
      "▁przera": 5248,
      "▁frag": 5249,
      "▁Chci": 5250,
      "▁pewien": 5251,
      "▁Qu": 5252,
      "...)": 5253,
      "terna": 5254,
      "gó": 5255,
      "▁skoro": 5256,
      "lta": 5257,
      "miu": 5258,
      "▁inni": 5259,
      "▁czasów": 5260,
      "▁Józe": 5261,
      "▁pięciu": 5262,
      "▁stacji": 5263,
      "spe": 5264,
      "ling": 5265,
      "▁biał": 5266,
      "▁Kor": 5267,
      "pienie": 5268,
      "▁samodzie": 5269,
      "▁poniżej": 5270,
      "▁staw": 5271,
      "nna": 5272,
      "▁kim": 5273,
      "dował": 5274,
      "▁unie": 5275,
      "ryk": 5276,
      "▁mówiąc": 5277,
      "▁miłości": 5278,
      "óki": 5279,
      "czar": 5280,
      "▁Okrę": 5281,
      "▁liście": 5282,
      "ślić": 5283,
      "stała": 5284,
      "▁niezwykle": 5285,
      "▁dniach": 5286,
      "▁województwa": 5287,
      "EN": 5288,
      "▁mas": 5289,
      "▁niewi": 5290,
      "▁tuż": 5291,
      "▁Mary": 5292,
      "▁kore": 5293,
      "▁mart": 5294,
      "▁przyro": 5295,
      "▁zadowo": 5296,
      "ńscy": 5297,
      "▁choroby": 5298,
      "atysty": 5299,
      "▁swej": 5300,
      "▁napę": 5301,
      "atem": 5302,
      "▁piątek": 5303,
      "dob": 5304,
      "▁Biz": 5305,
      "▁Najwyż": 5306,
      "int": 5307,
      "▁ilości": 5308,
      "czonej": 5309,
      "szać": 5310,
      "jcie": 5311,
      "▁urzędni": 5312,
      "▁wolno": 5313,
      "▁powiecie": 5314,
      "▁wielkie": 5315,
      "▁Wszystkie": 5316,
      "dle": 5317,
      "▁pojawia": 5318,
      "▁ner": 5319,
      "▁Łuka": 5320,
      "▁przesta": 5321,
      "nel": 5322,
      "▁najpierw": 5323,
      "dziły": 5324,
      "▁pocz": 5325,
      "▁ZUS": 5326,
      "▁Film": 5327,
      "▁powtó": 5328,
      "ati": 5329,
      "▁pomóc": 5330,
      "▁Andro": 5331,
      "▁ustawie": 5332,
      "▁Warszawy": 5333,
      "▁zesta": 5334,
      "▁Brak": 5335,
      "▁rodziców": 5336,
      "▁opła": 5337,
      "▁budżetu": 5338,
      "▁sytuację": 5339,
      "▁gminie": 5340,
      "▁odbior": 5341,
      "dną": 5342,
      "ot": 5343,
      "▁powoli": 5344,
      "łudni": 5345,
      "▁wyboru": 5346,
      "▁wspomina": 5347,
      "rona": 5348,
      "▁łóż": 5349,
      "kowanie": 5350,
      "cek": 5351,
      "▁własnych": 5352,
      "▁Nowy": 5353,
      "▁powyżej": 5354,
      "eria": 5355,
      "▁teor": 5356,
      "▁socja": 5357,
      "atru": 5358,
      "▁technologii": 5359,
      "▁nauki": 5360,
      "▁zastąpi": 5361,
      "▁Anto": 5362,
      "więcej": 5363,
      "▁wiedzy": 5364,
      "▁choćby": 5365,
      "▁zakresu": 5366,
      "▁Aka": 5367,
      "▁znajdują": 5368,
      "śle": 5369,
      "▁Kil": 5370,
      "▁ogro": 5371,
      "▁Spe": 5372,
      "▁Rzy": 5373,
      "▁stoi": 5374,
      "▁wskaź": 5375,
      "dowała": 5376,
      "ote": 5377,
      "▁studia": 5378,
      "▁rozsze": 5379,
      "srod": 5380,
      "▁właściwie": 5381,
      "▁zachę": 5382,
      "cielem": 5383,
      "ward": 5384,
      "▁wpad": 5385,
      "tytul": 5386,
      "ps": 5387,
      "▁Publi": 5388,
      "▁Ła": 5389,
      "▁obowiązek": 5390,
      "wska": 5391,
      "rować": 5392,
      "nięte": 5393,
      "▁lit": 5394,
      "srodtytul": 5395,
      "▁pozostaje": 5396,
      "▁zapytał": 5397,
      "▁przeży": 5398,
      "▁wręcz": 5399,
      "▁budowy": 5400,
      "▁tle": 5401,
      "▁otrzymuje": 5402,
      "ban": 5403,
      "▁Plat": 5404,
      "▁kwar": 5405,
      "▁własnej": 5406,
      "▁Kla": 5407,
      "▁urzędu": 5408,
      "▁IV": 5409,
      "▁cele": 5410,
      "ZP": 5411,
      "zon": 5412,
      "▁Mc": 5413,
      "▁szlach": 5414,
      "▁mikro": 5415,
      "▁that": 5416,
      "▁instytucji": 5417,
      "▁administracji": 5418,
      "▁sma": 5419,
      "▁którymi": 5420,
      "▁>>": 5421,
      "▁kory": 5422,
      "▁zdobył": 5423,
      "ciera": 5424,
      "▁termin": 5425,
      "czonym": 5426,
      "torek": 5427,
      "▁wkrótce": 5428,
      "▁Wśród": 5429,
      "kło": 5430,
      "▁Ana": 5431,
      "▁niepeł": 5432,
      "ana": 5433,
      "brzy": 5434,
      "▁dotk": 5435,
      "▁rewolu": 5436,
      "leć": 5437,
      "▁progno": 5438,
      "▁Nigdy": 5439,
      "▁czasach": 5440,
      "▁musie": 5441,
      "▁Maria": 5442,
      "▁Bro": 5443,
      "**": 5444,
      "▁katastro": 5445,
      "▁finansowych": 5446,
      "▁rozma": 5447,
      "▁zmienić": 5448,
      "▁nara": 5449,
      "▁wiecz": 5450,
      "▁informuje": 5451,
      "▁liczbę": 5452,
      "kują": 5453,
      "czania": 5454,
      "▁funkcjonari": 5455,
      "▁turniej": 5456,
      "▁klubu": 5457,
      "▁reżyser": 5458,
      "▁prag": 5459,
      "\")": 5460,
      "▁godz": 5461,
      "ingu": 5462,
      "dują": 5463,
      "▁Mło": 5464,
      "▁czegoś": 5465,
      ".),": 5466,
      "▁ewen": 5467,
      "▁Wszyscy": 5468,
      "▁gor": 5469,
      "▁stabi": 5470,
      "▁start": 5471,
      "▁Organi": 5472,
      "char": 5473,
      "▁podda": 5474,
      "ell": 5475,
      "RR": 5476,
      "nemu": 5477,
      "czno": 5478,
      "ctwo": 5479,
      "▁listy": 5480,
      "▁ape": 5481,
      "▁con": 5482,
      "▁swobo": 5483,
      "▁zatrudni": 5484,
      "▁kwestii": 5485,
      "rzony": 5486,
      "stość": 5487,
      "mem": 5488,
      "woka": 5489,
      "dowych": 5490,
      "▁właściwy": 5491,
      "▁Północ": 5492,
      "seł": 5493,
      "VID": 5494,
      "▁szac": 5495,
      "▁Amery": 5496,
      "▁Ministra": 5497,
      "owuje": 5498,
      "SK": 5499,
      "▁inteli": 5500,
      "▁wyjaś": 5501,
      "▁Boga": 5502,
      "▁XV": 5503,
      "mała": 5504,
      "ctwem": 5505,
      "▁kampanii": 5506,
      "▁automaty": 5507,
      "tości": 5508,
      "▁drob": 5509,
      "▁panie": 5510,
      "▁postanowie": 5511,
      "▁znaczą": 5512,
      "▁funkcję": 5513,
      "▁wydarzenia": 5514,
      "sch": 5515,
      "▁porównaniu": 5516,
      "▁Krakowie": 5517,
      "▁tworzy": 5518,
      "▁ułat": 5519,
      "▁Mate": 5520,
      "▁Londy": 5521,
      "▁przekracza": 5522,
      "▁gieł": 5523,
      "▁poniedziałek": 5524,
      "▁zasię": 5525,
      "▁daleko": 5526,
      "▁wyjaśnia": 5527,
      "nawia": 5528,
      "▁znie": 5529,
      "ryt": 5530,
      "ałę": 5531,
      "▁wieczo": 5532,
      "▁Py": 5533,
      "▁wyborach": 5534,
      "wości": 5535,
      "kowanych": 5536,
      "▁moment": 5537,
      "czech": 5538,
      "▁podaje": 5539,
      ".:": 5540,
      "▁sporzą": 5541,
      "▁niektóre": 5542,
      "niczych": 5543,
      "▁gaz": 5544,
      "wsze": 5545,
      "stwem": 5546,
      "▁Niemczech": 5547,
      "▁obsługi": 5548,
      "▁zobaczy": 5549,
      "▁banku": 5550,
      "▁Kur": 5551,
      "▁zrozumie": 5552,
      "not": 5553,
      "▁Szwe": 5554,
      "▁Tre": 5555,
      "▁jednostek": 5556,
      "▁górę": 5557,
      "▁ewiden": 5558,
      "▁obwo": 5559,
      "▁twoje": 5560,
      "rob": 5561,
      "▁Takie": 5562,
      "▁At": 5563,
      "▁niebie": 5564,
      "all": 5565,
      "▁przypadkach": 5566,
      "▁Nowe": 5567,
      "▁sprawo": 5568,
      "▁Ter": 5569,
      "pił": 5570,
      "▁systemie": 5571,
      "▁przemysł": 5572,
      "łąd": 5573,
      "czem": 5574,
      "ńską": 5575,
      "▁Mamy": 5576,
      "que": 5577,
      "▁pamiętać": 5578,
      "gli": 5579,
      "pow": 5580,
      "▁Bank": 5581,
      "mysłu": 5582,
      "cyjnie": 5583,
      "jeżdża": 5584,
      "żer": 5585,
      "logiczne": 5586,
      "▁ramiona": 5587,
      "▁telewizji": 5588,
      "▁wszelkie": 5589,
      "▁Gazeta": 5590,
      "▁emeryta": 5591,
      "▁Białoru": 5592,
      "bat": 5593,
      "sjona": 5594,
      "▁wiary": 5595,
      "▁komisji": 5596,
      "▁zagad": 5597,
      "▁Chce": 5598,
      "szeniu": 5599,
      "▁jesie": 5600,
      "mując": 5601,
      "tak": 5602,
      "▁wystą": 5603,
      "kcje": 5604,
      "▁drugą": 5605,
      "gres": 5606,
      "zeum": 5607,
      "▁rozmów": 5608,
      "▁(\"": 5609,
      "▁karie": 5610,
      "▁ex": 5611,
      "▁syna": 5612,
      "▁podróży": 5613,
      "▁widz": 5614,
      "▁Oj": 5615,
      "▁Odzna": 5616,
      "▁nowoczes": 5617,
      "▁Mer": 5618,
      "▁Finans": 5619,
      "ret": 5620,
      "shi": 5621,
      "▁skom": 5622,
      "zach": 5623,
      "▁wystarcza": 5624,
      "Ma": 5625,
      "▁przychodów": 5626,
      "▁wysokość": 5627,
      "▁sztuki": 5628,
      "▁pobiera": 5629,
      "robo": 5630,
      "▁czemu": 5631,
      "▁ref": 5632,
      "▁gości": 5633,
      "▁wykorzystu": 5634,
      "rzeniem": 5635,
      "nięty": 5636,
      "▁form": 5637,
      "▁utw": 5638,
      "▁olimpij": 5639,
      "▁śnie": 5640,
      "lono": 5641,
      "▁Play": 5642,
      "biut": 5643,
      "dziesiąt": 5644,
      "▁marki": 5645,
      "▁Gdzie": 5646,
      "▁sej": 5647,
      "▁mógłby": 5648,
      "ndy": 5649,
      "▁składni": 5650,
      "▁wyklu": 5651,
      "▁Francu": 5652,
      "▁odparł": 5653,
      "▁scenari": 5654,
      "▁prosto": 5655,
      "▁byłem": 5656,
      "NIE": 5657,
      "▁tor": 5658,
      "▁skon": 5659,
      "ńców": 5660,
      "▁moni": 5661,
      "▁list": 5662,
      "chowy": 5663,
      "▁Dia": 5664,
      "▁cena": 5665,
      "dłuż": 5666,
      "▁okazało": 5667,
      "▁zbiera": 5668,
      "berg": 5669,
      "bach": 5670,
      "kse": 5671,
      "▁móz": 5672,
      "▁konferencji": 5673,
      "▁atmos": 5674,
      "▁sprawia": 5675,
      "▁Niech": 5676,
      "▁porządku": 5677,
      "▁Państw": 5678,
      "▁unik": 5679,
      "▁decyzja": 5680,
      "▁Boże": 5681,
      "ąż": 5682,
      "▁spotkanie": 5683,
      "szość": 5684,
      "▁Pierwszy": 5685,
      "▁Gospodar": 5686,
      "▁pochodzi": 5687,
      "▁przestrzeni": 5688,
      "▁ciągle": 5689,
      "▁nego": 5690,
      "rym": 5691,
      "▁długie": 5692,
      "▁substan": 5693,
      "mana": 5694,
      "wami": 5695,
      "hu": 5696,
      "▁reprezenta": 5697,
      "słucha": 5698,
      "▁nieprzy": 5699,
      "▁rolni": 5700,
      "sion": 5701,
      "▁Marek": 5702,
      "alny": 5703,
      "▁budynku": 5704,
      "▁Mad": 5705,
      "encji": 5706,
      "leniu": 5707,
      "lizacja": 5708,
      "▁przeczy": 5709,
      "und": 5710,
      "miana": 5711,
      "spond": 5712,
      "▁reprezentacji": 5713,
      "stnie": 5714,
      "▁pad": 5715,
      "finans": 5716,
      "▁uczni": 5717,
      "▁Zost": 5718,
      "▁Char": 5719,
      "▁żyw": 5720,
      "szły": 5721,
      "▁żadnej": 5722,
      "▁niewiele": 5723,
      "▁Centrum": 5724,
      "▁szczęśli": 5725,
      "▁wywiad": 5726,
      "imi": 5727,
      "▁użytk": 5728,
      "▁wyści": 5729,
      "obraz": 5730,
      "szeni": 5731,
      "▁wios": 5732,
      "▁Sprawie": 5733,
      "▁Opi": 5734,
      "▁niczego": 5735,
      "?\"": 5736,
      "tość": 5737,
      "wicza": 5738,
      "NE": 5739,
      "▁dyscypli": 5740,
      "▁upo": 5741,
      "▁Więk": 5742,
      "▁Społe": 5743,
      "▁języka": 5744,
      "▁eksplo": 5745,
      "▁mojego": 5746,
      "▁wydaw": 5747,
      "▁ol": 5748,
      "▁chrześcija": 5749,
      "▁Następnie": 5750,
      "▁potencja": 5751,
      "pem": 5752,
      "▁całości": 5753,
      "▁Mę": 5754,
      "▁zagranicznych": 5755,
      "▁Para": 5756,
      "▁Twit": 5757,
      "▁sporo": 5758,
      "▁rywali": 5759,
      "▁Eko": 5760,
      "rony": 5761,
      "▁największych": 5762,
      "▁pracuje": 5763,
      "▁ulicy": 5764,
      "▁cała": 5765,
      "▁praca": 5766,
      "▁szefa": 5767,
      "▁ubieg": 5768,
      "siła": 5769,
      "▁kwestia": 5770,
      "au": 5771,
      "▁mediów": 5772,
      "niona": 5773,
      "▁popeł": 5774,
      "▁rodzaj": 5775,
      "necie": 5776,
      "▁obowiązy": 5777,
      "gent": 5778,
      "▁miesiące": 5779,
      "▁miesiąc": 5780,
      "kała": 5781,
      "▁stosowania": 5782,
      "▁parę": 5783,
      "▁zawi": 5784,
      "▁boi": 5785,
      "lt": 5786,
      "▁oby": 5787,
      "▁pracownik": 5788,
      "czami": 5789,
      "▁dynami": 5790,
      "▁tymi": 5791,
      "▁iP": 5792,
      "▁Mil": 5793,
      "▁dłużej": 5794,
      "nder": 5795,
      "▁aut": 5796,
      "▁najwy": 5797,
      "▁Mart": 5798,
      "▁Katarzy": 5799,
      "▁przesu": 5800,
      "grywa": 5801,
      "▁rea": 5802,
      "hone": 5803,
      "▁wydoby": 5804,
      "▁wam": 5805,
      "▁macie": 5806,
      "▁Dem": 5807,
      "▁dotąd": 5808,
      "▁czwartek": 5809,
      "▁wypeł": 5810,
      "▁wystarczy": 5811,
      "▁seksu": 5812,
      "▁Ź": 5813,
      "▁celów": 5814,
      "▁zrobił": 5815,
      "Je": 5816,
      "fery": 5817,
      "ies": 5818,
      "czyn": 5819,
      "▁System": 5820,
      "zję": 5821,
      "lonym": 5822,
      "▁najważniejsze": 5823,
      "▁służą": 5824,
      "▁zarządu": 5825,
      "▁zamówie": 5826,
      "niejsza": 5827,
      "▁wtorek": 5828,
      "▁ostatnio": 5829,
      "▁społeczne": 5830,
      "▁hy": 5831,
      "▁zajmuje": 5832,
      "▁opłat": 5833,
      "▁obrony": 5834,
      "▁dekla": 5835,
      "▁delika": 5836,
      "▁samochodów": 5837,
      "▁samochodu": 5838,
      "▁posia": 5839,
      "▁woli": 5840,
      "▁zapre": 5841,
      "▁ryzyko": 5842,
      "▁podpis": 5843,
      "rowi": 5844,
      "▁wchodzą": 5845,
      "▁otwiera": 5846,
      "▁środę": 5847,
      "▁moich": 5848,
      "▁stylu": 5849,
      "twy": 5850,
      "▁napię": 5851,
      "▁żół": 5852,
      "tków": 5853,
      "▁miesz": 5854,
      "▁podkreślił": 5855,
      "▁Wybor": 5856,
      "▁pierwsza": 5857,
      "▁zaa": 5858,
      "▁gmina": 5859,
      "▁krą": 5860,
      "▁Chri": 5861,
      "▁kontra": 5862,
      "▁Ksią": 5863,
      "▁Tego": 5864,
      "▁gre": 5865,
      "▁zmiana": 5866,
      "▁wyd": 5867,
      "▁zwa": 5868,
      "ore": 5869,
      "▁wiru": 5870,
      "▁przekazy": 5871,
      "rąz": 5872,
      "▁grupie": 5873,
      "ując": 5874,
      "miaru": 5875,
      "ił": 5876,
      "▁Piłkarze": 5877,
      "▁Samsu": 5878,
      "dowe": 5879,
      "spól": 5880,
      "nospraw": 5881,
      "▁(...)": 5882,
      "ństwem": 5883,
      "▁Było": 5884,
      "▁kary": 5885,
      "▁wyjątk": 5886,
      "▁oceny": 5887,
      "▁prawidł": 5888,
      "▁kogoś": 5889,
      "▁częściej": 5890,
      "▁mieszkania": 5891,
      "▁siedem": 5892,
      "▁Put": 5893,
      "▁ćwi": 5894,
      "▁Oto": 5895,
      "▁komi": 5896,
      "chodzie": 5897,
      "▁pewnym": 5898,
      "▁cm": 5899,
      "▁zade": 5900,
      "kową": 5901,
      "▁tygodnia": 5902,
      "▁Fre": 5903,
      "▁Często": 5904,
      "towy": 5905,
      "▁doskona": 5906,
      "fał": 5907,
      "▁obja": 5908,
      "▁węgla": 5909,
      "cina": 5910,
      "▁Bla": 5911,
      "▁zbi": 5912,
      "NA": 5913,
      "▁głównej": 5914,
      "jechał": 5915,
      "▁Window": 5916,
      "łki": 5917,
      "▁zależności": 5918,
      "ela": 5919,
      "▁skali": 5920,
      "▁prepara": 5921,
      "▁market": 5922,
      "▁sięga": 5923,
      "▁gwiazd": 5924,
      "niejszym": 5925,
      "▁nieprze": 5926,
      "▁sięg": 5927,
      "▁posie": 5928,
      "produ": 5929,
      "▁ory": 5930,
      "▁nazwę": 5931,
      "▁świadczeń": 5932,
      "▁działanie": 5933,
      "▁san": 5934,
      "▁wiemy": 5935,
      "▁uchy": 5936,
      "cona": 5937,
      "▁upra": 5938,
      "▁gdzieś": 5939,
      "▁miejscowości": 5940,
      "▁pojawił": 5941,
      "up": 5942,
      "▁młodych": 5943,
      "▁poe": 5944,
      "▁zga": 5945,
      "!\"": 5946,
      "▁odrzu": 5947,
      "▁obcią": 5948,
      "▁sklep": 5949,
      "▁polska": 5950,
      "▁regiona": 5951,
      "ownie": 5952,
      "kazała": 5953,
      "▁wicepre": 5954,
      "▁spotk": 5955,
      "▁Mora": 5956,
      "hen": 5957,
      "▁regular": 5958,
      "▁udziela": 5959,
      "żonego": 5960,
      "▁włosy": 5961,
      "lski": 5962,
      "hate": 5963,
      "talu": 5964,
      "▁wyborów": 5965,
      "wajcar": 5966,
      "▁sre": 5967,
      "zny": 5968,
      "▁Hol": 5969,
      "▁Ministrów": 5970,
      "▁rezu": 5971,
      "▁Tom": 5972,
      "▁występuje": 5973,
      "▁pokazuje": 5974,
      "▁roślin": 5975,
      "▁postać": 5976,
      "▁osiem": 5977,
      "▁kształt": 5978,
      "▁Południ": 5979,
      "▁uprze": 5980,
      "▁dużej": 5981,
      "▁FM": 5982,
      "▁drog": 5983,
      "▁Han": 5984,
      "▁Woje": 5985,
      "lec": 5986,
      "▁odpowiedział": 5987,
      "▁dokony": 5988,
      "▁zer": 5989,
      "hy": 5990,
      "lak": 5991,
      "nionej": 5992,
      "ziem": 5993,
      "▁specy": 5994,
      "▁nowa": 5995,
      "graf": 5996,
      "▁bur": 5997,
      "▁unika": 5998,
      "▁Ucze": 5999,
      "▁as": 6000,
      "▁siat": 6001,
      "cili": 6002,
      "atów": 6003,
      "▁Ministerstwo": 6004,
      "▁trzecie": 6005,
      "LE": 6006,
      "▁przedsiębiorców": 6007,
      "▁Podobnie": 6008,
      "▁likwi": 6009,
      "▁formy": 6010,
      "▁wysła": 6011,
      "▁obowiązku": 6012,
      "▁pojem": 6013,
      "▁obywateli": 6014,
      "▁dochodzi": 6015,
      "▁gwałtow": 6016,
      "▁zwyk": 6017,
      "▁załą": 6018,
      "▁Dodatk": 6019,
      "▁Mistrzost": 6020,
      "▁większą": 6021,
      "▁zadania": 6022,
      "▁matka": 6023,
      "▁fu": 6024,
      "▁wykonania": 6025,
      "▁dużą": 6026,
      "▁ataku": 6027,
      "▁brzmieniu": 6028,
      "żyli": 6029,
      "▁uzyskania": 6030,
      "▁infra": 6031,
      "▁grzy": 6032,
      "▁Tar": 6033,
      "▁karty": 6034,
      "▁pozostałych": 6035,
      "pion": 6036,
      "▁chcieli": 6037,
      "▁Tran": 6038,
      "▁musieli": 6039,
      "▁Polskie": 6040,
      "▁gier": 6041,
      "▁Jaku": 6042,
      "▁wojnie": 6043,
      "▁pielę": 6044,
      "▁konsekwen": 6045,
      "▁posł": 6046,
      "▁swych": 6047,
      "▁Pew": 6048,
      "uszy": 6049,
      "▁Aust": 6050,
      "▁Marcin": 6051,
      "kazują": 6052,
      "▁gaze": 6053,
      "łami": 6054,
      "mowa": 6055,
      "▁#": 6056,
      "dowego": 6057,
      "dność": 6058,
      "▁lekar": 6059,
      "▁Sza": 6060,
      "▁pierwszą": 6061,
      "▁Sejmu": 6062,
      "OD": 6063,
      "▁czytamy": 6064,
      "▁los": 6065,
      "ralne": 6066,
      "▁chłopa": 6067,
      "▁województwie": 6068,
      "▁Gala": 6069,
      "żynie": 6070,
      "▁Com": 6071,
      "▁teren": 6072,
      "▁cyfr": 6073,
      "▁źle": 6074,
      "▁społeczeństwa": 6075,
      "▁prawnych": 6076,
      "▁wideo": 6077,
      "▁odej": 6078,
      "▁kopa": 6079,
      "▁bibli": 6080,
      "▁hipo": 6081,
      "▁religij": 6082,
      "ntem": 6083,
      "hol": 6084,
      "▁hote": 6085,
      "▁wielki": 6086,
      "migra": 6087,
      "▁samochód": 6088,
      "▁skaza": 6089,
      "▁niedzielę": 6090,
      "▁oczach": 6091,
      "▁sezon": 6092,
      "▁zapowiada": 6093,
      "▁zachodni": 6094,
      "▁sh": 6095,
      "▁koncep": 6096,
      "▁opieki": 6097,
      "▁ura": 6098,
      "▁interesu": 6099,
      "▁wnę": 6100,
      "▁głowie": 6101,
      "▁Sło": 6102,
      "▁dużych": 6103,
      "dium": 6104,
      "▁dać": 6105,
      "▁ostatecznie": 6106,
      "kowana": 6107,
      "▁miałem": 6108,
      "nicze": 6109,
      "▁króla": 6110,
      "▁obejmuje": 6111,
      "▁Trum": 6112,
      "rzyma": 6113,
      "▁rozstrzy": 6114,
      "sel": 6115,
      "▁modelu": 6116,
      "Co": 6117,
      "▁chcesz": 6118,
      "▁kolor": 6119,
      "▁problemu": 6120,
      "▁dyst": 6121,
      "▁naszą": 6122,
      "cel": 6123,
      "nen": 6124,
      "▁zdą": 6125,
      "▁dorad": 6126,
      "liny": 6127,
      "▁chcemy": 6128,
      "▁sprowa": 6129,
      "zdu": 6130,
      "róg": 6131,
      "ńce": 6132,
      "▁wnio": 6133,
      "▁producent": 6134,
      "ńcy": 6135,
      "nis": 6136,
      "▁dą": 6137,
      "lip": 6138,
      "▁Tech": 6139,
      "▁zostaje": 6140,
      "▁rano": 6141,
      "▁amerykański": 6142,
      "▁Pri": 6143,
      "▁spoży": 6144,
      "▁wykry": 6145,
      "mowi": 6146,
      "biu": 6147,
      "nkiem": 6148,
      "▁stały": 6149,
      "▁szansę": 6150,
      "▁Jakie": 6151,
      "▁czer": 6152,
      "▁stawia": 6153,
      "▁przedłu": 6154,
      "▁inicjaty": 6155,
      "▁zbud": 6156,
      "▁przecię": 6157,
      "▁środka": 6158,
      "▁rezy": 6159,
      "tycy": 6160,
      "raź": 6161,
      "ille": 6162,
      "▁wybi": 6163,
      "▁stopnia": 6164,
      "▁moją": 6165,
      "▁znaczenia": 6166,
      "▁policji": 6167,
      "BA": 6168,
      "zwo": 6169,
      "pii": 6170,
      "▁opis": 6171,
      "▁żywo": 6172,
      "xy": 6173,
      "▁Micro": 6174,
      "▁zachowania": 6175,
      "▁przyw": 6176,
      "▁Is": 6177,
      "▁biur": 6178,
      "▁ostroż": 6179,
      "wacji": 6180,
      "▁wsparcia": 6181,
      "▁władz": 6182,
      "▁małe": 6183,
      "dowanie": 6184,
      "▁odręb": 6185,
      "ction": 6186,
      "mont": 6187,
      "▁kol": 6188,
      "▁dziewię": 6189,
      "▁maksyma": 6190,
      "▁kilome": 6191,
      "▁pełno": 6192,
      "chan": 6193,
      "▁żaden": 6194,
      "owaw": 6195,
      "dzonej": 6196,
      "▁rozpoczął": 6197,
      "▁umów": 6198,
      "▁Stre": 6199,
      "▁finansowe": 6200,
      "▁Kana": 6201,
      "usa": 6202,
      "zje": 6203,
      "dla": 6204,
      "▁Ener": 6205,
      "▁dzia": 6206,
      "▁Ofi": 6207,
      "▁krok": 6208,
      "▁zrezy": 6209,
      "▁koronawirusa": 6210,
      "▁przesła": 6211,
      "▁ostatniej": 6212,
      "dania": 6213,
      "▁krew": 6214,
      "▁puł": 6215,
      "▁kawał": 6216,
      "▁res": 6217,
      "▁Jeden": 6218,
      "▁określone": 6219,
      "cle": 6220,
      "żał": 6221,
      "▁Jacek": 6222,
      "▁Ponie": 6223,
      "▁pobliżu": 6224,
      "nó": 6225,
      "▁Chodzi": 6226,
      "▁pojedyn": 6227,
      "▁Wydaw": 6228,
      "▁Insta": 6229,
      "▁materiałów": 6230,
      "▁Zw": 6231,
      "▁społecznej": 6232,
      "▁cer": 6233,
      "noty": 6234,
      "▁sukces": 6235,
      "▁nogi": 6236,
      "ami": 6237,
      "▁kupić": 6238,
      "onda": 6239,
      "oku": 6240,
      "łek": 6241,
      "▁Rzecz": 6242,
      "▁słowo": 6243,
      "PS": 6244,
      "▁dostos": 6245,
      "▁oferty": 6246,
      "▁umiejętności": 6247,
      "▁Tek": 6248,
      "▁abo": 6249,
      "▁trój": 6250,
      "▁moty": 6251,
      "▁musiała": 6252,
      "▁Two": 6253,
      "chodu": 6254,
      "rzyło": 6255,
      "▁NA": 6256,
      "Rze": 6257,
      "▁niepełnospraw": 6258,
      "▁Przecież": 6259,
      "▁asy": 6260,
      "▁obywatel": 6261,
      "logicznych": 6262,
      "óźniej": 6263,
      "▁prezesa": 6264,
      "▁krótko": 6265,
      "▁dodatkowe": 6266,
      "▁Por": 6267,
      "▁not": 6268,
      "▁powią": 6269,
      "▁sprawiedliwości": 6270,
      "▁żona": 6271,
      "▁awans": 6272,
      "▁Net": 6273,
      "▁stąd": 6274,
      "wand": 6275,
      "pto": 6276,
      "▁miliar": 6277,
      "vid": 6278,
      "▁wprost": 6279,
      "dłem": 6280,
      "▁Mari": 6281,
      "▁wczoraj": 6282,
      "▁spotyka": 6283,
      "nal": 6284,
      "letnie": 6285,
      "▁standar": 6286,
      "▁napa": 6287,
      "▁COVID": 6288,
      "▁Telewi": 6289,
      "▁Kościoła": 6290,
      "▁test": 6291,
      "▁społecznych": 6292,
      "▁wydaj": 6293,
      "▁Należy": 6294,
      "▁Rodzi": 6295,
      "▁opisa": 6296,
      "lian": 6297,
      "tycznym": 6298,
      "▁wstęp": 6299,
      "▁spadek": 6300,
      "▁Izra": 6301,
      "▁tłumaczy": 6302,
      "▁zezwo": 6303,
      "▁Zy": 6304,
      "▁procesu": 6305,
      "żka": 6306,
      "luje": 6307,
      "menda": 6308,
      "▁wstrzy": 6309,
      "▁Konstytu": 6310,
      "alnej": 6311,
      "▁czymś": 6312,
      "niak": 6313,
      "▁har": 6314,
      "lała": 6315,
      "▁konieczności": 6316,
      "▁samych": 6317,
      "▁historia": 6318,
      "byśmy": 6319,
      "▁wybuch": 6320,
      "▁wywoła": 6321,
      "▁with": 6322,
      "▁Austra": 6323,
      "▁łącznie": 6324,
      "▁Słowa": 6325,
      "▁szta": 6326,
      "▁nieko": 6327,
      "czoną": 6328,
      "▁dopu": 6329,
      "▁doskonale": 6330,
      "▁powoduje": 6331,
      "▁Czu": 6332,
      "▁spółka": 6333,
      "tyczna": 6334,
      "żki": 6335,
      "▁Prezes": 6336,
      "▁bezrobo": 6337,
      "żsa": 6338,
      "▁Rząd": 6339,
      "▁mediach": 6340,
      "gania": 6341,
      "▁niedawno": 6342,
      "bierz": 6343,
      "▁sumie": 6344,
      "będzie": 6345,
      "tto": 6346,
      "▁Ben": 6347,
      "▁ubezpieczenia": 6348,
      "▁Geor": 6349,
      "▁członkow": 6350,
      "▁tekst": 6351,
      "▁fla": 6352,
      "ściem": 6353,
      "▁logi": 6354,
      "▁miast": 6355,
      "▁radi": 6356,
      "▁przywód": 6357,
      "▁światła": 6358,
      "▁nacze": 6359,
      "▁dostępne": 6360,
      "▁stóp": 6361,
      "dor": 6362,
      "▁zatrudnienia": 6363,
      "inę": 6364,
      "▁bizne": 6365,
      "▁filmy": 6366,
      "▁światło": 6367,
      "ksu": 6368,
      "niesieniu": 6369,
      "▁Zdr": 6370,
      "▁fał": 6371,
      "▁powstał": 6372,
      "▁proto": 6373,
      "▁nazywa": 6374,
      "▁żyje": 6375,
      "▁Media": 6376,
      "▁obowiązków": 6377,
      "▁dał": 6378,
      "▁obszarze": 6379,
      "linie": 6380,
      "▁kontrol": 6381,
      "▁wspólnego": 6382,
      "▁zwyczaj": 6383,
      "▁niemie": 6384,
      "By": 6385,
      "▁John": 6386,
      "▁opiera": 6387,
      "▁Radio": 6388,
      "▁zachwy": 6389,
      "piec": 6390,
      "stanie": 6391,
      "▁Zbi": 6392,
      "▁opłaty": 6393,
      "▁kibi": 6394,
      "▁zaprze": 6395,
      "▁Jarosław": 6396,
      "▁Polscy": 6397,
      "▁metody": 6398,
      "▁minima": 6399,
      "rego": 6400,
      "▁wsparcie": 6401,
      "ros": 6402,
      "▁pochodzenia": 6403,
      "▁zagrożenia": 6404,
      "▁zwal": 6405,
      "▁set": 6406,
      "▁osła": 6407,
      "▁związek": 6408,
      "mentar": 6409,
      "łata": 6410,
      "cymi": 6411,
      "▁powiąza": 6412,
      "▁wysił": 6413,
      "▁odebra": 6414,
      "▁Gó": 6415,
      "▁środku": 6416,
      "▁zostali": 6417,
      "▁wydatków": 6418,
      "▁matki": 6419,
      "▁ocho": 6420,
      "▁urodzeni": 6421,
      "ower": 6422,
      "▁powstania": 6423,
      "▁transportu": 6424,
      "myka": 6425,
      "mami": 6426,
      "▁rą": 6427,
      "▁Międzynarod": 6428,
      "▁Komisja": 6429,
      "▁wiesz": 6430,
      "▁Gar": 6431,
      "▁Bóg": 6432,
      "łuje": 6433,
      "▁wyświetla": 6434,
      "▁uszko": 6435,
      "owskiej": 6436,
      "▁własnego": 6437,
      "▁Tro": 6438,
      "▁niestety": 6439,
      "▁dobro": 6440,
      "▁ewentual": 6441,
      "▁głęboko": 6442,
      "ong": 6443,
      "derem": 6444,
      "▁Źród": 6445,
      "▁oprócz": 6446,
      "▁rozpoczyna": 6447,
      "szczone": 6448,
      "ałeś": 6449,
      "▁widział": 6450,
      "▁naukow": 6451,
      "▁Pani": 6452,
      "▁przeja": 6453,
      "▁transakcji": 6454,
      "▁cenę": 6455,
      "▁Dro": 6456,
      "ath": 6457,
      "▁XIX": 6458,
      "wskiej": 6459,
      "▁zesz": 6460,
      "▁jazdy": 6461,
      "▁pracował": 6462,
      "▁następuje": 6463,
      "▁nieod": 6464,
      "▁Począ": 6465,
      "▁dziesią": 6466,
      "▁PKB": 6467,
      "▁drogą": 6468,
      "▁Świata": 6469,
      "▁dawna": 6470,
      "▁długości": 6471,
      "rodę": 6472,
      "▁miesiąca": 6473,
      "Ro": 6474,
      "▁sezonu": 6475,
      "▁zę": 6476,
      "▁elementów": 6477,
      "tłu": 6478,
      "ida": 6479,
      "tanie": 6480,
      "▁Proszę": 6481,
      "▁Fer": 6482,
      "▁Grupa": 6483,
      "rand": 6484,
      "▁zazwyczaj": 6485,
      "cuje": 6486,
      "▁czynienia": 6487,
      "▁wielką": 6488,
      "▁kontakt": 6489,
      "▁doświadczenia": 6490,
      "lety": 6491,
      "▁zaprezent": 6492,
      "▁pta": 6493,
      "▁net": 6494,
      "▁przeszłości": 6495,
      "mowy": 6496,
      "▁profi": 6497,
      "mir": 6498,
      "nastu": 6499,
      "▁handlu": 6500,
      "▁twar": 6501,
      "ant": 6502,
      "▁zrealiz": 6503,
      "▁potwierdza": 6504,
      "▁posłu": 6505,
      "▁ilość": 6506,
      "▁będziesz": 6507,
      "ródeł": 6508,
      "wicy": 6509,
      "▁dol": 6510,
      "▁zał": 6511,
      "▁źródła": 6512,
      "wiony": 6513,
      "▁ogranicza": 6514,
      "▁wydania": 6515,
      "▁Kazi": 6516,
      "▁Windows": 6517,
      "▁Zmarli": 6518,
      "▁klienta": 6519,
      "NI": 6520,
      "▁wielkości": 6521,
      "wol": 6522,
      "▁Zam": 6523,
      "▁Nikt": 6524,
      "▁czoł": 6525,
      "▁Kodek": 6526,
      "▁książę": 6527,
      "▁relacji": 6528,
      "▁opieku": 6529,
      "▁Ziemi": 6530,
      "▁odpowiedź": 6531,
      "nikom": 6532,
      "kogo": 6533,
      "▁You": 6534,
      "nieniu": 6535,
      "▁osa": 6536,
      "▁et": 6537,
      "▁Wiele": 6538,
      "tacza": 6539,
      "▁wspomnia": 6540,
      "▁Komite": 6541,
      "▁rocznie": 6542,
      "▁znany": 6543,
      "▁wzajem": 6544,
      "▁spółek": 6545,
      "▁zała": 6546,
      "pt": 6547,
      "▁kontek": 6548,
      "▁małych": 6549,
      "niały": 6550,
      "▁wysta": 6551,
      "▁areszt": 6552,
      "▁bło": 6553,
      "jnych": 6554,
      "▁pola": 6555,
      "▁Ali": 6556,
      "sję": 6557,
      "▁artysty": 6558,
      "▁skąd": 6559,
      "▁Mistrz": 6560,
      "▁intensyw": 6561,
      "▁dół": 6562,
      "▁elementy": 6563,
      "▁zabu": 6564,
      "blem": 6565,
      "▁Więc": 6566,
      "ryte": 6567,
      "▁Biznes": 6568,
      "niono": 6569,
      "mych": 6570,
      "▁korzyst": 6571,
      "▁Uczest": 6572,
      "▁dużym": 6573,
      "▁czuje": 6574,
      "king": 6575,
      "▁dop": 6576,
      "ls": 6577,
      "▁dźwię": 6578,
      "▁muszę": 6579,
      "bora": 6580,
      "▁rozpa": 6581,
      "▁ustala": 6582,
      "use": 6583,
      "▁sobotę": 6584,
      "tyk": 6585,
      "▁kończy": 6586,
      "▁ograniczenia": 6587,
      "▁źródeł": 6588,
      "▁spokojnie": 6589,
      "▁wykształ": 6590,
      "▁efekt": 6591,
      "▁sprawozda": 6592,
      "▁Towarzy": 6593,
      "▁Wor": 6594,
      "▁orygina": 6595,
      "▁spod": 6596,
      "▁Lewand": 6597,
      "▁Gdań": 6598,
      "▁prowin": 6599,
      "▁rzym": 6600,
      "yer": 6601,
      "▁Działa": 6602,
      "▁oczywi": 6603,
      "▁szkół": 6604,
      "▁polu": 6605,
      "▁sprawdzić": 6606,
      "ssa": 6607,
      "▁super": 6608,
      "▁korzystać": 6609,
      "pio": 6610,
      "▁przyznał": 6611,
      "▁piersi": 6612,
      "bił": 6613,
      "wań": 6614,
      "▁zamieszka": 6615,
      "termin": 6616,
      "▁rozwiązań": 6617,
      "▁telefon": 6618,
      "▁opodatk": 6619,
      "▁Met": 6620,
      "▁wyższe": 6621,
      "skry": 6622,
      "▁publicznego": 6623,
      "ściami": 6624,
      "▁powietrza": 6625,
      "▁Obie": 6626,
      "Ch": 6627,
      "▁Microso": 6628,
      "▁analiz": 6629,
      "▁zdzi": 6630,
      "atora": 6631,
      "nału": 6632,
      "▁efektyw": 6633,
      "▁próby": 6634,
      "ruje": 6635,
      "▁global": 6636,
      "▁odse": 6637,
      "▁filmów": 6638,
      "rwa": 6639,
      "▁Va": 6640,
      "▁mistrz": 6641,
      "▁napo": 6642,
      "▁podobne": 6643,
      "Rzecz": 6644,
      "▁alkoho": 6645,
      "▁pojazdów": 6646,
      "▁pli": 6647,
      "▁Bor": 6648,
      "lacje": 6649,
      "róciła": 6650,
      "▁oddziały": 6651,
      "▁proszę": 6652,
      "szyb": 6653,
      "łonek": 6654,
      "▁przyjm": 6655,
      "▁rzecznik": 6656,
      "▁wizer": 6657,
      "▁kli": 6658,
      "▁tworzą": 6659,
      "▁Jednocześnie": 6660,
      "▁igrzy": 6661,
      "▁mistrzostw": 6662,
      "gue": 6663,
      "strza": 6664,
      "▁terytoria": 6665,
      "szona": 6666,
      "▁wielkim": 6667,
      "▁sprawą": 6668,
      "▁tajemni": 6669,
      "▁Bur": 6670,
      "▁produkty": 6671,
      "▁adwoka": 6672,
      "▁prowadzić": 6673,
      "rio": 6674,
      "▁osobę": 6675,
      "walu": 6676,
      "łości": 6677,
      "▁Kilka": 6678,
      "mes": 6679,
      "▁mówiła": 6680,
      "IS": 6681,
      "▁pozycję": 6682,
      "fikacja": 6683,
      "▁Ur": 6684,
      "▁danego": 6685,
      "▁własną": 6686,
      "▁Chyba": 6687,
      "eś": 6688,
      "owcy": 6689,
      "▁ludności": 6690,
      "mierz": 6691,
      "▁serce": 6692,
      "▁wycie": 6693,
      "wione": 6694,
      "ned": 6695,
      "▁Sk": 6696,
      "▁zarejest": 6697,
      "▁Wcześniej": 6698,
      "▁korzyści": 6699,
      "▁gospodarka": 6700,
      "▁druga": 6701,
      "▁punkty": 6702,
      "▁Stanisław": 6703,
      "▁wspólnie": 6704,
      "rzyja": 6705,
      "▁kryzys": 6706,
      "owiadał": 6707,
      "▁swe": 6708,
      "demi": 6709,
      "▁przedsiębiorcy": 6710,
      "▁Dobrze": 6711,
      "▁myślą": 6712,
      "▁Rada": 6713,
      "▁rozporządzenie": 6714,
      "▁ucho": 6715,
      "▁wiedzą": 6716,
      "pan": 6717,
      "▁Inne": 6718,
      "▁uroczy": 6719,
      "▁muzyki": 6720,
      "▁popro": 6721,
      "▁trener": 6722,
      "▁mały": 6723,
      "las": 6724,
      "▁tematy": 6725,
      "▁odpad": 6726,
      "wałem": 6727,
      "▁ły": 6728,
      "▁zaplan": 6729,
      "rium": 6730,
      "ografi": 6731,
      "▁okręgu": 6732,
      "▁Mal": 6733,
      "▁przekształ": 6734,
      "▁Jerzy": 6735,
      "▁dopuszcza": 6736,
      "▁przyspie": 6737,
      "nionego": 6738,
      "jne": 6739,
      "kacje": 6740,
      "▁zakończeniu": 6741,
      "▁polityk": 6742,
      "Wy": 6743,
      "▁Miał": 6744,
      "skimi": 6745,
      "▁podmiot": 6746,
      "rzut": 6747,
      "▁różni": 6748,
      "▁One": 6749,
      "▁Ponieważ": 6750,
      "▁Zu": 6751,
      "▁któremu": 6752,
      "▁kompozy": 6753,
      "pina": 6754,
      "▁planu": 6755,
      "▁Dopiero": 6756,
      "▁gmin": 6757,
      "▁uzależ": 6758,
      "westi": 6759,
      "▁wewnątrz": 6760,
      "▁rad": 6761,
      "▁wyraź": 6762,
      "▁niepod": 6763,
      "wale": 6764,
      "▁zasadzie": 6765,
      "▁Funduszu": 6766,
      "win": 6767,
      "czycy": 6768,
      "▁dodatkowo": 6769,
      "▁budowę": 6770,
      "▁Wojciech": 6771,
      "▁przyszłość": 6772,
      "▁miejscach": 6773,
      "▁kryter": 6774,
      "▁Okręg": 6775,
      "▁Wojsk": 6776,
      "dii": 6777,
      "▁pł": 6778,
      "WA": 6779,
      "▁Sena": 6780,
      "▁wyjątkiem": 6781,
      "▁akt": 6782,
      "▁dzwo": 6783,
      "▁naci": 6784,
      "▁ryzyka": 6785,
      "dawcy": 6786,
      "▁Większość": 6787,
      "end": 6788,
      "▁zwiększa": 6789,
      "▁prawem": 6790,
      "▁obsłu": 6791,
      "▁głównym": 6792,
      "▁IN": 6793,
      "▁bohate": 6794,
      "lonej": 6795,
      "nąłem": 6796,
      "▁chemi": 6797,
      "kru": 6798,
      "▁decyzje": 6799,
      "▁filmie": 6800,
      "rant": 6801,
      "▁mro": 6802,
      "▁uwzględnia": 6803,
      "▁inwestor": 6804,
      "▁głosów": 6805,
      "▁pracodawcy": 6806,
      "▁częścią": 6807,
      "▁konso": 6808,
      "▁ub": 6809,
      "▁piłkar": 6810,
      "wagi": 6811,
      "▁odde": 6812,
      "▁telefo": 6813,
      "▁popy": 6814,
      "▁styl": 6815,
      "mień": 6816,
      "▁pil": 6817,
      "▁terro": 6818,
      "▁rejestra": 6819,
      "▁miejscowość": 6820,
      "▁zakup": 6821,
      "▁zewnątrz": 6822,
      "▁europejskich": 6823,
      "▁absolu": 6824,
      "▁Jedy": 6825,
      "▁operacji": 6826,
      "▁umowę": 6827,
      "tero": 6828,
      "▁Łukasz": 6829,
      "▁pociąg": 6830,
      "▁porusza": 6831,
      "▁ustawa": 6832,
      "▁Sprawiedliwości": 6833,
      "▁wygo": 6834,
      "dan": 6835,
      "▁trafił": 6836,
      "▁utrzymy": 6837,
      "bami": 6838,
      "▁Dar": 6839,
      "▁kompe": 6840,
      "▁układu": 6841,
      "▁samą": 6842,
      "▁język": 6843,
      "▁Agnie": 6844,
      "świe": 6845,
      "▁Andrze": 6846,
      "▁charakterze": 6847,
      "▁własnym": 6848,
      "▁sposobu": 6849,
      "▁zajął": 6850,
      "▁straty": 6851,
      "▁Oprócz": 6852,
      "▁Związku": 6853,
      "▁Opinie": 6854,
      "▁PIT": 6855,
      "ram": 6856,
      "▁jakiegoś": 6857,
      "▁wykorzystać": 6858,
      "▁dat": 6859,
      "▁wyprze": 6860,
      "wne": 6861,
      "sąd": 6862,
      "▁nasi": 6863,
      "▁początek": 6864,
      "▁politycznych": 6865,
      "▁ciekawe": 6866,
      "▁Tade": 6867,
      "nina": 6868,
      "nną": 6869,
      "chnął": 6870,
      "▁smo": 6871,
      "▁szacun": 6872,
      "ralnych": 6873,
      "brze": 6874,
      "▁czwart": 6875,
      "▁gotów": 6876,
      "▁średnio": 6877,
      "▁sena": 6878,
      "▁Brytyj": 6879,
      "▁koło": 6880,
      "grup": 6881,
      "komi": 6882,
      "mas": 6883,
      "▁groź": 6884,
      "▁wojska": 6885,
      "▁zauważył": 6886,
      "▁zmianę": 6887,
      "ys": 6888,
      "▁ropy": 6889,
      "▁egzami": 6890,
      "kuję": 6891,
      "▁pojawiły": 6892,
      "▁Stanach": 6893,
      "regu": 6894,
      "rin": 6895,
      "▁Cor": 6896,
      "▁Administra": 6897,
      "BC": 6898,
      "▁zysku": 6899,
      "▁kwotę": 6900,
      "▁powrotem": 6901,
      "▁bó": 6902,
      "▁wysp": 6903,
      "▁akty": 6904,
      "▁ciąży": 6905,
      "szczu": 6906,
      "▁zuży": 6907,
      "▁Ochro": 6908,
      "▁epo": 6909,
      "▁wybory": 6910,
      "▁dziec": 6911,
      "▁nazwa": 6912,
      "▁oddział": 6913,
      "▁Ozna": 6914,
      "):": 6915,
      "▁zba": 6916,
      "▁wybrać": 6917,
      "fu": 6918,
      "▁skorzystać": 6919,
      "▁suger": 6920,
      "▁szkole": 6921,
      "▁Trudno": 6922,
      "▁Ir": 6923,
      "▁grozi": 6924,
      "pular": 6925,
      "▁Mak": 6926,
      "▁sch": 6927,
      "ższe": 6928,
      "▁zajmu": 6929,
      "▁szu": 6930,
      "▁rejestru": 6931,
      "▁Prezydent": 6932,
      "▁rez": 6933,
      "▁równowa": 6934,
      "▁Ligi": 6935,
      "▁praktyce": 6936,
      "▁Hiszpanii": 6937,
      "▁resta": 6938,
      "trzu": 6939,
      "dzonego": 6940,
      "▁identy": 6941,
      "▁Zbignie": 6942,
      "dowym": 6943,
      "▁udziałem": 6944,
      "▁ap": 6945,
      "szta": 6946,
      "▁wio": 6947,
      "▁pracować": 6948,
      "▁pobra": 6949,
      "▁niniej": 6950,
      "godni": 6951,
      "dzał": 6952,
      "anu": 6953,
      "▁lę": 6954,
      "▁materia": 6955,
      "ierę": 6956,
      "▁odez": 6957,
      "▁wzdłuż": 6958,
      "▁Wyso": 6959,
      "▁płatności": 6960,
      "▁Kali": 6961,
      "▁nało": 6962,
      "lle": 6963,
      "▁strona": 6964,
      "media": 6965,
      "kowała": 6966,
      "▁tryb": 6967,
      "▁monitor": 6968,
      "▁Kaczyński": 6969,
      "orąc": 6970,
      "▁ciężko": 6971,
      "▁zdjęć": 6972,
      "▁Ange": 6973,
      "▁wziąć": 6974,
      "▁przo": 6975,
      "▁traci": 6976,
      "▁wprowadzenie": 6977,
      "▁wyjaśnie": 6978,
      "▁Kościół": 6979,
      "▁festi": 6980,
      "▁kwartale": 6981,
      "▁table": 6982,
      "torze": 6983,
      "▁rzuca": 6984,
      "▁każda": 6985,
      "owni": 6986,
      "▁Obyw": 6987,
      "strak": 6988,
      "▁brakuje": 6989,
      "bin": 6990,
      "▁Dłu": 6991,
      "▁wszystkiego": 6992,
      "▁duch": 6993,
      "▁wytwarza": 6994,
      "▁uspo": 6995,
      "▁gnie": 6996,
      "stal": 6997,
      "▁Prokura": 6998,
      "▁prowadzenie": 6999,
      "▁najlepszych": 7000,
      "stać": 7001,
      "▁odczy": 7002,
      "▁bom": 7003,
      "▁ręką": 7004,
      "onald": 7005,
      "▁Myślę": 7006,
      "▁powietrze": 7007,
      "▁historię": 7008,
      "▁deka": 7009,
      "▁Być": 7010,
      "atych": 7011,
      "▁zb": 7012,
      "▁teat": 7013,
      "▁zgody": 7014,
      "▁stolicy": 7015,
      "miała": 7016,
      "▁nienawi": 7017,
      "▁nieba": 7018,
      "▁prezent": 7019,
      "▁tydzień": 7020,
      "▁SP": 7021,
      "wiaty": 7022,
      "pliwie": 7023,
      "czącego": 7024,
      "wskim": 7025,
      "▁nożna": 7026,
      "dawca": 7027,
      "▁mani": 7028,
      "lom": 7029,
      "▁wzbu": 7030,
      "▁armii": 7031,
      "▁oczu": 7032,
      "▁HD": 7033,
      "lory": 7034,
      "czące": 7035,
      "▁serialu": 7036,
      "eksy": 7037,
      "żnych": 7038,
      "▁regionie": 7039,
      "▁ton": 7040,
      "liła": 7041,
      "▁rozegra": 7042,
      "▁szybciej": 7043,
      "legł": 7044,
      "▁dziedzinie": 7045,
      "▁koncent": 7046,
      "red": 7047,
      "▁osiąga": 7048,
      "gon": 7049,
      "nieniem": 7050,
      "▁Polskę": 7051,
      "▁elektro": 7052,
      "zeku": 7053,
      "▁obszar": 7054,
      "▁Szef": 7055,
      "▁Odznaczeni": 7056,
      "▁droga": 7057,
      "nitar": 7058,
      "▁pośrednictwem": 7059,
      "▁lekarza": 7060,
      "▁gigan": 7061,
      "▁pry": 7062,
      "▁pojęcia": 7063,
      "▁Najwięk": 7064,
      "▁języku": 7065,
      "▁niepoko": 7066,
      "▁charakterysty": 7067,
      "▁skóry": 7068,
      "▁przygo": 7069,
      "▁ubiegłym": 7070,
      "IST": 7071,
      "▁miesiącach": 7072,
      "nięciu": 7073,
      "▁magi": 7074,
      "▁wyników": 7075,
      "▁Europejskiego": 7076,
      "▁sprawi": 7077,
      "▁najbliższych": 7078,
      "tes": 7079,
      "mieniem": 7080,
      "▁polityków": 7081,
      "eli": 7082,
      "karz": 7083,
      "▁łatwiej": 7084,
      "▁uznał": 7085,
      "arki": 7086,
      "▁czytel": 7087,
      "niesienie": 7088,
      "▁zmę": 7089,
      "▁nieszczę": 7090,
      "sport": 7091,
      "▁śledz": 7092,
      "▁nikogo": 7093,
      "▁wzmoc": 7094,
      "▁skończy": 7095,
      "▁Szu": 7096,
      "▁gen": 7097,
      "▁samorząd": 7098,
      "ciorys": 7099,
      "▁wieczorem": 7100,
      "▁podwój": 7101,
      "▁pary": 7102,
      "▁przetr": 7103,
      "▁dostępu": 7104,
      "▁Odpowie": 7105,
      "▁chmu": 7106,
      "pas": 7107,
      "▁uzyskać": 7108,
      "tyku": 7109,
      "▁zasi": 7110,
      "▁zachowanie": 7111,
      "▁przysługuje": 7112,
      "▁tera": 7113,
      "ownik": 7114,
      "▁pewnego": 7115,
      "bić": 7116,
      "▁Anglii": 7117,
      "▁programów": 7118,
      "słem": 7119,
      "▁oprogram": 7120,
      "▁dek": 7121,
      "▁dostarcza": 7122,
      "▁najwięcej": 7123,
      "▁oszu": 7124,
      "▁Ekonomi": 7125,
      "▁Parla": 7126,
      "▁negocja": 7127,
      "▁brzmienie": 7128,
      "▁programie": 7129,
      "▁wysokie": 7130,
      "ames": 7131,
      "▁dwudzie": 7132,
      "owskim": 7133,
      "▁szep": 7134,
      "▁Zi": 7135,
      "▁emisji": 7136,
      "conych": 7137,
      "▁utru": 7138,
      "▁leżą": 7139,
      "▁Pierwsze": 7140,
      "DZ": 7141,
      "żby": 7142,
      "AC": 7143,
      "dowi": 7144,
      "Hz": 7145,
      "▁ilu": 7146,
      "cką": 7147,
      "▁nazwisko": 7148,
      "▁głównych": 7149,
      "▁liczy": 7150,
      "żni": 7151,
      "▁funda": 7152,
      "▁człowiekiem": 7153,
      "▁transport": 7154,
      "▁połowy": 7155,
      "▁Mężczy": 7156,
      "▁źródło": 7157,
      "▁nadzor": 7158,
      "▁wrócił": 7159,
      "kreś": 7160,
      "darz": 7161,
      "▁wybór": 7162,
      "logie": 7163,
      "▁zakaz": 7164,
      "owaliśmy": 7165,
      "▁Katowi": 7166,
      "▁właściwego": 7167,
      "▁rzadko": 7168,
      "▁Sądu": 7169,
      "▁Tusk": 7170,
      "▁Naz": 7171,
      "▁zdecydowa": 7172,
      "▁ścież": 7173,
      "▁Małgorz": 7174,
      "▁Wielka": 7175,
      "▁drużyny": 7176,
      "▁przeszko": 7177,
      "▁minist": 7178,
      "rop": 7179,
      "▁Afry": 7180,
      "▁statysty": 7181,
      "▁trybu": 7182,
      "▁Katarzyna": 7183,
      "▁netto": 7184,
      "▁Maciej": 7185,
      "▁Cię": 7186,
      "▁tabli": 7187,
      "▁członkiem": 7188,
      "tyczną": 7189,
      "▁mun": 7190,
      "▁Franci": 7191,
      "▁posła": 7192,
      "▁żyć": 7193,
      "leci": 7194,
      "▁legen": 7195,
      "▁zapewnić": 7196,
      "mił": 7197,
      "budowy": 7198,
      "▁spojrzał": 7199,
      "Ga": 7200,
      "▁Właśnie": 7201,
      "▁ZS": 7202,
      "▁Współ": 7203,
      "▁sied": 7204,
      "▁lekarz": 7205,
      "▁sektora": 7206,
      "lam": 7207,
      "▁Super": 7208,
      "pływ": 7209,
      "▁Zwy": 7210,
      "ker": 7211,
      "▁tekstu": 7212,
      "▁Galaxy": 7213,
      "▁wyżej": 7214,
      "▁dystrybu": 7215,
      "skać": 7216,
      "▁fabry": 7217,
      "▁chwy": 7218,
      "czących": 7219,
      "▁sędziów": 7220,
      "▁Premier": 7221,
      "▁produkt": 7222,
      "▁week": 7223,
      "lla": 7224,
      "▁wydanie": 7225,
      "▁Kraków": 7226,
      "▁sprzętu": 7227,
      "▁głosem": 7228,
      "derni": 7229,
      "osob": 7230,
      "▁Sła": 7231,
      "▁podał": 7232,
      "▁rodzina": 7233,
      "towego": 7234,
      "▁legi": 7235,
      "pać": 7236,
      "▁projektów": 7237,
      "▁postępowanie": 7238,
      "▁marcu": 7239,
      "▁turnieju": 7240,
      "▁Nowo": 7241,
      "▁przypadków": 7242,
      "▁żydow": 7243,
      "stia": 7244,
      "▁wrześ": 7245,
      "▁Przypom": 7246,
      "▁Pau": 7247,
      "▁styczniu": 7248,
      "▁banków": 7249,
      "▁wst": 7250,
      "▁Chry": 7251,
      "▁Włady": 7252,
      "▁rządzą": 7253,
      "▁Wspól": 7254,
      "▁ląd": 7255,
      "▁skompli": 7256,
      "▁wąt": 7257,
      "▁nasza": 7258,
      "▁uczestników": 7259,
      "▁dziesięć": 7260,
      "▁Rozporządzenie": 7261,
      "▁większej": 7262,
      "▁widzów": 7263,
      "▁nazwy": 7264,
      "szczeń": 7265,
      "AL": 7266,
      "ciar": 7267,
      "szała": 7268,
      "▁fanta": 7269,
      "dźmi": 7270,
      "dowały": 7271,
      "rei": 7272,
      "kcję": 7273,
      "▁Spół": 7274,
      "▁hipote": 7275,
      "▁rodzice": 7276,
      "▁zdanie": 7277,
      "▁eduka": 7278,
      "bytu": 7279,
      "prawdopodob": 7280,
      "czką": 7281,
      "żono": 7282,
      "▁tań": 7283,
      "▁Miejsc": 7284,
      "▁spytał": 7285,
      "▁Cu": 7286,
      "ist": 7287,
      "▁mąd": 7288,
      "wzię": 7289,
      "▁dokumenty": 7290,
      "▁oszczędności": 7291,
      "▁odszko": 7292,
      "▁Plus": 7293,
      "ther": 7294,
      "▁domi": 7295,
      "▁gwiazdy": 7296,
      "▁inżynie": 7297,
      "▁Były": 7298,
      "▁Bri": 7299,
      "▁potrzebne": 7300,
      "can": 7301,
      "▁PC": 7302,
      "▁istotne": 7303,
      "▁słabo": 7304,
      "▁pełne": 7305,
      "▁wielkich": 7306,
      "nionym": 7307,
      "niają": 7308,
      "▁wzrok": 7309,
      "▁granicą": 7310,
      "▁konieczne": 7311,
      "▁wydatki": 7312,
      "▁Gło": 7313,
      "▁ścią": 7314,
      "▁trybie": 7315,
      "▁Chcę": 7316,
      "▁wziął": 7317,
      "▁błąd": 7318,
      "działam": 7319,
      "Dzie": 7320,
      "fil": 7321,
      "▁dobrym": 7322,
      "▁danej": 7323,
      "▁wyroku": 7324,
      "xt": 7325,
      "grafii": 7326,
      "▁kraje": 7327,
      "Pa": 7328,
      "dowało": 7329,
      "▁zarabia": 7330,
      "▁koszu": 7331,
      "mierza": 7332,
      "▁kupu": 7333,
      "brew": 7334,
      "▁składek": 7335,
      "▁zastosowanie": 7336,
      "▁mąż": 7337,
      "▁Projekt": 7338,
      "usze": 7339,
      "▁Mikoła": 7340,
      "▁Życiorys": 7341,
      "▁Wiem": 7342,
      "▁Peter": 7343,
      "▁umowa": 7344,
      "dziemy": 7345,
      "▁odbywa": 7346,
      "▁Akademii": 7347,
      "▁Przykład": 7348,
      "▁strefy": 7349,
      "▁świetnie": 7350,
      "tyków": 7351,
      "▁egzeku": 7352,
      "▁rej": 7353,
      "▁sali": 7354,
      "▁wrześniu": 7355,
      "▁ziemię": 7356,
      "▁szpitala": 7357,
      "▁zbliża": 7358,
      "lać": 7359,
      "zując": 7360,
      "▁wydał": 7361,
      "▁maju": 7362,
      "▁nomina": 7363,
      "▁przewidy": 7364,
      "▁byłby": 7365,
      "▁paliw": 7366,
      "strzega": 7367,
      "▁broń": 7368,
      "▁momentu": 7369,
      "▁komunikacji": 7370,
      "▁geo": 7371,
      "▁niezależnie": 7372,
      "ematy": 7373,
      "▁informację": 7374,
      "▁ża": 7375,
      "▁przeprowadza": 7376,
      "▁wydarzeń": 7377,
      "▁men": 7378,
      "▁jakość": 7379,
      "▁zdjęcie": 7380,
      "ated": 7381,
      "▁zwrócić": 7382,
      "▁Dwa": 7383,
      "▁rośnie": 7384,
      "▁grun": 7385,
      "niania": 7386,
      "▁właściciel": 7387,
      "▁poczucie": 7388,
      "▁swą": 7389,
      "OT": 7390,
      "▁postanowił": 7391,
      "▁serwis": 7392,
      "▁Morawie": 7393,
      "▁innowa": 7394,
      "kien": 7395,
      "sje": 7396,
      "wny": 7397,
      "prawdzie": 7398,
      "▁bym": 7399,
      "▁itp": 7400,
      "wic": 7401,
      "▁wystawi": 7402,
      "▁mle": 7403,
      "▁męża": 7404,
      "OL": 7405,
      "▁zwrotu": 7406,
      "▁kryzysu": 7407,
      "▁Zawsze": 7408,
      "▁konkurencji": 7409,
      "cieka": 7410,
      "▁zaata": 7411,
      "tność": 7412,
      "▁Barce": 7413,
      "▁podatek": 7414,
      "▁przeję": 7415,
      "sponden": 7416,
      "▁radio": 7417,
      "jscy": 7418,
      "▁zasadni": 7419,
      "▁Banku": 7420,
      "▁Polsat": 7421,
      "▁ręki": 7422,
      "▁polityka": 7423,
      "▁widok": 7424,
      "▁iść": 7425,
      "▁Informacje": 7426,
      "▁porozumienia": 7427,
      "▁walce": 7428,
      "▁kompeten": 7429,
      "▁opan": 7430,
      "▁Urzędu": 7431,
      "▁AM": 7432,
      "▁nerw": 7433,
      "▁hrab": 7434,
      "▁dawno": 7435,
      "▁zatwier": 7436,
      "bienia": 7437,
      "nili": 7438,
      "fon": 7439,
      "▁używa": 7440,
      "▁trudne": 7441,
      "▁bezpieczeństwo": 7442,
      "noś": 7443,
      "▁Air": 7444,
      "nież": 7445,
      "siębior": 7446,
      "▁czele": 7447,
      "▁lista": 7448,
      "sse": 7449,
      "▁opóź": 7450,
      "▁uko": 7451,
      "tyfika": 7452,
      "▁jakoś": 7453,
      "▁Igrzy": 7454,
      "tch": 7455,
      "▁zadanie": 7456,
      "▁dziewczyna": 7457,
      "▁sprzed": 7458,
      "▁wpisa": 7459,
      "prasza": 7460,
      "▁następujące": 7461,
      "▁sprzęt": 7462,
      "▁Firma": 7463,
      "▁producenta": 7464,
      "▁firmie": 7465,
      "▁lepsze": 7466,
      "bert": 7467,
      "wczy": 7468,
      "▁plany": 7469,
      "mac": 7470,
      "▁zasadach": 7471,
      "▁główny": 7472,
      "▁Brazy": 7473,
      "tz": 7474,
      "kazało": 7475,
      "▁grudniu": 7476,
      "mira": 7477,
      "▁alterna": 7478,
      "▁pen": 7479,
      "▁kredytu": 7480,
      "▁przyczyn": 7481,
      "▁mody": 7482,
      "▁Bogu": 7483,
      "▁modli": 7484,
      "sbur": 7485,
      "▁tale": 7486,
      "▁inspek": 7487,
      "niego": 7488,
      "▁mru": 7489,
      "imna": 7490,
      "▁piłkarz": 7491,
      "▁pracownicy": 7492,
      "▁tamtej": 7493,
      "▁wersja": 7494,
      "knęła": 7495,
      "▁soli": 7496,
      "▁propo": 7497,
      "▁szereg": 7498,
      "kseli": 7499,
      "zycji": 7500,
      "▁kwart": 7501,
      "▁trafia": 7502,
      "ES": 7503,
      "ure": 7504,
      "lonego": 7505,
      "▁wycofa": 7506,
      "▁sześciu": 7507,
      "▁powodów": 7508,
      "▁zwol": 7509,
      "\":": 7510,
      "▁czerwcu": 7511,
      "dzwo": 7512,
      "▁stosować": 7513,
      "pki": 7514,
      "▁skutek": 7515,
      "sten": 7516,
      "▁zrozumieć": 7517,
      "▁znane": 7518,
      "▁Wystar": 7519,
      "▁zarządzania": 7520,
      "rzona": 7521,
      "▁zamiesz": 7522,
      "▁przepisami": 7523,
      "▁Ira": 7524,
      "▁Stanów": 7525,
      "pania": 7526,
      "▁ręka": 7527,
      "▁trzydzie": 7528,
      "▁zdolności": 7529,
      "▁obliga": 7530,
      "kur": 7531,
      "▁Część": 7532,
      "▁ranki": 7533,
      "▁wszedł": 7534,
      "▁chor": 7535,
      "kowska": 7536,
      "▁uczniów": 7537,
      "▁mając": 7538,
      "▁dum": 7539,
      "▁Dodatkowo": 7540,
      "cena": 7541,
      "▁Ve": 7542,
      "patry": 7543,
      "dziesię": 7544,
      "▁podmiotów": 7545,
      "▁Min": 7546,
      "▁Cel": 7547,
      "▁tożsa": 7548,
      "▁standard": 7549,
      "▁zdu": 7550,
      "woju": 7551,
      "▁pandemii": 7552,
      "▁Życie": 7553,
      "▁działać": 7554,
      "▁dost": 7555,
      "▁koście": 7556,
      "loka": 7557,
      "▁PG": 7558,
      "▁wojna": 7559,
      "▁politycznej": 7560,
      "ATO": 7561,
      "rok": 7562,
      "▁powieści": 7563,
      "▁odmówi": 7564,
      "bija": 7565,
      "▁Powo": 7566,
      "▁miarę": 7567,
      "▁zwrócił": 7568,
      "liam": 7569,
      "▁ratu": 7570,
      "jusz": 7571,
      "kurat": 7572,
      "Mo": 7573,
      "▁tj": 7574,
      "▁zabrak": 7575,
      "▁wypowiedzi": 7576,
      "▁obrazu": 7577,
      "▁wysyła": 7578,
      "▁ekspery": 7579,
      "▁Er": 7580,
      "▁sekund": 7581,
      "▁Nagro": 7582,
      "▁pała": 7583,
      "▁łago": 7584,
      "▁dłoń": 7585,
      "▁Bal": 7586,
      "▁stopy": 7587,
      "▁przechowy": 7588,
      "▁znalazła": 7589,
      "▁odległości": 7590,
      "▁jakąś": 7591,
      "pał": 7592,
      "wiado": 7593,
      "OP": 7594,
      "▁gła": 7595,
      "▁sensu": 7596,
      "żonej": 7597,
      "niać": 7598,
      "▁zaczęły": 7599,
      "▁trwał": 7600,
      "▁podatkowych": 7601,
      "▁Zre": 7602,
      "▁załat": 7603,
      "lotek": 7604,
      "▁przedsięwzię": 7605,
      "ts": 7606,
      "▁Źródło": 7607,
      "▁zwolen": 7608,
      "▁osobą": 7609,
      "▁En": 7610,
      "▁hiszpa": 7611,
      "▁sąsie": 7612,
      "▁wiatr": 7613,
      "▁szukać": 7614,
      "▁spek": 7615,
      "AK": 7616,
      "▁defini": 7617,
      "▁sens": 7618,
      "▁bliżej": 7619,
      "▁odpowiednie": 7620,
      "ZY": 7621,
      "▁wrócić": 7622,
      "stępuje": 7623,
      "▁drzwia": 7624,
      "▁drzew": 7625,
      "▁ludźmi": 7626,
      "▁nagrody": 7627,
      "▁zasił": 7628,
      "▁przewidzia": 7629,
      "▁gabi": 7630,
      "van": 7631,
      "▁ubo": 7632,
      "▁produktu": 7633,
      "▁zakres": 7634,
      "typ": 7635,
      "▁dziennikarz": 7636,
      "▁rynk": 7637,
      "▁wyrzu": 7638,
      "▁rację": 7639,
      "▁MS": 7640,
      "▁zabój": 7641,
      "▁odnale": 7642,
      "szam": 7643,
      "▁dokumentu": 7644,
      "▁Sejm": 7645,
      "rost": 7646,
      "zmem": 7647,
      "gne": 7648,
      "▁zapisa": 7649,
      "▁Łodzi": 7650,
      "▁Obywatel": 7651,
      "▁Samsung": 7652,
      "▁niemożli": 7653,
      "▁pojazdu": 7654,
      "▁von": 7655,
      "▁wyraża": 7656,
      "szędzie": 7657,
      "▁największe": 7658,
      "▁wielkiego": 7659,
      "▁wszech": 7660,
      "▁liczne": 7661,
      "▁vi": 7662,
      "▁ZSRR": 7663,
      "▁niepew": 7664,
      "manie": 7665,
      "▁funduszy": 7666,
      "▁Gwia": 7667,
      "tację": 7668,
      "▁aka": 7669,
      "▁Em": 7670,
      "▁tygodnie": 7671,
      "▁średniej": 7672,
      "mul": 7673,
      "▁kurs": 7674,
      "rzyli": 7675,
      "wiązy": 7676,
      "pel": 7677,
      "dzki": 7678,
      "▁Zmiany": 7679,
      "unek": 7680,
      "▁kła": 7681,
      "Ko": 7682,
      "▁reż": 7683,
      "▁Najlep": 7684,
      "▁rodzinie": 7685,
      "▁wychodzi": 7686,
      "żonym": 7687,
      "▁opozycji": 7688,
      "atorów": 7689,
      "▁olbrzy": 7690,
      "▁Bre": 7691,
      "▁ran": 7692,
      "▁powinniśmy": 7693,
      "tania": 7694,
      "Ka": 7695,
      "▁Zo": 7696,
      "▁boj": 7697,
      "▁inwestycje": 7698,
      "▁okrą": 7699,
      "▁rezerw": 7700,
      "gip": 7701,
      "bela": 7702,
      "▁kredytów": 7703,
      "▁Rozdział": 7704,
      "▁najlepsze": 7705,
      "tyma": 7706,
      "▁ogromne": 7707,
      "▁inną": 7708,
      "mą": 7709,
      "GB": 7710,
      "▁statku": 7711,
      "EL": 7712,
      "▁zama": 7713,
      "▁Ustawa": 7714,
      "▁potrzebuje": 7715,
      "▁FC": 7716,
      "PL": 7717,
      "▁idą": 7718,
      "▁dyrektora": 7719,
      "▁Czerwo": 7720,
      "▁pacjentów": 7721,
      "▁podstawy": 7722,
      "nięta": 7723,
      "▁Pracy": 7724,
      "kul": 7725,
      "▁zysk": 7726,
      "▁ostatniego": 7727,
      "▁ulu": 7728,
      "ZENIE": 7729,
      "▁spośród": 7730,
      "▁Problem": 7731,
      "metry": 7732,
      "▁Narodowego": 7733,
      "▁terminu": 7734,
      "▁aktuali": 7735,
      "▁Pom": 7736,
      "▁faktycznie": 7737,
      "▁Pawła": 7738,
      "żon": 7739,
      "▁wir": 7740,
      "▁Ant": 7741,
      "▁jednoli": 7742,
      "▁wyje": 7743,
      "▁Łą": 7744,
      "▁królew": 7745,
      "▁brąz": 7746,
      "▁odzna": 7747,
      "▁Che": 7748,
      "▁kg": 7749,
      "▁ogni": 7750,
      "komunika": 7751,
      "▁Chociaż": 7752,
      "▁lider": 7753,
      "▁Michael": 7754,
      "sarz": 7755,
      "mocy": 7756,
      "BP": 7757,
      "▁biegu": 7758,
      "▁com": 7759,
      "▁pojawiła": 7760,
      "wieniu": 7761,
      "▁badaw": 7762,
      "▁swoimi": 7763,
      "▁godzinę": 7764,
      "sady": 7765,
      "▁tyłu": 7766,
      "▁domów": 7767,
      "▁mary": 7768,
      "▁Zdrowia": 7769,
      "▁klę": 7770,
      "▁amba": 7771,
      "orie": 7772,
      "▁drewnia": 7773,
      "▁Gol": 7774,
      "▁praktycznie": 7775,
      "▁Klu": 7776,
      "▁Finansów": 7777,
      "ciwie": 7778,
      "lis": 7779,
      "▁Macie": 7780,
      "▁dodatku": 7781,
      "alnego": 7782,
      "▁kwalifika": 7783,
      "▁leży": 7784,
      "▁Nowym": 7785,
      "▁głównego": 7786,
      "▁kilkanaście": 7787,
      "▁Białorusi": 7788,
      "▁zbo": 7789,
      "▁wskazy": 7790,
      "▁rent": 7791,
      "▁mnó": 7792,
      "▁Radzie": 7793,
      "żbie": 7794,
      "▁Człowie": 7795,
      "▁grę": 7796,
      "wyczaj": 7797,
      "▁dźwięk": 7798,
      "żegna": 7799,
      "pora": 7800,
      "▁członek": 7801,
      "łowi": 7802,
      "▁żony": 7803,
      "▁miesiącu": 7804,
      "lanie": 7805,
      "▁cicho": 7806,
      "▁powięk": 7807,
      "▁Fin": 7808,
      "▁straż": 7809,
      "▁najszyb": 7810,
      "▁wokali": 7811,
      "▁maj": 7812,
      "▁przyje": 7813,
      "▁ówczes": 7814,
      "▁przew": 7815,
      "atunek": 7816,
      "UR": 7817,
      "▁rol": 7818,
      "▁miesza": 7819,
      "▁podsum": 7820,
      "▁przepisach": 7821,
      "▁odnoś": 7822,
      "▁mono": 7823,
      "▁opłaca": 7824,
      "▁tury": 7825,
      "▁Festi": 7826,
      "▁głosu": 7827,
      "▁powrót": 7828,
      "▁przedsta": 7829,
      "▁album": 7830,
      "▁organów": 7831,
      "▁Powi": 7832,
      "▁Poja": 7833,
      "▁skrę": 7834,
      "▁przyci": 7835,
      "▁Narodowej": 7836,
      "wam": 7837,
      "▁systemów": 7838,
      "▁osiągnąć": 7839,
      "zą": 7840,
      "▁przedsiębiorstw": 7841,
      "▁kilometrów": 7842,
      "ÓW": 7843,
      "▁ojczy": 7844,
      "▁rodzin": 7845,
      "rowie": 7846,
      "▁Paw": 7847,
      "▁Danie": 7848,
      "▁kandydatów": 7849,
      "▁Trzy": 7850,
      "chach": 7851,
      "vel": 7852,
      "▁obrotu": 7853,
      "deracji": 7854,
      "grafia": 7855,
      "jak": 7856,
      "ury": 7857,
      "▁NATO": 7858,
      "▁referen": 7859,
      "lację": 7860,
      "Ja": 7861,
      "▁strategi": 7862,
      "▁ben": 7863,
      "▁Józef": 7864,
      "▁jakimś": 7865,
      "▁odbiera": 7866,
      "▁trudności": 7867,
      "▁morder": 7868,
      "▁ow": 7869,
      "▁japo": 7870,
      "alnym": 7871,
      "▁firmę": 7872,
      "▁ulega": 7873,
      "▁widzę": 7874,
      "▁Później": 7875,
      "▁maszyn": 7876,
      "cono": 7877,
      "▁spodziewać": 7878,
      "▁brzu": 7879,
      "kan": 7880,
      "▁zapłacić": 7881,
      "▁wład": 7882,
      "▁wczes": 7883,
      "▁czasami": 7884,
      "▁reprezent": 7885,
      "▁profesjona": 7886,
      "▁przeszedł": 7887,
      "zowie": 7888,
      "środ": 7889,
      "Ar": 7890,
      "▁stanowisku": 7891,
      "▁duża": 7892,
      "nocy": 7893,
      "▁rozdziel": 7894,
      "▁okazuje": 7895,
      "▁dobrej": 7896,
      "▁imieniu": 7897,
      "misję": 7898,
      "▁Komu": 7899,
      "▁Lecz": 7900,
      "▁każdą": 7901,
      "wei": 7902,
      "▁eki": 7903,
      "czość": 7904,
      "niejszą": 7905,
      "▁zarząd": 7906,
      "mara": 7907,
      "owal": 7908,
      "▁kuchni": 7909,
      "▁skutki": 7910,
      "▁śmi": 7911,
      "▁Twitterze": 7912,
      "▁analizy": 7913,
      "łała": 7914,
      "Prze": 7915,
      "▁wiadomość": 7916,
      "▁danym": 7917,
      "▁słone": 7918,
      "fera": 7919,
      "tłuma": 7920,
      "rował": 7921,
      "▁chętnie": 7922,
      "▁wor": 7923,
      "▁zegar": 7924,
      "▁Ani": 7925,
      "▁budowa": 7926,
      "liwie": 7927,
      "▁plu": 7928,
      "tech": 7929,
      "▁szczegó": 7930,
      "▁integra": 7931,
      "sla": 7932,
      "atecznie": 7933,
      "▁Znaj": 7934,
      "owem": 7935,
      "▁odbędzie": 7936,
      "▁Eksp": 7937,
      "▁spotkaniu": 7938,
      "▁pakie": 7939,
      "▁zgła": 7940,
      "▁banki": 7941,
      "▁wyjątkowo": 7942,
      "▁okna": 7943,
      "▁dodatkowych": 7944,
      "▁Grzegorz": 7945,
      "▁podzieli": 7946,
      "▁odniesieniu": 7947,
      "alna": 7948,
      "▁końc": 7949,
      "▁Jack": 7950,
      "▁MIN": 7951,
      "▁Instytutu": 7952,
      "▁Kos": 7953,
      "▁jezio": 7954,
      "▁mal": 7955,
      "▁Mona": 7956,
      "▁przewiduje": 7957,
      "▁majątku": 7958,
      "ĄD": 7959,
      "▁zarazem": 7960,
      "▁Kobieta": 7961,
      "ney": 7962,
      "▁powtarza": 7963,
      "AD": 7964,
      "▁rozumieniu": 7965,
      "▁internetowej": 7966,
      "wiu": 7967,
      "▁skry": 7968,
      "▁Jednym": 7969,
      "▁funkcje": 7970,
      "▁der": 7971,
      "▁boga": 7972,
      "szczeniu": 7973,
      "rowo": 7974,
      "▁akcep": 7975,
      "kres": 7976,
      "siadł": 7977,
      "▁związany": 7978,
      "OM": 7979,
      "▁wpływu": 7980,
      "▁najważniejszych": 7981,
      "▁kupi": 7982,
      "▁rąk": 7983,
      "Tu": 7984,
      "▁planuje": 7985,
      "▁oferuje": 7986,
      "▁Jen": 7987,
      "blo": 7988,
      "▁funduszu": 7989,
      "▁ekran": 7990,
      "▁Tho": 7991,
      "▁dokument": 7992,
      "▁roman": 7993,
      "▁narze": 7994,
      "rol": 7995,
      "▁poważnie": 7996,
      "żyły": 7997,
      "▁Die": 7998,
      "▁dochodów": 7999,
      "▁marszał": 8000,
      "fak": 8001,
      "▁gwiaz": 8002,
      "▁Andrzeja": 8003,
      "▁przetar": 8004,
      "cham": 8005,
      "▁Order": 8006,
      "kara": 8007,
      "▁zdania": 8008,
      "▁poznać": 8009,
      "biegu": 8010,
      "snął": 8011,
      "▁bater": 8012,
      "▁szar": 8013,
      "▁Muzeum": 8014,
      "▁ró": 8015,
      "▁cech": 8016,
      "▁Pana": 8017,
      "▁każde": 8018,
      "▁Chło": 8019,
      "▁Olimpij": 8020,
      "▁proste": 8021,
      "▁zapowiedział": 8022,
      "sora": 8023,
      "▁face": 8024,
      "▁dobrą": 8025,
      "▁żywności": 8026,
      "lue": 8027,
      "tos": 8028,
      "▁Rozwoju": 8029,
      "▁kwietniu": 8030,
      "▁Rich": 8031,
      "▁przebieg": 8032,
      "▁słab": 8033,
      "▁wyszedł": 8034,
      "larii": 8035,
      "▁George": 8036,
      "dowej": 8037,
      "▁własności": 8038,
      "▁polsko": 8039,
      "tałem": 8040,
      "▁kości": 8041,
      "▁ból": 8042,
      "▁swym": 8043,
      "▁lipcu": 8044,
      "AS": 8045,
      "▁potencj": 8046,
      "▁Norwe": 8047,
      "▁więzienia": 8048,
      "▁iPhone": 8049,
      "▁inspi": 8050,
      "iada": 8051,
      "▁Decy": 8052,
      "▁powstała": 8053,
      "▁profesor": 8054,
      "▁Ile": 8055,
      "▁najlepszy": 8056,
      "▁wyrok": 8057,
      "▁pojawiają": 8058,
      "▁połączenia": 8059,
      "▁konieczność": 8060,
      "▁warunkiem": 8061,
      "▁wyjścia": 8062,
      "▁kodek": 8063,
      "▁mg": 8064,
      "▁Poznaniu": 8065,
      "▁cieszy": 8066,
      "▁tysiące": 8067,
      "▁największym": 8068,
      "▁nadzoru": 8069,
      "▁ściany": 8070,
      "▁ambi": 8071,
      "▁wzru": 8072,
      "psu": 8073,
      "▁odmie": 8074,
      "▁brzmi": 8075,
      "▁Londynie": 8076,
      "tował": 8077,
      "!!": 8078,
      "cznika": 8079,
      "▁niemiecki": 8080,
      "▁kierowcy": 8081,
      "▁obser": 8082,
      "▁bierze": 8083,
      "▁pomimo": 8084,
      "zempla": 8085,
      "bię": 8086,
      "kiedy": 8087,
      "▁ścian": 8088,
      "▁Drugi": 8089,
      "▁Polską": 8090,
      "▁zapropon": 8091,
      "▁mandat": 8092,
      "▁ato": 8093,
      "▁kalen": 8094,
      "▁Polityka": 8095,
      "▁Chin": 8096,
      "▁autobu": 8097,
      "▁Program": 8098,
      "▁jedynym": 8099,
      "▁klimaty": 8100,
      "▁niezbędne": 8101,
      "dziłem": 8102,
      "▁wicemi": 8103,
      "▁ludziom": 8104,
      "ris": 8105,
      "▁Mateusz": 8106,
      "▁rzeki": 8107,
      "dago": 8108,
      "▁jeź": 8109,
      "▁większy": 8110,
      "▁Oznacza": 8111,
      "samowi": 8112,
      "▁rzeź": 8113,
      "niły": 8114,
      "▁obecność": 8115,
      "enty": 8116,
      "▁polityczne": 8117,
      "▁okazać": 8118,
      "▁portalu": 8119,
      "▁podstawowych": 8120,
      "▁wywia": 8121,
      "▁uło": 8122,
      "▁czekać": 8123,
      "▁pasaże": 8124,
      "długo": 8125,
      "▁inteligen": 8126,
      "▁zezna": 8127,
      "▁potrzeba": 8128,
      "▁wód": 8129,
      "▁filozofi": 8130,
      "▁towar": 8131,
      "▁wielkiej": 8132,
      "▁rozstrzyg": 8133,
      "▁rejo": 8134,
      "▁kosmi": 8135,
      "dzanie": 8136,
      "baty": 8137,
      "sprawie": 8138,
      "obój": 8139,
      "▁Inspek": 8140,
      "▁kapitału": 8141,
      "▁natury": 8142,
      "▁korzystania": 8143,
      "▁William": 8144,
      "▁listę": 8145,
      "▁cmenta": 8146,
      "mus": 8147,
      "kowskiego": 8148,
      "ust": 8149,
      "▁mieszkani": 8150,
      "▁etapie": 8151,
      "rej": 8152,
      "spa": 8153,
      "▁przodu": 8154,
      "▁świąty": 8155,
      "▁cia": 8156,
      "▁wymo": 8157,
      "ległość": 8158,
      "▁zdecydował": 8159,
      "▁tymczas": 8160,
      "órek": 8161,
      "▁przyszłym": 8162,
      "ud": 8163,
      "▁salo": 8164,
      "▁zarejestrowa": 8165,
      "▁podoba": 8166,
      "WE": 8167,
      "ćmi": 8168,
      "paty": 8169,
      "▁Red": 8170,
      "▁miliona": 8171,
      "▁postu": 8172,
      "sków": 8173,
      "bina": 8174,
      "pospolita": 8175,
      "▁koali": 8176,
      "owne": 8177,
      "▁kadencji": 8178,
      "ralnie": 8179,
      "▁oświadczył": 8180,
      "▁finan": 8181,
      "ląd": 8182,
      "▁przedstawicieli": 8183,
      "▁Internet": 8184,
      "▁Repre": 8185,
      "▁obiektów": 8186,
      "ceń": 8187,
      "▁kontrow": 8188,
      "▁egzempla": 8189,
      "▁życi": 8190,
      "▁VI": 8191,
      "▁demon": 8192,
      "▁radzie": 8193,
      "wość": 8194,
      "▁Bezpie": 8195,
      "▁zachować": 8196,
      "nności": 8197,
      "rzec": 8198,
      "▁wniosków": 8199,
      "▁występują": 8200,
      "kta": 8201,
      "▁Miasta": 8202,
      "▁własny": 8203,
      "▁zakupu": 8204,
      "▁płyty": 8205,
      "▁władzę": 8206,
      "▁zmarł": 8207,
      "▁cechy": 8208,
      "▁bibliote": 8209,
      "wek": 8210,
      "szono": 8211,
      "▁Czas": 8212,
      "▁uję": 8213,
      "Re": 8214,
      "▁powstanie": 8215,
      "źć": 8216,
      "▁Obo": 8217,
      "▁jasne": 8218,
      "szonych": 8219,
      "▁dwoma": 8220,
      "▁Sztu": 8221,
      "szne": 8222,
      "▁odpor": 8223,
      "▁przywo": 8224,
      "▁zatrudnia": 8225,
      "▁medal": 8226,
      "dka": 8227,
      "▁domy": 8228,
      "▁Hy": 8229,
      "padzie": 8230,
      "towania": 8231,
      "▁wpływem": 8232,
      "Pol": 8233,
      "▁zdarzenia": 8234,
      "▁znakomi": 8235,
      "▁kościoła": 8236,
      "szeniem": 8237,
      "▁lutym": 8238,
      "nan": 8239,
      "▁Chrystu": 8240,
      "▁materiału": 8241,
      "▁Świą": 8242,
      "▁wodę": 8243,
      "wagę": 8244,
      "▁str": 8245,
      "rus": 8246,
      "▁osobom": 8247,
      "▁znisz": 8248,
      "▁PL": 8249,
      "tany": 8250,
      "▁porów": 8251,
      "▁Dra": 8252,
      "▁Stowarzy": 8253,
      "fikowa": 8254,
      "▁bezpośre": 8255,
      "▁uznać": 8256,
      "▁oficjalnie": 8257,
      "don": 8258,
      "▁paliwa": 8259,
      "łość": 8260,
      "▁głośno": 8261,
      "▁Rosyj": 8262,
      "Mi": 8263,
      "prz": 8264,
      "▁żar": 8265,
      "▁przygotowania": 8266,
      "IK": 8267,
      "nięciem": 8268,
      "▁propa": 8269,
      "▁Skarb": 8270,
      "▁zarob": 8271,
      "▁wskazują": 8272,
      "▁Portu": 8273,
      "▁umiesz": 8274,
      "▁zdaje": 8275,
      "▁urlopu": 8276,
      "▁bazy": 8277,
      "▁Microsoft": 8278,
      "▁umysł": 8279,
      "▁Wojewódz": 8280,
      "▁stronach": 8281,
      "▁World": 8282,
      "▁październiku": 8283,
      "▁Właści": 8284,
      "nikowi": 8285,
      "nicznej": 8286,
      "▁próbował": 8287,
      "▁kontekście": 8288,
      "▁meta": 8289,
      "▁rejonie": 8290,
      "▁Europejska": 8291,
      "▁zwrot": 8292,
      "czała": 8293,
      "▁Król": 8294,
      "▁obowiązki": 8295,
      "nelu": 8296,
      "ralnym": 8297,
      "?!": 8298,
      "▁Przedsiębior": 8299,
      "▁akurat": 8300,
      "▁stawki": 8301,
      "▁Jakub": 8302,
      "▁archite": 8303,
      "żny": 8304,
      "Wi": 8305,
      "▁rzędu": 8306,
      "▁Bli": 8307,
      "▁zaczęli": 8308,
      "▁świadec": 8309,
      "▁krak": 8310,
      "nkowo": 8311,
      "▁proś": 8312,
      "lwen": 8313,
      "▁znak": 8314,
      "▁Puch": 8315,
      "▁Taki": 8316,
      "kość": 8317,
      "tualne": 8318,
      "▁walczyć": 8319,
      "▁łańcu": 8320,
      "nując": 8321,
      "stami": 8322,
      "▁oddzie": 8323,
      "sce": 8324,
      "▁Zd": 8325,
      "▁kolejnym": 8326,
      "▁problemem": 8327,
      "▁sieć": 8328,
      "▁wdro": 8329,
      "▁Eu": 8330,
      "▁Agencji": 8331,
      "▁Rober": 8332,
      "▁inwestorów": 8333,
      "▁producentów": 8334,
      "▁szkolenia": 8335,
      "chodzić": 8336,
      "▁wzrosła": 8337,
      "wanego": 8338,
      "▁Krajowej": 8339,
      "▁dobrego": 8340,
      "▁majątk": 8341,
      "▁należności": 8342,
      "lizację": 8343,
      "▁precy": 8344,
      "uri": 8345,
      "▁Kami": 8346,
      "▁najpo": 8347,
      "▁niem": 8348,
      "towany": 8349,
      "▁agencji": 8350,
      "▁Paryżu": 8351,
      "wanej": 8352,
      "▁ofice": 8353,
      "▁materiały": 8354,
      "dgo": 8355,
      "▁wiek": 8356,
      "▁zalicza": 8357,
      "fan": 8358,
      "▁szanse": 8359,
      "▁zrezygn": 8360,
      "kin": 8361,
      "▁biura": 8362,
      "uth": 8363,
      "illa": 8364,
      "▁księży": 8365,
      "▁aku": 8366,
      "▁dba": 8367,
      "▁obowiąza": 8368,
      "▁inna": 8369,
      "▁przedstawiciele": 8370,
      "▁Jaki": 8371,
      "▁Kier": 8372,
      "So": 8373,
      "▁opodatkowania": 8374,
      "▁odpo": 8375,
      "niło": 8376,
      "lnymi": 8377,
      "▁listopadzie": 8378,
      "▁wielokrotnie": 8379,
      "▁znajdziesz": 8380,
      "▁skró": 8381,
      "▁Dziennik": 8382,
      "▁Donald": 8383,
      "▁pokazać": 8384,
      "▁Ewa": 8385,
      "▁prawnej": 8386,
      "każe": 8387,
      "▁podzi": 8388,
      "▁specjalne": 8389,
      "chen": 8390,
      "▁zacząć": 8391,
      "alną": 8392,
      "▁egza": 8393,
      "--------": 8394,
      "▁tworzenia": 8395,
      "▁leczenia": 8396,
      "cjonu": 8397,
      "▁wygrał": 8398,
      "▁zapad": 8399,
      "▁dostał": 8400,
      "szar": 8401,
      "▁przetwarza": 8402,
      "▁rozporzą": 8403,
      "bera": 8404,
      "▁Max": 8405,
      "▁zdarza": 8406,
      "▁tegoro": 8407,
      "▁przywi": 8408,
      "▁świadomość": 8409,
      "niosły": 8410,
      "▁Dow": 8411,
      "▁posił": 8412,
      "▁saty": 8413,
      "▁Domi": 8414,
      "▁City": 8415,
      "▁prowincji": 8416,
      "▁osiągnięcia": 8417,
      "sada": 8418,
      "raźniej": 8419,
      "Le": 8420,
      "▁tka": 8421,
      "▁macierzy": 8422,
      "▁Licz": 8423,
      "▁ks": 8424,
      "▁większa": 8425,
      "▁wprowadzenia": 8426,
      "▁obejmu": 8427,
      "chali": 8428,
      "▁wymienia": 8429,
      "fel": 8430,
      "▁wysu": 8431,
      "cs": 8432,
      "▁sędzia": 8433,
      "▁przemyś": 8434,
      "demia": 8435,
      "▁rozryw": 8436,
      "dge": 8437,
      "▁pocze": 8438,
      "▁wytwór": 8439,
      "rzyst": 8440,
      "▁nauczyciel": 8441,
      "▁Cla": 8442,
      "▁you": 8443,
      "▁fal": 8444,
      "▁kariery": 8445,
      "żać": 8446,
      "▁Agnieszka": 8447,
      "fini": 8448,
      "▁doświadczenie": 8449,
      "▁Pierwsza": 8450,
      "leb": 8451,
      "▁zwycięstwo": 8452,
      "▁Ministerstwa": 8453,
      "▁Wska": 8454,
      "▁świadomości": 8455,
      "GO": 8456,
      "czce": 8457,
      "▁łączy": 8458,
      "▁Szwajcar": 8459,
      "czyków": 8460,
      "▁uchodź": 8461,
      "▁siłę": 8462,
      "▁przesy": 8463,
      "jsko": 8464,
      "▁nazwiska": 8465,
      "▁narko": 8466,
      "▁wpływa": 8467,
      "▁pokazy": 8468,
      "▁Kam": 8469,
      "▁najgor": 8470,
      "▁pilo": 8471,
      "MS": 8472,
      "▁wypłaca": 8473,
      "▁domaga": 8474,
      "▁poinformowała": 8475,
      "▁Nagle": 8476,
      "tari": 8477,
      "▁ocenie": 8478,
      "▁Cóż": 8479,
      "▁mnóstwo": 8480,
      "▁edycji": 8481,
      "▁trwały": 8482,
      "▁gatunków": 8483,
      "▁Taka": 8484,
      "▁dora": 8485,
      "▁zje": 8486,
      "▁Straży": 8487,
      "▁założy": 8488,
      "▁fanów": 8489,
      "▁graczy": 8490,
      "mera": 8491,
      "▁Techno": 8492,
      "▁seg": 8493,
      "▁organu": 8494,
      "styka": 8495,
      "świę": 8496,
      "▁robią": 8497,
      "▁wejść": 8498,
      "▁nadzwyczaj": 8499,
      "▁ti": 8500,
      "gat": 8501,
      "▁leczni": 8502,
      "▁raportu": 8503,
      "▁wście": 8504,
      "rzono": 8505,
      "lizm": 8506,
      "praszam": 8507,
      "stek": 8508,
      "torium": 8509,
      "▁niechę": 8510,
      "DF": 8511,
      "▁brata": 8512,
      "logu": 8513,
      "▁telefonu": 8514,
      "choty": 8515,
      "▁pomyślał": 8516,
      "ZĄD": 8517,
      "zj": 8518,
      "▁kontrakt": 8519,
      "iękuję": 8520,
      "bek": 8521,
      "▁Najpierw": 8522,
      "▁założenia": 8523,
      "▁zajęcia": 8524,
      "▁spadku": 8525,
      "warant": 8526,
      "▁uniknąć": 8527,
      "lio": 8528,
      "▁zacznie": 8529,
      "▁dorosły": 8530,
      "kły": 8531,
      "skop": 8532,
      "▁właściwości": 8533,
      "▁miastach": 8534,
      "▁inwesto": 8535,
      "▁Lw": 8536,
      "▁Vo": 8537,
      "▁symboli": 8538,
      "▁dłoni": 8539,
      "▁konsekwencji": 8540,
      "▁zaska": 8541,
      "▁składzie": 8542,
      "▁figu": 8543,
      "▁urządzenie": 8544,
      "▁redu": 8545,
      "▁Pracow": 8546,
      "▁Auto": 8547,
      "▁astro": 8548,
      "▁aktywności": 8549,
      "iach": 8550,
      "▁karierę": 8551,
      "▁konserw": 8552,
      "▁zamyka": 8553,
      "▁musisz": 8554,
      "▁kwota": 8555,
      "▁cenie": 8556,
      "bienie": 8557,
      "kl": 8558,
      "▁wodą": 8559,
      "dowane": 8560,
      "▁dostać": 8561,
      ".).": 8562,
      "▁złożenia": 8563,
      "tus": 8564,
      "ktura": 8565,
      "▁boku": 8566,
      "▁Dzień": 8567,
      "zar": 8568,
      "▁obecności": 8569,
      "▁Jesteśmy": 8570,
      "▁Muzy": 8571,
      "very": 8572,
      "▁Załą": 8573,
      "▁wypadek": 8574,
      "ściła": 8575,
      "yo": 8576,
      "▁rokiem": 8577,
      "▁wynagrodzenie": 8578,
      "leniem": 8579,
      "▁duchow": 8580,
      "▁odnośniku": 8581,
      "jami": 8582,
      "▁uzyskał": 8583,
      "▁efekcie": 8584,
      "▁Ona": 8585,
      "▁przegląd": 8586,
      "▁książek": 8587,
      "▁Regi": 8588,
      "▁ubiegł": 8589,
      "▁Kan": 8590,
      "▁zagrożenie": 8591,
      "▁Pen": 8592,
      "▁początkowo": 8593,
      "▁ponadto": 8594,
      "▁Augu": 8595,
      "▁stworzyć": 8596,
      "▁przychodzi": 8597,
      "▁spada": 8598,
      "Ne": 8599,
      "▁fałszy": 8600,
      "▁Albu": 8601,
      "żar": 8602,
      "▁Lea": 8603,
      "tniej": 8604,
      "▁stali": 8605,
      "▁poto": 8606,
      "▁Janusz": 8607,
      "▁wielka": 8608,
      "▁Univer": 8609,
      "▁zato": 8610,
      "▁kolum": 8611,
      "▁rozsąd": 8612,
      "▁Żad": 8613,
      "▁szczęścia": 8614,
      "▁Wygląda": 8615,
      "▁Prawa": 8616,
      "▁Oli": 8617,
      "wka": 8618,
      "▁raport": 8619,
      "▁szer": 8620,
      "▁rzucił": 8621,
      "▁szla": 8622,
      "loną": 8623,
      "▁Kaczyńskiego": 8624,
      "lion": 8625,
      "wąt": 8626,
      "gramie": 8627,
      "▁funkcjonowania": 8628,
      "▁Jorku": 8629,
      "▁ładu": 8630,
      "▁CD": 8631,
      "▁wyga": 8632,
      "▁społecznego": 8633,
      "malna": 8634,
      "▁Trybunału": 8635,
      "▁zarobi": 8636,
      "▁sprawdza": 8637,
      "▁Izby": 8638,
      "▁utworów": 8639,
      "▁składki": 8640,
      "▁dzieła": 8641,
      "▁sąsia": 8642,
      "mum": 8643,
      "▁rozważa": 8644,
      "gać": 8645,
      "▁red": 8646,
      "▁audy": 8647,
      "▁przyznaje": 8648,
      "▁klasyfikacji": 8649,
      "▁Doda": 8650,
      "▁czą": 8651,
      "▁sądów": 8652,
      "▁członkowie": 8653,
      "czak": 8654,
      "▁Wyda": 8655,
      "▁wydawało": 8656,
      "▁udzieli": 8657,
      "▁procesie": 8658,
      "▁edukacji": 8659,
      "▁Sek": 8660,
      "▁najp": 8661,
      "▁prowadził": 8662,
      "▁przygotowy": 8663,
      "▁prą": 8664,
      "▁transfer": 8665,
      "▁wymia": 8666,
      "▁przyznać": 8667,
      "▁Mac": 8668,
      "sne": 8669,
      "▁Wir": 8670,
      "trą": 8671,
      "▁Ver": 8672,
      "▁skutecznie": 8673,
      "▁srebr": 8674,
      "▁nabyw": 8675,
      "▁As": 8676,
      "▁sierpniu": 8677,
      "▁projekty": 8678,
      "▁zawodowych": 8679,
      "▁podmiotu": 8680,
      "kier": 8681,
      "▁nosi": 8682,
      "▁Duda": 8683,
      "koju": 8684,
      "▁przyjęcia": 8685,
      "rzyły": 8686,
      "▁specjalnie": 8687,
      "▁Przepisy": 8688,
      "▁Sły": 8689,
      "▁Wyniki": 8690,
      "▁element": 8691,
      "▁wewnętrznych": 8692,
      "▁podatkowego": 8693,
      "▁pamięta": 8694,
      "▁Twoje": 8695,
      "▁największy": 8696,
      "▁skan": 8697,
      "PR": 8698,
      "▁Albo": 8699,
      "▁uzbro": 8700,
      "▁inicjatywy": 8701,
      "▁szk": 8702,
      "▁Sal": 8703,
      "▁alkoholu": 8704,
      "▁Tekst": 8705,
      "▁małżon": 8706,
      "▁partne": 8707,
      "żoną": 8708,
      "▁ogół": 8709,
      "▁stracił": 8710,
      "kument": 8711,
      "▁myśleć": 8712,
      "▁labora": 8713,
      "▁Pet": 8714,
      "▁rezer": 8715,
      "▁cof": 8716,
      "ferze": 8717,
      "▁koszy": 8718,
      "▁zapis": 8719,
      "dol": 8720,
      "ming": 8721,
      "▁????": 8722,
      "▁wzor": 8723,
      "▁wery": 8724,
      "▁dozna": 8725,
      "▁Lubli": 8726,
      "▁fote": 8727,
      "ksa": 8728,
      "genty": 8729,
      "▁mniejsze": 8730,
      "▁jasno": 8731,
      "▁portal": 8732,
      "▁walkę": 8733,
      "▁zwło": 8734,
      "▁ustalenia": 8735,
      "tkę": 8736,
      "nosić": 8737,
      "▁plus": 8738,
      "▁kredyt": 8739,
      "val": 8740,
      "▁mieliśmy": 8741,
      "▁Rumu": 8742,
      "szeń": 8743,
      "▁myślenia": 8744,
      "▁odsło": 8745,
      "▁złożyć": 8746,
      "▁studi": 8747,
      "karze": 8748,
      "▁Lech": 8749,
      "▁Ochrony": 8750,
      "▁publiczne": 8751,
      "ED": 8752,
      "▁from": 8753,
      "▁zwolnienia": 8754,
      "▁Mieszka": 8755,
      "fen": 8756,
      "▁nieja": 8757,
      "rzach": 8758,
      "▁szó": 8759,
      "▁recep": 8760,
      "Li": 8761,
      "ciach": 8762,
      "rena": 8763,
      "▁Policja": 8764,
      "logicznej": 8765,
      "▁większych": 8766,
      "FA": 8767,
      "lizmu": 8768,
      "▁lega": 8769,
      "stre": 8770,
      "▁Mistrzów": 8771,
      "nikach": 8772,
      "▁limi": 8773,
      "niż": 8774,
      "▁przysta": 8775,
      "▁Dyre": 8776,
      "▁Włoch": 8777,
      "▁reszt": 8778,
      "▁narzędzia": 8779,
      "▁zabezpieczenia": 8780,
      "vie": 8781,
      "▁mięk": 8782,
      "▁Żydów": 8783,
      "mann": 8784,
      "sząc": 8785,
      "▁organy": 8786,
      "▁cudzo": 8787,
      "▁świetle": 8788,
      "▁wolność": 8789,
      "▁zasob": 8790,
      "▁potrafią": 8791,
      "▁pobytu": 8792,
      "▁połowę": 8793,
      "dziny": 8794,
      "▁politykę": 8795,
      "▁zauważa": 8796,
      "▁komunikacie": 8797,
      "▁nazwie": 8798,
      "▁zmienił": 8799,
      "▁niepra": 8800,
      "Do": 8801,
      "ben": 8802,
      "▁show": 8803,
      "▁wskazał": 8804,
      "▁Małgorzata": 8805,
      "wiając": 8806,
      "▁przyjął": 8807,
      "▁postępowaniu": 8808,
      "▁powietrz": 8809,
      "cier": 8810,
      "▁Cieka": 8811,
      "dzieścia": 8812,
      "bla": 8813,
      "▁byłaby": 8814,
      "▁zbrodni": 8815,
      "▁klat": 8816,
      "zz": 8817,
      "▁wydane": 8818,
      "▁drzewa": 8819,
      "▁wyku": 8820,
      "▁his": 8821,
      "▁przejść": 8822,
      "▁Zarzą": 8823,
      "łgar": 8824,
      "▁samorządu": 8825,
      "▁amerykańskich": 8826,
      "▁przedmiotem": 8827,
      "▁elektrow": 8828,
      "sma": 8829,
      "▁Niektórzy": 8830,
      "▁bezpłat": 8831,
      "ory": 8832,
      "▁Zresztą": 8833,
      "▁Szyb": 8834,
      "lerii": 8835,
      "▁dodała": 8836,
      "▁Reprezen": 8837,
      "▁pochy": 8838,
      "▁cyklu": 8839,
      "tional": 8840,
      "▁Mój": 8841,
      "▁departa": 8842,
      "▁dyrekty": 8843,
      "▁jednozna": 8844,
      "▁zakładu": 8845,
      "▁sonda": 8846,
      "dzisz": 8847,
      "▁licen": 8848,
      "cjom": 8849,
      "▁węd": 8850,
      "szałem": 8851,
      "▁Niektóre": 8852,
      "▁zapobiega": 8853,
      "cti": 8854,
      "▁ślu": 8855,
      "▁politycy": 8856,
      "▁News": 8857,
      "koło": 8858,
      "▁Plotek": 8859,
      "stąpił": 8860,
      "▁podobnych": 8861,
      "▁Prowa": 8862,
      "arka": 8863,
      "ture": 8864,
      "YCH": 8865,
      "toli": 8866,
      "▁przekonać": 8867,
      "▁uczelni": 8868,
      "▁Jose": 8869,
      "owiadać": 8870,
      "▁wdzię": 8871,
      "era": 8872,
      "▁Pozost": 8873,
      "▁owa": 8874,
      "▁rejest": 8875,
      "uld": 8876,
      "▁myślę": 8877,
      "▁Wielu": 8878,
      "nianie": 8879,
      "▁podatnika": 8880,
      "▁zaznaczył": 8881,
      "▁Kre": 8882,
      "▁cóż": 8883,
      "KA": 8884,
      "▁doprowadzić": 8885,
      "▁nastro": 8886,
      "▁Vol": 8887,
      "sing": 8888,
      "▁bal": 8889,
      "▁Kim": 8890,
      "▁komentu": 8891,
      "▁Joanna": 8892,
      "▁oczekiwania": 8893,
      "▁Ciebie": 8894,
      "Ni": 8895,
      "▁Hua": 8896,
      "▁południowo": 8897,
      "▁oświet": 8898,
      "▁koment": 8899,
      "▁ubezpieczeń": 8900,
      "▁wszelkich": 8901,
      "▁Azji": 8902,
      "▁Gaz": 8903,
      "▁Ama": 8904,
      "atorzy": 8905,
      "▁ustawą": 8906,
      "▁niebo": 8907,
      "▁spokój": 8908,
      "▁ubiegłego": 8909,
      "▁uniemożli": 8910,
      "con": 8911,
      "▁dokonać": 8912,
      "▁strategii": 8913,
      "▁Mich": 8914,
      "▁zadebiut": 8915,
      "▁MINIST": 8916,
      "▁finansowania": 8917,
      "▁niektórzy": 8918,
      "▁dróg": 8919,
      "chami": 8920,
      "▁parlamentar": 8921,
      "▁Króle": 8922,
      "żeni": 8923,
      "▁południu": 8924,
      "chodnim": 8925,
      "▁pog": 8926,
      "▁zachęca": 8927,
      "▁specyfi": 8928,
      "▁dopóki": 8929,
      "tóż": 8930,
      "▁publicy": 8931,
      "lnictwa": 8932,
      "▁prawne": 8933,
      "wat": 8934,
      "▁perspektywy": 8935,
      "▁SN": 8936,
      "miary": 8937,
      "bl": 8938,
      "▁wszędzie": 8939,
      "▁promocji": 8940,
      "syć": 8941,
      "▁dziewczyny": 8942,
      "▁Portuga": 8943,
      "ńczycy": 8944,
      "▁tobą": 8945,
      "loty": 8946,
      "▁informaty": 8947,
      "▁ostro": 8948,
      "▁matematy": 8949,
      "szedłem": 8950,
      "▁Ameryki": 8951,
      "▁umiera": 8952,
      "lektu": 8953,
      "In": 8954,
      "▁grupę": 8955,
      "▁Usta": 8956,
      "▁Meksy": 8957,
      "▁Facebooku": 8958,
      "Fi": 8959,
      "bii": 8960,
      "▁powietrzu": 8961,
      "▁ó": 8962,
      "▁Sil": 8963,
      "▁Aleksandra": 8964,
      "▁wina": 8965,
      "▁biznesu": 8966,
      "▁prawdy": 8967,
      "EC": 8968,
      "mania": 8969,
      "▁różno": 8970,
      "▁nielega": 8971,
      "▁straci": 8972,
      "▁dostępny": 8973,
      "▁mieszkańcy": 8974,
      "▁Alex": 8975,
      "▁Człon": 8976,
      "▁David": 8977,
      "▁rysu": 8978,
      "▁stanął": 8979,
      "▁wynikiem": 8980,
      "stolat": 8981,
      "ciągu": 8982,
      "▁pozostałe": 8983,
      "▁śmierte": 8984,
      "▁poseł": 8985,
      "▁udowo": 8986,
      "▁run": 8987,
      "letniego": 8988,
      "pami": 8989,
      "▁zaawans": 8990,
      "▁jakaś": 8991,
      "spodar": 8992,
      "▁złe": 8993,
      "ori": 8994,
      "▁specjalnych": 8995,
      "▁pisem": 8996,
      "▁odzie": 8997,
      "dzimy": 8998,
      "OŚ": 8999,
      "▁wiej": 9000,
      "▁finansowej": 9001,
      "czącym": 9002,
      "sona": 9003,
      "waga": 9004,
      "▁wnioski": 9005,
      "▁akcje": 9006,
      "▁stałe": 9007,
      "▁Uczestnicy": 9008,
      "▁zem": 9009,
      "dziesięciu": 9010,
      "zur": 9011,
      "▁niesamowi": 9012,
      "ziono": 9013,
      "▁uwzględnie": 9014,
      "data": 9015,
      "▁Maj": 9016,
      "▁oświadczenie": 9017,
      "▁Wystarczy": 9018,
      "▁preparatu": 9019,
      "▁zamieszkania": 9020,
      "▁ROZP": 9021,
      "\\'": 9022,
      "▁OF": 9023,
      "▁wyjść": 9024,
      "▁podjął": 9025,
      "met": 9026,
      "gene": 9027,
      "ersona": 9028,
      "welo": 9029,
      "▁Prezesa": 9030,
      "stian": 9031,
      "stecz": 9032,
      "▁przemie": 9033,
      "▁ekspertów": 9034,
      "▁uzupeł": 9035,
      "▁sejm": 9036,
      "▁pou": 9037,
      "▁ocenił": 9038,
      "▁papiero": 9039,
      "▁propor": 9040,
      "▁pełną": 9041,
      "logicznego": 9042,
      "▁zdrowie": 9043,
      "żała": 9044,
      "▁Trump": 9045,
      "▁zainteresowanie": 9046,
      "▁reform": 9047,
      "▁stosunkowo": 9048,
      "▁ochronie": 9049,
      "▁Elżbie": 9050,
      "landia": 9051,
      "▁przyłą": 9052,
      "▁określony": 9053,
      "▁Ow": 9054,
      "▁doktor": 9055,
      "wymi": 9056,
      "glądał": 9057,
      "zor": 9058,
      "ung": 9059,
      "▁kwesti": 9060,
      "▁SA": 9061,
      "▁Ję": 9062,
      "ORZĄD": 9063,
      "▁przyjąć": 9064,
      "▁pogrze": 9065,
      "▁ognia": 9066,
      "▁faktu": 9067,
      "róbu": 9068,
      "ID": 9069,
      "▁upływie": 9070,
      "ness": 9071,
      "czymy": 9072,
      "▁upoważ": 9073,
      "akcep": 9074,
      "▁wyli": 9075,
      "▁wsty": 9076,
      "▁stopień": 9077,
      "▁wydłu": 9078,
      "decy": 9079,
      "kowaniu": 9080,
      "▁obiekt": 9081,
      "▁częstot": 9082,
      "▁diagno": 9083,
      "▁kieszeni": 9084,
      "▁finansowego": 9085,
      "▁zakończył": 9086,
      "▁pusty": 9087,
      "▁wystąpił": 9088,
      "▁tęsk": 9089,
      "▁znanych": 9090,
      "▁mecze": 9091,
      "liście": 9092,
      "▁klawi": 9093,
      "▁dwukrotnie": 9094,
      "▁Również": 9095,
      "ałości": 9096,
      "▁Pia": 9097,
      "niętych": 9098,
      "▁zadłu": 9099,
      "▁okru": 9100,
      "▁wyjaśnił": 9101,
      "łod": 9102,
      "źnia": 9103,
      "▁twierdzą": 9104,
      "sin": 9105,
      "▁wspani": 9106,
      "▁kwiat": 9107,
      "▁qu": 9108,
      "▁uniwersyte": 9109,
      "▁Najważ": 9110,
      "▁jutro": 9111,
      "▁Opera": 9112,
      "▁studiów": 9113,
      "▁medali": 9114,
      "▁zawodników": 9115,
      "gowych": 9116,
      "▁staroży": 9117,
      "▁online": 9118,
      "▁akcy": 9119,
      "▁Wydaje": 9120,
      "▁ogólno": 9121,
      "▁zmierza": 9122,
      "▁poprzednich": 9123,
      "▁utrzymać": 9124,
      "beli": 9125,
      "▁chorych": 9126,
      "UE": 9127,
      "▁woda": 9128,
      "▁NBP": 9129,
      "▁Zbigniew": 9130,
      "▁sal": 9131,
      "▁pogląd": 9132,
      "▁rachu": 9133,
      "lizować": 9134,
      "▁Partii": 9135,
      "▁odwro": 9136,
      "▁awan": 9137,
      "▁zamian": 9138,
      "▁teorii": 9139,
      "▁reakcji": 9140,
      "▁ciężar": 9141,
      "▁pytań": 9142,
      "▁zaspo": 9143,
      "wiam": 9144,
      "▁Rafał": 9145,
      "▁ROZPORZĄD": 9146,
      "▁najlepszym": 9147,
      "sur": 9148,
      "▁tren": 9149,
      "▁spor": 9150,
      "▁młodzieży": 9151,
      "box": 9152,
      "▁Ukra": 9153,
      "▁Miejscowości": 9154,
      "▁RM": 9155,
      "▁substancji": 9156,
      "▁pokój": 9157,
      "▁atak": 9158,
      "▁rozpoczęła": 9159,
      "▁naczy": 9160,
      "▁sposobem": 9161,
      "▁wstrzą": 9162,
      "byś": 9163,
      "właści": 9164,
      "uj": 9165,
      "▁Wrocławiu": 9166,
      "▁serwisu": 9167,
      "▁narciar": 9168,
      "▁podejrza": 9169,
      "▁Sę": 9170,
      "▁podwo": 9171,
      "▁kosztuje": 9172,
      "lli": 9173,
      "▁nur": 9174,
      "▁wykład": 9175,
      "▁połowa": 9176,
      "inte": 9177,
      "▁przyczyny": 9178,
      "IM": 9179,
[...]
