{
  "version": "1.0",
  "truncation": null,
  "padding": null,
  "added_tokens": [
    {
      "id": 0,
      "content": "<s>",
      "single_word": false,
      "lstrip": false,
      "rstrip": false,
      "normalized": false,
      "special": true
    },
    {
      "id": 1,
      "content": "<pad>",
      "single_word": false,
      "lstrip": false,
      "rstrip": false,
      "normalized": false,
      "special": true
    },
    {
      "id": 2,
      "content": "</s>",
      "single_word": false,
      "lstrip": false,
      "rstrip": false,
      "normalized": false,
      "special": true
    },
    {
      "id": 3,
      "content": "<unk>",
      "single_word": false,
      "lstrip": false,
      "rstrip": false,
      "normalized": false,
      "special": true
    },
    {
      "id": 4,
      "content": "<mask>",
      "single_word": false,
      "lstrip": false,
      "rstrip": false,
      "normalized": false,
      "special": true
    }
  ],
  "normalizer": null,
  "pre_tokenizer": {
    "type": "ByteLevel",
    "add_prefix_space": false,
    "trim_offsets": true,
    "use_regex": true
  },
  "post_processor": {
    "type": "ByteLevel",
    "add_prefix_space": true,
    "trim_offsets": false,
    "use_regex": true
  },
  "decoder": {
    "type": "ByteLevel",
    "add_prefix_space": true,
    "trim_offsets": true,
    "use_regex": true
  },
  "model": {
    "type": "BPE",
    "dropout": null,
    "unk_token": null,
    "continuing_subword_prefix": null,
    "end_of_word_suffix": null,
    "fuse_unk": false,
    "byte_fallback": false,
    "ignore_merges": false,
    "vocab": {
      "<s>": 0,
      "<pad>": 1,
      "</s>": 2,
      "<unk>": 3,
      "<mask>": 4,
      "!": 5,
      "\"": 6,
      "#": 7,
      "$": 8,
      "%": 9,
      "&": 10,
      "'": 11,
      "(": 12,
      ")": 13,
      "*": 14,
      "+": 15,
      ",": 16,
      "-": 17,
      ".": 18,
      "/": 19,
      "0": 20,
      "1": 21,
      "2": 22,
      "3": 23,
      "4": 24,
      "5": 25,
      "6": 26,
      "7": 27,
      "8": 28,
      "9": 29,
      ":": 30,
      ";": 31,
      "<": 32,
      "=": 33,
      ">": 34,
      "?": 35,
      "@": 36,
      "A": 37,
      "B": 38,
      "C": 39,
      "D": 40,
      "E": 41,
      "F": 42,
      "G": 43,
      "H": 44,
      "I": 45,
      "J": 46,
      "K": 47,
      "L": 48,
      "M": 49,
      "N": 50,
      "O": 51,
      "P": 52,
      "Q": 53,
      "R": 54,
      "S": 55,
      "T": 56,
      "U": 57,
      "V": 58,
      "W": 59,
      "X": 60,
      "Y": 61,
      "Z": 62,
      "[": 63,
      "\\": 64,
      "]": 65,
      "^": 66,
      "_": 67,
      "`": 68,
      "a": 69,
      "b": 70,
      "c": 71,
      "d": 72,
      "e": 73,
      "f": 74,
      "g": 75,
      "h": 76,
      "i": 77,
      "j": 78,
      "k": 79,
      "l": 80,
      "m": 81,
      "n": 82,
      "o": 83,
      "p": 84,
      "q": 85,
      "r": 86,
      "s": 87,
      "t": 88,
      "u": 89,
      "v": 90,
      "w": 91,
      "x": 92,
      "y": 93,
      "z": 94,
      "{": 95,
      "|": 96,
      "}": 97,
      "~": 98,
      "¡": 99,
      "¢": 100,
      "£": 101,
      "¤": 102,
      "¥": 103,
      "¦": 104,
      "§": 105,
      "¨": 106,
      "©": 107,
      "ª": 108,
      "«": 109,
      "¬": 110,
      "®": 111,
      "¯": 112,
      "°": 113,
      "±": 114,
      "²": 115,
      "³": 116,
      "´": 117,
      "µ": 118,
      "¶": 119,
      "·": 120,
      "¸": 121,
      "¹": 122,
      "º": 123,
      "»": 124,
      "¼": 125,
      "½": 126,
      "¾": 127,
      "¿": 128,
      "À": 129,
      "Á": 130,
      "Â": 131,
      "Ã": 132,
      "Ä": 133,
      "Å": 134,
      "Æ": 135,
      "Ç": 136,
      "È": 137,
      "É": 138,
      "Ê": 139,
      "Ë": 140,
      "Ì": 141,
      "Í": 142,
      "Î": 143,
      "Ï": 144,
      "Ð": 145,
      "Ñ": 146,
      "Ò": 147,
      "Ó": 148,
      "Ô": 149,
      "Õ": 150,
      "Ö": 151,
      "×": 152,
      "Ø": 153,
      "Ù": 154,
      "Ú": 155,
      "Û": 156,
      "Ü": 157,
      "Ý": 158,
      "Þ": 159,
      "ß": 160,
      "à": 161,
      "á": 162,
      "â": 163,
      "ã": 164,
      "ä": 165,
      "å": 166,
      "æ": 167,
      "ç": 168,
      "è": 169,
      "é": 170,
      "ê": 171,
      "ë": 172,
      "ì": 173,
      "í": 174,
      "î": 175,
      "ï": 176,
      "ð": 177,
      "ñ": 178,
      "ò": 179,
      "ó": 180,
      "ô": 181,
      "õ": 182,
      "ö": 183,
      "÷": 184,
      "ø": 185,
      "ù": 186,
      "ú": 187,
      "û": 188,
      "ü": 189,
      "ý": 190,
      "þ": 191,
      "ÿ": 192,
      "Ā": 193,
      "ā": 194,
      "Ă": 195,
      "ă": 196,
      "Ą": 197,
      "ą": 198,
      "Ć": 199,
      "ć": 200,
      "Ĉ": 201,
      "ĉ": 202,
      "Ċ": 203,
      "ċ": 204,
      "Č": 205,
      "č": 206,
      "Ď": 207,
      "ď": 208,
      "Đ": 209,
      "đ": 210,
      "Ē": 211,
      "ē": 212,
      "Ĕ": 213,
      "ĕ": 214,
      "Ė": 215,
      "ė": 216,
      "Ę": 217,
      "ę": 218,
      "Ě": 219,
      "ě": 220,
      "Ĝ": 221,
      "ĝ": 222,
      "Ğ": 223,
      "ğ": 224,
      "Ġ": 225,
      "ġ": 226,
      "Ģ": 227,
      "ģ": 228,
      "Ĥ": 229,
      "ĥ": 230,
      "Ħ": 231,
      "ħ": 232,
      "Ĩ": 233,
      "ĩ": 234,
      "Ī": 235,
      "ī": 236,
      "Ĭ": 237,
      "ĭ": 238,
      "Į": 239,
      "į": 240,
      "İ": 241,
      "ı": 242,
      "Ĳ": 243,
      "ĳ": 244,
      "Ĵ": 245,
      "ĵ": 246,
      "Ķ": 247,
      "ķ": 248,
      "ĸ": 249,
      "Ĺ": 250,
      "ĺ": 251,
      "Ļ": 252,
      "ļ": 253,
      "Ľ": 254,
      "ľ": 255,
      "Ŀ": 256,
      "ŀ": 257,
      "Ł": 258,
      "ł": 259,
      "Ń": 260,
      "ie": 261,
      "ÅĤ": 262,
      "Ġp": 263,
      "Ġw": 264,
      "Ġs": 265,
      "ÄĻ": 266,
      "Ġn": 267,
      "Ġz": 268,
      "Äħ": 269,
      "rz": 270,
      "cz": 271,
      "ow": 272,
      "Ġt": 273,
      "Å¼": 274,
      "ch": 275,
      "st": 276,
      "ni": 277,
      "Ġd": 278,
      "ra": 279,
      "Ã³": 280,
      "Ġm": 281,
      "Ġo": 282,
      "ÅĽ": 283,
      "aÅĤ": 284,
      "Ġk": 285,
      "sz": 286,
      "nie": 287,
      "ro": 288,
      "Ġj": 289,
      "dz": 290,
      "Ġpo": 291,
      "Ġi": 292,
      "Ġna": 293,
      "iÄĻ": 294,
      "go": 295,
      "Ġb": 296,
      "li": 297,
      "Äĩ": 298,
      "rze": 299,
      "le": 300,
      "ak": 301,
      "an": 302,
      "ci": 303,
      "Ġnie": 304,
      "ar": 305,
      "Ġdo": 306,
      "am": 307,
      "ne": 308,
      "ĠsiÄĻ": 309,
      "ym": 310,
      "Ġje": 311,
      "Å¼e": 312,
      "Ġza": 313,
      "na": 314,
      "em": 315,
      "Ã³w": 316,
      "ÅĤa": 317,
      "ka": 318,
      "ych": 319,
      "Ġu": 320,
      "re": 321,
      "âĢ": 322,
      "rzy": 323,
      "ko": 324,
      "at": 325,
      "wi": 326,
      "ki": 327,
      "Ġwy": 328,
      "Ġprze": 329,
      "Ġa": 330,
      "nia": 331,
      "wa": 332,
      "jÄħ": 333,
      "ÅĤo": 334,
      "ce": 335,
      "czy": 336,
      "ĠÅ¼e": 337,
      "dzi": 338,
      "Ġto": 339,
      "cie": 340,
      "Ġg": 341,
      "on": 342,
      "je": 343,
      "cze": 344,
      "owa": 345,
      "or": 346,
      "ku": 347,
      "Ġte": 348,
      "Ġst": 349,
      "dy": 350,
      "da": 351,
      "la": 352,
      "dzie": 353,
      "oÅĽ": 354,
      "er": 355,
      "cj": 356,
      "Ġod": 357,
      "Ġro": 358,
      "Ġby": 359,
      "po": 360,
      "ÅĦ": 361,
      "wo": 362,
      "Ġjak": 363,
      "cy": 364,
      "ty": 365,
      "by": 366,
      "kie": 367,
      "ry": 368,
      "mi": 369,
      "Ġc": 370,
      "Ġkt": 371,
      "âĢĵ": 372,
      "Ġmo": 373,
      "ta": 374,
      "en": 375,
      "ĠP": 376,
      "Ġjest": 377,
      "aÅĤa": 378,
      "Ġko": 379,
      "Ġprzy": 380,
      "wie": 381,
      "ny": 382,
      "ru": 383,
      "ĠktÃ³": 384,
      "Ġmi": 385,
      "lu": 386,
      "ad": 387,
      "sta": 388,
      "Ġch": 389,
      "ej": 390,
      "tu": 391,
      "owie": 392,
      "si": 393,
      "ob": 394,
      "Ġtak": 395,
      "Ġpod": 396,
      "Ġcz": 397,
      "Ġ-": 398,
      "Ġsz": 399,
      "as": 400,
      "Å¼y": 401,
      "no": 402,
      "ĠS": 403,
      "al": 404,
      "szy": 405,
      "owi": 406,
      "my": 407,
      "nÄħ": 408,
      "te": 409,
      "Ġsp": 410,
      "raz": 411,
      "Ġni": 412,
      "Ġdz": 413,
      "ÅĤy": 414,
      "mie": 415,
      "ĠÅĽ": 416,
      "ĠM": 417,
      "Ġ1": 418,
      "ami": 419,
      "sze": 420,
      "Ġpro": 421,
      "Ġf": 422,
      "bi": 423,
      "pi": 424,
      "nych": 425,
      "zy": 426,
      "ÅĤu": 427,
      "oÅĽci": 428,
      "rÃ³": 429,
      "Ġwie": 430,
      "ĠK": 431,
      "cji": 432,
      "Ġty": 433,
      "Ġroz": 434,
      "Ġob": 435,
      "Ġin": 436,
      "Ġpra": 437,
      "Ġma": 438,
      "..": 439,
      "ca": 440,
      "ego": 441,
      "ĠW": 442,
      "lo": 443,
      "ek": 444,
      "ja": 445,
      "Ġco": 446,
      "jÄħc": 447,
      "Nie": 448,
      "du": 449,
      "nego": 450,
      "pie": 451,
      "ski": 452,
      "wy": 453,
      "gi": 454,
      "to": 455,
      "ĠA": 456,
      "ÅĽci": 457,
      "ga": 458,
      "nej": 459,
      "nym": 460,
      "Ġgo": 461,
      "ĠC": 462,
      "Ġ(": 463,
      "ĠB": 464,
      "Åº": 465,
      "aÅĤo": 466,
      "Ġmie": 467,
      "ĠT": 468,
      "bie": 469,
      "Ġjed": 470,
      "skie": 471,
      "Ġ2": 472,
      "mu": 473,
      "ĠâĢĵ": 474,
      "za": 475,
      "owan": 476,
      "Ġczy": 477,
      "Ġale": 478,
      "ma": 479,
      "niej": 480,
      "ol": 481,
      "Ġr": 482,
      "Ġwi": 483,
      "os": 484,
      "Ġtym": 485,
      "Ġre": 486,
      "ez": 487,
      "jÄĻ": 488,
      "Ġspo": 489,
      "Ġprzez": 490,
      "ĠR": 491,
      "niu": 492,
      "we": 493,
      "Ġmu": 494,
      "uÅ¼": 495,
      "Ġlu": 496,
      "Ġpa": 497,
      "Ġze": 498,
      "Po": 499,
      "aÅĤy": 500,
      "ĠâĢ": 501,
      "Na": 502,
      "ĠJ": 503,
      "Äħd": 504,
      "nÄĻ": 505,
      "ba": 506,
      "owo": 507,
      "cho": 508,
      "Ġsam": 509,
      "lko": 510,
      "Ġdzie": 511,
      "lat": 512,
      "pra": 513,
      "Ġbo": 514,
      "ĠD": 515,
      "il": 516,
      "Ġle": 517,
      "kt": 518,
      "kÃ³w": 519,
      "Ġtego": 520,
      "oÅĽÄĩ": 521,
      "ĠbÄĻ": 522,
      "ier": 523,
      "Ġra": 524,
      "in": 525,
      "ĠktÃ³re": 526,
      "Ġe": 527,
      "Ġdla": 528,
      "ach": 529,
      "mo": 530,
      "Ġwszy": 531,
      "su": 532,
      "ska": 533,
      "Ġprzed": 534,
      "dze": 535,
      "owy": 536,
      "ĠwiÄĻ": 537,
      "bo": 538,
      "un": 539,
      "dziaÅĤ": 540,
      "ĠG": 541,
      "Ġh": 542,
      "ĠsÄħ": 543,
      "pe": 544,
      "noÅĽci": 545,
      "Ġnaj": 546,
      "czÄħ": 547,
      "Ġdzi": 548,
      "ana": 549,
      "pu": 550,
      "Ġtylko": 551,
      "ost": 552,
      "Ġkon": 553,
      "de": 554,
      "ĠjuÅ¼": 555,
      "ĠZ": 556,
      "Ã³ÅĤ": 557,
      "Ġzna": 558,
      "Ġbar": 559,
      "ÅĽÄĩ": 560,
      "Ġli": 561,
      "Ġpowie": 562,
      "fi": 563,
      "dni": 564,
      "szcze": 565,
      "sy": 566,
      "Ġka": 567,
      "om": 568,
      "owaÄĩ": 569,
      "cia": 570,
      "Ġwszyst": 571,
      "sza": 572,
      "ĠL": 573,
      "ÅĽli": 574,
      "sa": 575,
      "sp": 576,
      "ÅĤem": 577,
      "owe": 578,
      "sty": 579,
      "owaÅĤ": 580,
      "cza": 581,
      "Ġspra": 582,
      "ÅĽcie": 583,
      "zu": 584,
      "Ġpot": 585,
      "Ġsob": 586,
      "kÄĻ": 587,
      "sie": 588,
      "ĠO": 589,
      "dzo": 590,
      "Ġwo": 591,
      "Ġjej": 592,
      "ĠwÅĤa": 593,
      "Ġpe": 594,
      "Ġsk": 595,
      "ali": 596,
      "Ġjego": 597,
      "ĠI": 598,
      "sk": 599,
      "Ġci": 600,
      "Je": 601,
      "00": 602,
      "gu": 603,
      "Ġsie": 604,
      "ĠmoÅ¼e": 605,
      "art": 606,
      "ĠbyÅĤo": 607,
      "Ġbez": 608,
      "owych": 609,
      "Ġswo": 610,
      "stÄĻ": 611,
      "im": 612,
      "Ġmnie": 613,
      "gra": 614,
      "ud": 615,
      "Ġczas": 616,
      "Ġpoz": 617,
      "Äħc": 618,
      "niem": 619,
      "rzym": 620,
      "Ġ\"": 621,
      "ĠÅ¼y": 622,
      "rowa": 623,
      "pa": 624,
      "...": 625,
      "ĠbÄĻdzie": 626,
      "ÅĦst": 627,
      "ony": 628,
      "cja": 629,
      "ĠbyÅĤ": 630,
      "rÄĻ": 631,
      "aÅĤem": 632,
      "ÅĽmy": 633,
      "owej": 634,
      "ane": 635,
      "do": 636,
      "Ġlat": 637,
      "ona": 638,
      "kiem": 639,
      "ent": 640,
      "ur": 641,
      "ĠÅ¼": 642,
      "gl": 643,
      "rod": 644,
      "ĠâĢŀ": 645,
      "Ġwz": 646,
      "Ã³wi": 647,
      "Ġsobie": 648,
      "Ġkie": 649,
      "Ġ19": 650,
      "Ġpi": 651,
      "Ġraz": 652,
      "nak": 653,
      "zna": 654,
      "Ġos": 655,
      "ĠN": 656,
      "Ġda": 657,
      "Ġsy": 658,
      "ĠE": 659,
      "ĠH": 660,
      "cu": 661,
      "cznie": 662,
      "ĠktÃ³r": 663,
      "Ġcho": 664,
      "Ġich": 665,
      "âĢĿ": 666,
      "Ġgdy": 667,
      "any": 668,
      "sto": 669,
      "Ġzap": 670,
      "ĠF": 671,
      "Ġodp": 672,
      "Ġsta": 673,
      "ĠgÅĤ": 674,
      "wiÄħ": 675,
      "ĠktÃ³ry": 676,
      "ĠteÅ¼": 677,
      "ymi": 678,
      "Ġde": 679,
      "Ġce": 680,
      "Ġtu": 681,
      "ÅĤad": 682,
      "Ġmog": 683,
      "wÃ³": 684,
      "waÅĤ": 685,
      "ia": 686,
      "Ġrze": 687,
      "wia": 688,
      "nÄħÅĤ": 689,
      "jÄħce": 690,
      "niÄĻ": 691,
      "one": 692,
      "Ġzak": 693,
      "spo": 694,
      "ran": 695,
      "ĠmoÅ¼": 696,
      "Ġok": 697,
      "Ġjeszcze": 698,
      "js": 699,
      "nik": 700,
      "owania": 701,
      "Ġbardzo": 702,
      "âĢĶ": 703,
      "Ġpan": 704,
      "ter": 705,
      "wet": 706,
      "praw": 707,
      "skiego": 708,
      "cyj": 709,
      "dzy": 710,
      "Ġpier": 711,
      "Ġku": 712,
      "To": 713,
      "rzu": 714,
      "Ġzost": 715,
      "lej": 716,
      "stÄĻp": 717,
      "Ġroku": 718,
      "Ġ3": 719,
      "Ġcie": 720,
      "ĠmÃ³wi": 721,
      "Ġcze": 722,
      "ĠU": 723,
      "Ġdob": 724,
      "Ġtej": 725,
      "czÄĻ": 726,
      "ji": 727,
      "Ġten": 728,
      "owego": 729,
      "bu": 730,
      "cjÄĻ": 731,
      "rzÄħ": 732,
      "Ġop": 733,
      "kÄħ": 734,
      "lem": 735,
      "aj": 736,
      "ze": 737,
      ").": 738,
      "ĠbyÄĩ": 739,
      "bli": 740,
      "aty": 741,
      "amy": 742,
      "ĠÅĽwi": 743,
      "ich": 744,
      "ciÄħ": 745,
      "Ġmy": 746,
      "ĠNie": 747,
      "Ġusta": 748,
      "ĠÅ¼eby": 749,
      "waÅ¼": 750,
      "gÅĤ": 751,
      "siÄĻ": 752,
      "Ġoraz": 753,
      "nika": 754,
      "el": 755,
      "ada": 756,
      "Ġpraw": 757,
      "ĠPol": 758,
      "pad": 759,
      "Ġwe": 760,
      "Ġmiejs": 761,
      "ÅĽnie": 762,
      "dÄĻ": 763,
      "Ġog": 764,
      "for": 765,
      "noÅĽÄĩ": 766,
      "et": 767,
      "nu": 768,
      "sko": 769,
      "Ġpow": 770,
      "Ã³b": 771,
      "rza": 772,
      "Ġbi": 773,
      "tem": 774,
      "skiej": 775,
      "ÅĤÄħ": 776,
      "ii": 777,
      "cje": 778,
      "czne": 779,
      "tÃ³w": 780,
      "tor": 781,
      "ÅĽl": 782,
      "nist": 783,
      "Za": 784,
      "Ġsamo": 785,
      "gie": 786,
      "Ġzro": 787,
      "Ġjednak": 788,
      "owanie": 789,
      "Ġnad": 790,
      "ĠâĢĶ": 791,
      "Ġno": 792,
      "wiÄĻ": 793,
      "ĠcaÅĤ": 794,
      "ÅĤam": 795,
      "dÄħ": 796,
      "Ġpew": 797,
      "Ġja": 798,
      "so": 799,
      "Ġkiedy": 800,
      "um": 801,
      "Ġnawet": 802,
      "Ġtam": 803,
      "sÅĤ": 804,
      "siÄħ": 805,
      "cha": 806,
      "cÃ³w": 807,
      "owÄħ": 808,
      "yta": 809,
      "Ġ20": 810,
      "osta": 811,
      "Ġdru": 812,
      "ĠÅ": 813,
      "Ġstan": 814,
      "ÅĤe": 815,
      "ĠbyÅĤa": 816,
      "czu": 817,
      "ĠrÃ³w": 818,
      "emu": 819,
      "bra": 820,
      "Ġpierw": 821,
      "szÄĻ": 822,
      "Ġstro": 823,
      "Ã³l": 824,
      "Ġta": 825,
      "Ġdy": 826,
      "Ġzam": 827,
      "Ġtakie": 828,
      "Ġtra": 829,
      "ju": 830,
      "Ġost": 831,
      "ast": 832,
      "liw": 833,
      "Wy": 834,
      "Ã³r": 835,
      "ĠPo": 836,
      "ec": 837,
      "ary": 838,
      "liÅĽmy": 839,
      "Ġjakie": 840,
      "stu": 841,
      "Ġpoli": 842,
      "ĠgÅĤo": 843,
      "Ġpowi": 844,
      "Ġlub": 845,
      "lan": 846,
      "Ġak": 847,
      "rÃ³Å¼": 848,
      "cznych": 849,
      "pis": 850,
      "Ġkil": 851,
      "Ġme": 852,
      "dziej": 853,
      "trzym": 854,
      "Ġkom": 855,
      "ĠjÄħ": 856,
      "Ġsto": 857,
      "ĠczÄĻ": 858,
      "dza": 859,
      "ĠwiÄĻc": 860,
      "czas": 861,
      "Ġzd": 862,
      "prze": 863,
      "dnie": 864,
      "nt": 865,
      "kich": 866,
      "Prze": 867,
      "ĠkaÅ¼": 868,
      "Ġpu": 869,
      "Ale": 870,
      "Ġmusi": 871,
      "zi": 872,
      "lÄĻ": 873,
      "cej": 874,
      "Ġgdzie": 875,
      "Ch": 876,
      "Ġjako": 877,
      "ĠdziaÅĤa": 878,
      "rzÄĻ": 879,
      "Jak": 880,
      "waÄĩ": 881,
      "taÅĤ": 882,
      "Ġodpowie": 883,
      "owym": 884,
      "Ġkra": 885,
      "wier": 886,
      "Ġal": 887,
      "jem": 888,
      "ĠcoÅĽ": 889,
      "Ġpie": 890,
      "skich": 891,
      "Ġtych": 892,
      "Ġim": 893,
      "Ġtrze": 894,
      "ĠniÅ¼": 895,
      "Ġwp": 896,
      "ri": 897,
      "nic": 898,
      "Ġchwi": 899,
      "szka": 900,
      "Ġdro": 901,
      "Ã³j": 902,
      "Ġwsp": 903,
      "Å¼a": 904,
      "czywi": 905,
      "res": 906,
      "rzÄħd": 907,
      "ste": 908,
      "kaz": 909,
      "Ġlo": 910,
      "Ġ4": 911,
      "ĠmiaÅĤ": 912,
      "Ġwyko": 913,
      "wiÄħz": 914,
      "ĠmoÅ¼na": 915,
      "Ġsu": 916,
      "Ġswoje": 917,
      "onych": 918,
      "ksz": 919,
      "ery": 920,
      "Ġbra": 921,
      "sku": 922,
      "ĠrÄĻ": 923,
      "rÃ³ci": 924,
      "),": 925,
      "ono": 926,
      "czyÄĩ": 927,
      "kÅĤad": 928,
      "Ġru": 929,
      "ĠKo": 930,
      "Ġar": 931,
      "Do": 932,
      "Ġ5": 933,
      "kim": 934,
      "dziÄĩ": 935,
      "ĠktÃ³ra": 936,
      "Ġspraw": 937,
      "ĠCh": 938,
      "ans": 939,
      "Ġsi": 940,
      "kach": 941,
      "Ġprac": 942,
      "Ġteraz": 943,
      "Ġsze": 944,
      "owane": 945,
      "ĠrÃ³wnie": 946,
      "py": 947,
      "Ġfi": 948,
      "Ġgru": 949,
      "bym": 950,
      "sÅĤu": 951,
      "Ġzrobi": 952,
      "ĠtakÅ¼e": 953,
      "Ġry": 954,
      "Czy": 955,
      "zie": 956,
      "Mo": 957,
      "Ġzaw": 958,
      "Ġwyda": 959,
      "rÃ³w": 960,
      "ĠpaÅĦst": 961,
      "io": 962,
      "cznej": 963,
      "Ġpre": 964,
      "Ġzn": 965,
      "Ġdu": 966,
      "jÄħcych": 967,
      "szych": 968,
      "ĠMi": 969,
      "Ġzw": 970,
      "dzenia": 971,
      "czego": 972,
      "Ġpowo": 973,
      "Ġsko": 974,
      "ciw": 975,
      "Ġwa": 976,
      "ÅĤowie": 977,
      "iÄĻdzy": 978,
      "uro": 979,
      "tk": 980,
      "Ġpol": 981,
      "tnie": 982,
      "ĠdÅĤu": 983,
      "Ġwszystko": 984,
      "Ġor": 985,
      "peÅĤ": 986,
      "ĠÅĽrod": 987,
      "\".": 988,
      "Ġstra": 989,
      "dÅĤ": 990,
      "Ġszy": 991,
      "ĠNa": 992,
      "sÅĤa": 993,
      "szÄħ": 994,
      "Ġwar": 995,
      "unk": 996,
      "owaÅĤa": 997,
      "Ġaby": 998,
      "ĠkoÅĦ": 999,
      "ral": 1000,
      "gÄĻ": 1001,
      "uje": 1002,
      "dar": 1003,
      "ano": 1004,
      "ĠsÅĤu": 1005,
      "niÄħ": 1006,
      "dziÅĤ": 1007,
      "Ġgra": 1008,
      "owany": 1009,
      "Ġjedno": 1010,
      "Ġmam": 1011,
      "Ġspos": 1012,
      "Ġnic": 1013,
      "dat": 1014,
      "ciu": 1015,
      "nÄĻÅĤa": 1016,
      "dzÄħ": 1017,
      "ĠÅĽwiat": 1018,
      "Ġzda": 1019,
      "Ġbu": 1020,
      "Ġnas": 1021,
      "Ġwym": 1022,
      "Ġrodzi": 1023,
      "Ġludzi": 1024,
      "Ġ201": 1025,
      "anych": 1026,
      "czej": 1027,
      "szym": 1028,
      "Ġnim": 1029,
      "ĠÅĤa": 1030,
      "ory": 1031,
      "two": 1032,
      "cÄħ": 1033,
      "Tak": 1034,
      "jÄħcy": 1035,
      "Ġznaj": 1036,
      "Ġchci": 1037,
      "Ġnich": 1038,
      "ĠrÃ³wnieÅ¼": 1039,
      "dem": 1040,
      "rw": 1041,
      "czyÅĤ": 1042,
      "Ġau": 1043,
      "ist": 1044,
      "skim": 1045,
      "se": 1046,
      "Ġrobi": 1047,
      "ĠciÄĻ": 1048,
      "ĠpowiedziaÅĤ": 1049,
      "Ġostat": 1050,
      "nymi": 1051,
      "stawi": 1052,
      "dzieÄĩ": 1053,
      "rÄħ": 1054,
      "Ã³d": 1055,
      "Ġon": 1056,
      "ĠzwiÄħz": 1057,
      "ĠPa": 1058,
      "Ġszcze": 1059,
      "czenia": 1060,
      "wiad": 1061,
      "oba": 1062,
      "co": 1063,
      "czny": 1064,
      "By": 1065,
      "Od": 1066,
      "szcz": 1067,
      "ĠÅ¼ad": 1068,
      "ĠbyÅĤy": 1069,
      "Ġzosta": 1070,
      "ĠjeÅĽli": 1071,
      "Ġ200": 1072,
      "ĠmajÄħ": 1073,
      "Ġniego": 1074,
      "Ġmat": 1075,
      "Ġalbo": 1076,
      "men": 1077,
      "tych": 1078,
      "Ġjaki": 1079,
      "ĠrÃ³Å¼": 1080,
      "gani": 1081,
      "war": 1082,
      "Ġkobie": 1083,
      "mis": 1084,
      "Ġdoty": 1085,
      "nikÃ³w": 1086,
      "od": 1087,
      "kiego": 1088,
      "ÄĻÅ¼": 1089,
      "ĠpiÄĻ": 1090,
      "tek": 1091,
      "Ġpyta": 1092,
      "leÅ¼": 1093,
      "ĠsÅĤ": 1094,
      "Ġzmie": 1095,
      "Ġkolej": 1096,
      "ĠktÃ³rzy": 1097,
      "Przy": 1098,
      "Ã³Åº": 1099,
      "szego": 1100,
      "âĢ¦": 1101,
      "daÄĩ": 1102,
      "ĠÅĽmie": 1103,
      "nii": 1104,
      "Ġwoj": 1105,
      "strze": 1106,
      "ĠmÃ³": 1107,
      "stÄħ": 1108,
      "szu": 1109,
      "niÄĩ": 1110,
      "stan": 1111,
      "Ġbud": 1112,
      "ĠMar": 1113,
      "ok": 1114,
      "ĠwiÄĻcej": 1115,
      "rÃ³d": 1116,
      "gdy": 1117,
      "Ġprob": 1118,
      "szej": 1119,
      "ĠzÅĤo": 1120,
      "stem": 1121,
      "eÅĽ": 1122,
      "scy": 1123,
      "kry": 1124,
      "Ġmieszka": 1125,
      "tÄĻ": 1126,
      "ktu": 1127,
      "dziaÅĤa": 1128,
      "ĠsposÃ³b": 1129,
      "and": 1130,
      "Ġba": 1131,
      "Ġtro": 1132,
      "Ġsiebie": 1133,
      "kow": 1134,
      "Ġnau": 1135,
      "mal": 1136,
      "czywiÅĽcie": 1137,
      "Ġprowa": 1138,
      "ĠTo": 1139,
      "ge": 1140,
      "tua": 1141,
      "Ġtem": 1142,
      "Ġinfor": 1143,
      "nios": 1144,
      "tar": 1145,
      "Ġszko": 1146,
      "ĠktÃ³rych": 1147,
      "Å¼ej": 1148,
      "nÄħÄĩ": 1149,
      "Ġpar": 1150,
      "Ġwiel": 1151,
      "tro": 1152,
      "aÅĤam": 1153,
      "zn": 1154,
      "czenie": 1155,
      "den": 1156,
      "dÃ³w": 1157,
      "Ġpracy": 1158,
      "chÄĻ": 1159,
      "Ġani": 1160,
      "glÄħ": 1161,
      "Ġuwa": 1162,
      "ĠwÅĤaÅĽnie": 1163,
      "tÄħ": 1164,
      "cznego": 1165,
      "tedy": 1166,
      "ĠwÅĤas": 1167,
      "Ġprzeciw": 1168,
      "Ġpomo": 1169,
      "ĠgÅĤos": 1170,
      "wu": 1171,
      "Ġkilka": 1172,
      "nek": 1173,
      "mniej": 1174,
      "Ġbardziej": 1175,
      "Ġpotrze": 1176,
      "ĠczÅĤowie": 1177,
      "ĠJe": 1178,
      "yba": 1179,
      "tra": 1180,
      "ĠzÅĤ": 1181,
      "Ġczym": 1182,
      "daw": 1183,
      "Ġ6": 1184,
      "Ġtwo": 1185,
      "chu": 1186,
      "dÅº": 1187,
      "kami": 1188,
      "Ġdnia": 1189,
      "aÄĩ": 1190,
      "tyw": 1191,
      "nicy": 1192,
      "Ġsytua": 1193,
      "ara": 1194,
      "cÄĻ": 1195,
      "Mi": 1196,
      "Ġmoje": 1197,
      "taj": 1198,
      "Ġpani": 1199,
      "gÅĤo": 1200,
      "wat": 1201,
      "Ġzie": 1202,
      "Ġniej": 1203,
      "ĠmiÄĻdzy": 1204,
      "Ġwol": 1205,
      "ĠÅĽwie": 1206,
      "ÅĽmie": 1207,
      "fe": 1208,
      "Ġzmi": 1209,
      "twa": 1210,
      "Ġspe": 1211,
      "Ġwyp": 1212,
      "nku": 1213,
      "Ġdzieci": 1214,
      "ĠkrÃ³": 1215,
      "Ġprzypad": 1216,
      "stwa": 1217,
      "rem": 1218,
      "Pro": 1219,
      "Ġproje": 1220,
      "Co": 1221,
      "anie": 1222,
      "Ġpotem": 1223,
      "szÅĤo": 1224,
      "oru": 1225,
      "kÅĤa": 1226,
      "kiej": 1227,
      "owiÄħ": 1228,
      "dzÄĻ": 1229,
      "amiÄĻ": 1230,
      "latego": 1231,
      "Ġmar": 1232,
      "cieÅ¼": 1233,
      "ĠbÄĻdÄħ": 1234,
      "Ġbie": 1235,
      "rud": 1236,
      "Ġniez": 1237,
      "ĠzostaÅĤ": 1238,
      "Ġser": 1239,
      "ciÄħg": 1240,
      "Ġpolity": 1241,
      "Ġpat": 1242,
      "Ġszyb": 1243,
      "ĠV": 1244,
      "Ġzach": 1245,
      "gro": 1246,
      "di": 1247,
      "ĠciÄħ": 1248,
      "wali": 1249,
      "Ġdobrze": 1250,
      "gle": 1251,
      "Ġokre": 1252,
      "tka": 1253,
      "ĠktÃ³rym": 1254,
      "liwoÅĽci": 1255,
      "ĠAn": 1256,
      "Ġdwa": 1257,
      "Ġpowin": 1258,
      "Ġinnych": 1259,
      "ziÄĻ": 1260,
      "got": 1261,
      "ĠuÅ¼y": 1262,
      "Ġchodzi": 1263,
      "miast": 1264,
      "pew": 1265,
      "Ġosob": 1266,
      "ĠktoÅĽ": 1267,
      "Ġchce": 1268,
      "ĠpeÅĤ": 1269,
      "ĠosÃ³b": 1270,
      "ĠmÅĤo": 1271,
      "ĠMa": 1272,
      "Å¼eli": 1273,
      "ĠZa": 1274,
      "dzenie": 1275,
      "ÅĽle": 1276,
      "ĠkaÅ¼d": 1277,
      "ĠmÃ³gÅĤ": 1278,
      "logi": 1279,
      "chy": 1280,
      "ĠspoÅĤe": 1281,
      "Ġfor": 1282,
      "Ġzwy": 1283,
      "glÄħd": 1284,
      "Ġdomu": 1285,
      "Ġzawsze": 1286,
      "âĢĿ.": 1287,
      "cjÄħ": 1288,
      "stwo": 1289,
      "oÅĤ": 1290,
      "Ġnam": 1291,
      "ĠpÃ³Åº": 1292,
      "Ã³Å¼": 1293,
      "ren": 1294,
      "prowa": 1295,
      "szedÅĤ": 1296,
      "Ġzgo": 1297,
      "Pod": 1298,
      "ĠduÅ¼": 1299,
      "zacji": 1300,
      "Ġczasu": 1301,
      "ĠBo": 1302,
      "Ġkar": 1303,
      "nicz": 1304,
      "Ġstos": 1305,
      "Ġkto": 1306,
      "ĠprÃ³": 1307,
      "Ġtrzeba": 1308,
      "Ġjedy": 1309,
      "Ġstar": 1310,
      "leÅ¼y": 1311,
      "Ġwyso": 1312,
      "wania": 1313,
      "pro": 1314,
      "Ġoko": 1315,
      "Ġ7": 1316,
      "oz": 1317,
      "niÅĤ": 1318,
      "ÄĻÅ¼czy": 1319,
      "ĠJa": 1320,
      "Ġwszystkich": 1321,
      "Ġustawy": 1322,
      "nister": 1323,
      "ÅĽwiad": 1324,
      "dÅĤu": 1325,
      "ĠtÄĻ": 1326,
      "trz": 1327,
      "glÄĻ": 1328,
      "min": 1329,
      "ĠWy": 1330,
      "Ġwiele": 1331,
      "wÃ³j": 1332,
      "Ġwiem": 1333,
      "Ġtwa": 1334,
      "Ġpoja": 1335,
      "sce": 1336,
      "Ġstanowi": 1337,
      "Ġwska": 1338,
      "ale": 1339,
      "gÃ³l": 1340,
      "lam": 1341,
      "siÅĤ": 1342,
      "kro": 1343,
      "is": 1344,
      "Ġpomy": 1345,
      "ciÅĤ": 1346,
      "ĠktÃ³rej": 1347,
      "owali": 1348,
      "Ġwal": 1349,
      "Ġorgani": 1350,
      "ĠpÃ³ÅĤ": 1351,
      "ĠwÅĤaÅĽci": 1352,
      "atu": 1353,
      "skÄħ": 1354,
      "ĠÅļ": 1355,
      "jemy": 1356,
      "ĠSz": 1357,
      "Ġ8": 1358,
      "Ġdrugie": 1359,
      "owana": 1360,
      "biera": 1361,
      "Ġsku": 1362,
      "Ġek": 1363,
      "Wie": 1364,
      "kol": 1365,
      "Å¼enie": 1366,
      "Å¼yÅĤ": 1367,
      "ĠÅĽwiad": 1368,
      "chodzi": 1369,
      "Ġwtedy": 1370,
      "kra": 1371,
      "kre": 1372,
      "19": 1373,
      "ene": 1374,
      "ment": 1375,
      "Ġjakby": 1376,
      "Ġmia": 1377,
      "tp": 1378,
      "Te": 1379,
      "inans": 1380,
      "Ġmniej": 1381,
      "Ġjestem": 1382,
      "lar": 1383,
      "nad": 1384,
      "Ġsw": 1385,
      "Ġczego": 1386,
      "staw": 1387,
      "Ġprodu": 1388,
      "Ġtaki": 1389,
      "Ġsprze": 1390,
      "Ġsprawie": 1391,
      "star": 1392,
      "ĠwiÄĻksz": 1393,
      "ycho": 1394,
      "Ġpoko": 1395,
      "Ġobec": 1396,
      "Ġinforma": 1397,
      "iedy": 1398,
      "onu": 1399,
      "bÄĻ": 1400,
      "Ġnigdy": 1401,
      "Ġse": 1402,
      "Ġ10": 1403,
      "byt": 1404,
      "cjal": 1405,
      "nienia": 1406,
      "Ġan": 1407,
      "szaÅĤ": 1408,
      "Ġpodob": 1409,
      "ÅĽniej": 1410,
      "czna": 1411,
      "Ġtemu": 1412,
      "ner": 1413,
      "szcza": 1414,
      "rzwi": 1415,
      "ĠpÅĤa": 1416,
      "ĠLe": 1417,
      "Ġgodzi": 1418,
      "Ġla": 1419,
      "Ġludzie": 1420,
      "zd": 1421,
      "ÅĦstwa": 1422,
      "rzaÅĤ": 1423,
      "ĠMo": 1424,
      "Ġwszystkie": 1425,
      "bez": 1426,
      "Ġproce": 1427,
      "he": 1428,
      "ĠmyÅĽl": 1429,
      "Ġprostu": 1430,
      "Ġchwili": 1431,
      "Ġczu": 1432,
      "resz": 1433,
      "pat": 1434,
      "piej": 1435,
      "ĠmaÅĤ": 1436,
      "Ġgospo": 1437,
      "trze": 1438,
      "Ġcy": 1439,
      "ĠaÅ¼": 1440,
      "stra": 1441,
      "kty": 1442,
      "Ġrozpo": 1443,
      "Ġwyb": 1444,
      "Gdy": 1445,
      "ser": 1446,
      "rom": 1447,
      "ĠEuro": 1448,
      "Ġwcze": 1449,
      "ot": 1450,
      "lep": 1451,
      "Ġjeden": 1452,
      "naj": 1453,
      "tak": 1454,
      "nim": 1455,
      "ort": 1456,
      "wiek": 1457,
      "cem": 1458,
      "pom": 1459,
      "Ġhist": 1460,
      "tan": 1461,
      "ĠmiaÅĤa": 1462,
      "eri": 1463,
      "glÄħda": 1464,
      "ĠdotyczÄħ": 1465,
      "stÄĻpu": 1466,
      "nem": 1467,
      "cznym": 1468,
      "ĠchÅĤo": 1469,
      "Ġinte": 1470,
      "owÄĻ": 1471,
      "prawdÄĻ": 1472,
      "Cz": 1473,
      "owanych": 1474,
      "waÅĤa": 1475,
      "ĠktÃ³rego": 1476,
      "ĠÅ¼ycie": 1477,
      "Ġpubli": 1478,
      "Ġtrzy": 1479,
      "Ġot": 1480,
      "Ġtele": 1481,
      "lÄħ": 1482,
      "Ġ9": 1483,
      "ĠmÄĻÅ¼czy": 1484,
      "Ġlecz": 1485,
      "onÄħ": 1486,
      "Ġoj": 1487,
      "ato": 1488,
      "Ġnaz": 1489,
      "wczy": 1490,
      "Ġchyba": 1491,
      "Ġpole": 1492,
      "zm": 1493,
      "Ġwra": 1494,
      "Ni": 1495,
      "JeÅĽli": 1496,
      "rzyÅĤ": 1497,
      "Ġkry": 1498,
      "rzenia": 1499,
      "Ġzawo": 1500,
      "Ġdrzwi": 1501,
      "cach": 1502,
      "Ġona": 1503,
      "Ġzm": 1504,
      "Ġpoprze": 1505,
      "ck": 1506,
      "tury": 1507,
      "Ġwzro": 1508,
      "stytu": 1509,
      "ĠWar": 1510,
      "ĠKra": 1511,
      "it": 1512,
      "ĠuwaÅ¼": 1513,
      "dal": 1514,
      "onym": 1515,
      "Ġdecy": 1516,
      "ĠRe": 1517,
      "west": 1518,
      "Ġrazem": 1519,
      "Ġpas": 1520,
      "ron": 1521,
      "kolwiek": 1522,
      "ÅĦski": 1523,
      "Ġmiejsce": 1524,
      "Ġpom": 1525,
      "let": 1526,
      "piero": 1527,
      "Ġat": 1528,
      "bezpie": 1529,
      "ĠWie": 1530,
      "Ġproblem": 1531,
      "Å»": 1532,
      "ĠchciaÅĤ": 1533,
      "ĠniÄħ": 1534,
      "rowi": 1535,
      "laz": 1536,
      "pod": 1537,
      "Ja": 1538,
      "Å¼enia": 1539,
      "Ġkonie": 1540,
      "Ġoczy": 1541,
      "20": 1542,
      "Ġzamie": 1543,
      "ĠÅ¼ycia": 1544,
      "ĠpÃ³Åºniej": 1545,
      "ĠPolsce": 1546,
      "ĠgÅĤÃ³w": 1547,
      "pre": 1548,
      "ĠchoÄĩ": 1549,
      "onal": 1550,
      "Ġponie": 1551,
      "kujÄĻ": 1552,
      "Ġspoj": 1553,
      "ĠÅĽmier": 1554,
      "Ġpana": 1555,
      "ul": 1556,
      "cznÄħ": 1557,
      "gÄħ": 1558,
      "Ġdziec": 1559,
      "No": 1560,
      "mina": 1561,
      "stru": 1562,
      "Ġfak": 1563,
      "czo": 1564,
      "gan": 1565,
      "Kiedy": 1566,
      "wanie": 1567,
      "nistra": 1568,
      "Ġfa": 1569,
      "ĠÅĤ": 1570,
      "wen": 1571,
      "Ġpodczas": 1572,
      "Ġkosz": 1573,
      "us": 1574,
      "stÄħpi": 1575,
      "ĠKa": 1576,
      "tora": 1577,
      "bar": 1578,
      "\",": 1579,
      "Ġstrony": 1580,
      "ĠIn": 1581,
      "usz": 1582,
      "tal": 1583,
      "Ġ18": 1584,
      "Ġpotra": 1585,
      "Jest": 1586,
      "Ġfunk": 1587,
      "Ġtyle": 1588,
      "ĠpoczÄħ": 1589,
      "Jed": 1590,
      "zumie": 1591,
      "ha": 1592,
      "der": 1593,
      "Å¼yÄĩ": 1594,
      "Ġprzedstawi": 1595,
      "Ġzau": 1596,
      "Ġtutaj": 1597,
      "Ġgro": 1598,
      "ura": 1599,
      "ĠwspÃ³ÅĤ": 1600,
      "Ġem": 1601,
      "wem": 1602,
      "tku": 1603,
      "ĠtrochÄĻ": 1604,
      "....": 1605,
      "Ġczasie": 1606,
      "Ġkole": 1607,
      "tach": 1608,
      "Ko": 1609,
      "Ġum": 1610,
      "Ġfil": 1611,
      "nosi": 1612,
      "kÅĤ": 1613,
      "fa": 1614,
      "dzÄħc": 1615,
      "Ġud": 1616,
      "Ġist": 1617,
      "ata": 1618,
      "Ġstanie": 1619,
      "ĠmieÄĩ": 1620,
      "tel": 1621,
      "Ġgospodar": 1622,
      "ĠmogÄħ": 1623,
      "Ġprzygot": 1624,
      "ĠczÄĻÅĽci": 1625,
      "Ġpodej": 1626,
      "Åļ": 1627,
      "owiada": 1628,
      "nio": 1629,
      "Ġzoba": 1630,
      "misji": 1631,
      "tego": 1632,
      "duje": 1633,
      "Ġdalej": 1634,
      "Ġofi": 1635,
      "ĠksiÄħ": 1636,
      "kura": 1637,
      "ĠwÄħ": 1638,
      "Ġwyja": 1639,
      "Ġmamy": 1640,
      "Ġprogra": 1641,
      "raÅº": 1642,
      "dow": 1643,
      "ĠnastÄĻp": 1644,
      "Ġfir": 1645,
      "czyÅĤa": 1646,
      "jÄħcego": 1647,
      "czym": 1648,
      "Ġokaz": 1649,
      "ĠRa": 1650,
      "ciÄĩ": 1651,
      "noÅĽciÄħ": 1652,
      "arÃ³w": 1653,
      "Ġrozu": 1654,
      "be": 1655,
      "owarzy": 1656,
      "Ġtemat": 1657,
      "zji": 1658,
      "Ġgdyby": 1659,
      "Ġkrzy": 1660,
      "ÅĤÄĻ": 1661,
      "rek": 1662,
      "MoÅ¼e": 1663,
      "ĠobowiÄħ": 1664,
      "wal": 1665,
      "Ġkla": 1666,
      "ers": 1667,
      "god": 1668,
      "kowi": 1669,
      "Ġzapew": 1670,
      "now": 1671,
      "Ġki": 1672,
      "Ġkilku": 1673,
      "sÅĤy": 1674,
      "Ġczyli": 1675,
      "Ġso": 1676,
      "tom": 1677,
      "Ġinter": 1678,
      "Ġtrud": 1679,
      "ĠpaÅĦstwa": 1680,
      "ĠpamiÄĻ": 1681,
      "siad": 1682,
      "ĠjakiÅĽ": 1683,
      "ciel": 1684,
      "Ġam": 1685,
      "Ġwszystkim": 1686,
      "Ġad": 1687,
      "ÅĤon": 1688,
      "zuje": 1689,
      "Ġplan": 1690,
      "Ġrzeczy": 1691,
      "ĠX": 1692,
      "amie": 1693,
      "Ġart": 1694,
      "Ġlek": 1695,
      "Ġobie": 1696,
      "Ġmoc": 1697,
      "DziÄĻ": 1698,
      "Ġponad": 1699,
      "ĠuÅĽmie": 1700,
      "ĠCo": 1701,
      "Ġust": 1702,
      "Ġdaw": 1703,
      "ĠnaprawdÄĻ": 1704,
      "ĠÅĽci": 1705,
      "ten": 1706,
      "anÄħ": 1707,
      "Ġzde": 1708,
      "Ġ15": 1709,
      "Ġzu": 1710,
      "Ġbli": 1711,
      "ĠwczeÅĽniej": 1712,
      "Ġwoje": 1713,
      "Ġodpowiedzi": 1714,
      "Ġzdo": 1715,
      "Ġlatach": 1716,
      "Ġbro": 1717,
      "Ġopi": 1718,
      "Ġwprowa": 1719,
      "Ġwielu": 1720,
      "bior": 1721,
      "cki": 1722,
      "Ġ199": 1723,
      "Ġdlatego": 1724,
      "ÅĽcia": 1725,
      "ĠpowiedzieÄĩ": 1726,
      "chni": 1727,
      "ĠktÃ³rÄħ": 1728,
      "ĠwzglÄĻ": 1729,
      ".,": 1730,
      "Ġsty": 1731,
      "ut": 1732,
      "ĠdwÃ³": 1733,
      "Ġfinans": 1734,
      "Ġl": 1735,
      "Ġdom": 1736,
      "Ġinne": 1737,
      "ate": 1738,
      "Ġkro": 1739,
      "aka": 1740,
      "Ġga": 1741,
      "ĠWarsza": 1742,
      "wiÄħza": 1743,
      "ĠjakieÅĽ": 1744,
      "Ġpla": 1745,
      "ciÄĻ": 1746,
      "ĠprzyjÄĻ": 1747,
      "Ġtakich": 1748,
      "rzysta": 1749,
      "Ty": 1750,
      "pli": 1751,
      "Ġzas": 1752,
      "Ġmasz": 1753,
      "Ġwspo": 1754,
      "Sz": 1755,
      "Ġrzecz": 1756,
      "iÄħ": 1757,
      "Ġzaj": 1758,
      "gar": 1759,
      "Ġwnios": 1760,
      "chro": 1761,
      "ĠPro": 1762,
      "ĠciÄĻÅ¼": 1763,
      "Ġstwier": 1764,
      "gen": 1765,
      "redni": 1766,
      "rzyÄĩ": 1767,
      "Å¼Äħ": 1768,
      "obec": 1769,
      "Ġspotka": 1770,
      "Ġkier": 1771,
      "Ġsek": 1772,
      "Ġwiad": 1773,
      "Ġdni": 1774,
      "ĠtÅĤu": 1775,
      "ĠwÅĤo": 1776,
      "Ġnp": 1777,
      "Ġnr": 1778,
      "kon": 1779,
      "wÄĻ": 1780,
      "tej": 1781,
      "ĠnaleÅ¼y": 1782,
      "Ġkomu": 1783,
      "Ġprzyja": 1784,
      "lek": 1785,
      "arÅĤ": 1786,
      "tki": 1787,
      "anej": 1788,
      "tow": 1789,
      "Ġzada": 1790,
      "Wi": 1791,
      "ĠkoÅĦcu": 1792,
      "ĠrzÄħd": 1793,
      "ĠiÅ¼": 1794,
      "Ġzami": 1795,
      "ĠwpÅĤy": 1796,
      "pera": 1797,
      "Ġkieru": 1798,
      "ari": 1799,
      "Ġszybko": 1800,
      "Ġdziewczy": 1801,
      "pej": 1802,
      "ĠsÅĤy": 1803,
      "ĠprzecieÅ¼": 1804,
      "Ġrozm": 1805,
      "Ġumie": 1806,
      "mach": 1807,
      "ĠwaÅ¼": 1808,
      "ĠmyÅĽli": 1809,
      "ĠzaczÄĻ": 1810,
      "Ġczar": 1811,
      "ĠzostaÅĤa": 1812,
      "rew": 1813,
      "liz": 1814,
      "ĠzrobiÄĩ": 1815,
      "ĠdwÃ³ch": 1816,
      "Ġpopraw": 1817,
      "wÄħ": 1818,
      "stawie": 1819,
      "ng": 1820,
      "ĠBi": 1821,
      "wiÅĤ": 1822,
      "ĠÅ»": 1823,
      "kona": 1824,
      "ti": 1825,
      "Ġwszyscy": 1826,
      "kle": 1827,
      "Ġrzu": 1828,
      "rzenie": 1829,
      "row": 1830,
      "owaniu": 1831,
      "czki": 1832,
      "Ġbada": 1833,
      "ĠjÄĻ": 1834,
      "Ġznale": 1835,
      "niaÅĤ": 1836,
      "Bo": 1837,
      "gÅĤa": 1838,
      "rach": 1839,
      "owu": 1840,
      "es": 1841,
      "Ġprawo": 1842,
      "Ġpozy": 1843,
      "ĠsobÄħ": 1844,
      "Ġpoza": 1845,
      "Ma": 1846,
      "Ġozna": 1847,
      "Ġlicz": 1848,
      "ĠdziÄĻ": 1849,
      "Wszy": 1850,
      "ĠPrze": 1851,
      "Ġile": 1852,
      "Ġprawa": 1853,
      "Ġswoich": 1854,
      "Ġsystem": 1855,
      "mio": 1856,
      "Ġws": 1857,
      "Ġklu": 1858,
      "daje": 1859,
      "yt": 1860,
      "ciem": 1861,
      "owano": 1862,
      "ĠcaÅĤy": 1863,
      "alnie": 1864,
      "ĠPi": 1865,
      "szÅĤa": 1866,
      "oby": 1867,
      "Ġnikt": 1868,
      "Ġkwest": 1869,
      "wiÄĩ": 1870,
      "kaza": 1871,
      "sem": 1872,
      "ÅĦskiego": 1873,
      "gry": 1874,
      "ĠpoÅĽ": 1875,
      "IE": 1876,
      "sÃ³w": 1877,
      "grani": 1878,
      "ĠgÃ³": 1879,
      "Ġdodat": 1880,
      "ĠczÄĻsto": 1881,
      "ktor": 1882,
      "nienie": 1883,
      "wiÄĻk": 1884,
      "II": 1885,
      "jech": 1886,
      "bud": 1887,
      "niach": 1888,
      "jÄħca": 1889,
      "ly": 1890,
      "ĠTak": 1891,
      "knÄħÅĤ": 1892,
      "ÅĦstwo": 1893,
      "Ġzako": 1894,
      "wiera": 1895,
      "ytaÅĤ": 1896,
      "Naj": 1897,
      "Ġkraju": 1898,
      "Ġreali": 1899,
      "dziÅĤa": 1900,
      "Ġuli": 1901,
      "ĠÅº": 1902,
      "Ġhistor": 1903,
      "Dla": 1904,
      "ĠÅģ": 1905,
      "kaÄĩ": 1906,
      "Ġsen": 1907,
      "liwe": 1908,
      "ĠdÅĤo": 1909,
      "Ġpozosta": 1910,
      "ber": 1911,
      "Ġzbyt": 1912,
      "piera": 1913,
      "Ġtakiego": 1914,
      "Ġmiasta": 1915,
      "Ġoce": 1916,
      "rÃ³ciÅĤ": 1917,
      "ĠsÅĤowa": 1918,
      "Ġpodat": 1919,
      "Ġprzej": 1920,
      "aku": 1921,
      "ĠzaczÄħ": 1922,
      "cego": 1923,
      "Ġkur": 1924,
      "âĢĿ,": 1925,
      "Ġpierwszy": 1926,
      "Ġpotrafi": 1927,
      "âĢŀ": 1928,
      "Ġszu": 1929,
      "wiet": 1930,
      "Ġmas": 1931,
      "pozy": 1932,
      "ĠswojÄħ": 1933,
      "jÄħcym": 1934,
      "Ġlata": 1935,
      "Ġof": 1936,
      "bro": 1937,
      "Ġpracow": 1938,
      "ĠdÅĤugo": 1939,
      "ew": 1940,
      "ĠCz": 1941,
      "ĠduÅ¼o": 1942,
      "ĠuwagÄĻ": 1943,
      "Ġosoby": 1944,
      "Ġrazie": 1945,
      "tym": 1946,
      "ciÄħÅ¼": 1947,
      "Ġbyli": 1948,
      "Ġrozumie": 1949,
      "ĠpÅĤy": 1950,
      "ĠgÅĤowÄħ": 1951,
      "Ġpytanie": 1952,
      "ĠchwilÄĻ": 1953,
      "Ġprezy": 1954,
      "Ġpowa": 1955,
      "Ġotrzym": 1956,
      "ĠszczÄĻ": 1957,
      "Ġzwie": 1958,
      "goÅĽ": 1959,
      "kar": 1960,
      "wszy": 1961,
      "cyjnych": 1962,
      "stÃ³w": 1963,
      "chem": 1964,
      "cer": 1965,
      "Ġsil": 1966,
      "Å¼u": 1967,
      "siada": 1968,
      "Ġmiejscu": 1969,
      "ĠwspÃ³l": 1970,
      "siÄĻcy": 1971,
      "Ġban": 1972,
      "Ġbezpie": 1973,
      "wol": 1974,
      "ĠLi": 1975,
      "czni": 1976,
      "jÄħcej": 1977,
      "Ġsytuacji": 1978,
      "ĠAr": 1979,
      "Ġprzyj": 1980,
      "ciaÅ¼": 1981,
      "jÄħcÄħ": 1982,
      "dziaÅĤem": 1983,
      "anego": 1984,
      "dnia": 1985,
      "cjon": 1986,
      "kom": 1987,
      "ĠDo": 1988,
      "dÅĤug": 1989,
      "Ġprz": 1990,
      "dzieli": 1991,
      "Ġprojekt": 1992,
      "Ġnor": 1993,
      "Ġminu": 1994,
      "dach": 1995,
      "ĠmogÄĻ": 1996,
      "ÅĦczy": 1997,
      "ĠpostÄĻp": 1998,
      "cami": 1999,
      "per": 2000,
      "Åģ": 2001,
      "gn": 2002,
      "Ġjednost": 2003,
      "ĠponiewaÅ¼": 2004,
      "ĠkaÅ¼dy": 2005,
      "Ġdrugi": 2006,
      "staÅĤ": 2007,
      "Ġprzypadku": 2008,
      "Ġprawie": 2009,
      "raÅ¼": 2010,
      "Ġwyj": 2011,
      "peÅĤnie": 2012,
      "ĠchÅĤop": 2013,
      "ĠPolski": 2014,
      "nach": 2015,
      "zo": 2016,
      "Ġposta": 2017,
      "Ġpor": 2018,
      "ÅĽla": 2019,
      "ĠsÅĤo": 2020,
      "Ġ12": 2021,
      "bardziej": 2022,
      "Ġstop": 2023,
      "Ġlepiej": 2024,
      "ĠzaÅĽ": 2025,
      "Ġstud": 2026,
      "Ġucie": 2027,
      "Ġkontro": 2028,
      "ĠWo": 2029,
      "ĠzwiÄħzku": 2030,
      "Ġjas": 2031,
      "Ġwypad": 2032,
      "Ġarty": 2033,
      "Ġwyma": 2034,
      "jÄĻcia": 2035,
      "Ġwsze": 2036,
      "ĠzaÅĤo": 2037,
      "ĠszczegÃ³l": 2038,
      "fek": 2039,
      "wiaÄĩ": 2040,
      "szko": 2041,
      "cznoÅĽci": 2042,
      "Ġregu": 2043,
      "Ġpowodu": 2044,
      "Ġtys": 2045,
      "man": 2046,
      "pon": 2047,
      "ĠFran": 2048,
      "Ġswoim": 2049,
      "Roz": 2050,
      "Ã³le": 2051,
      "âĢĻ": 2052,
      "Ġuro": 2053,
      "Ġkraj": 2054,
      "ĠRos": 2055,
      "cep": 2056,
      "Pra": 2057,
      "Ġzast": 2058,
      "Ġ:": 2059,
      "Ġsamocho": 2060,
      "Ġprzewo": 2061,
      "por": 2062,
      "Ġsprawa": 2063,
      "ĠksiÄħÅ¼": 2064,
      "cieli": 2065,
      "ĠWi": 2066,
      "Ġpotrzeb": 2067,
      "Ġjednym": 2068,
      "ĠsÅĤuÅ¼": 2069,
      "niami": 2070,
      "waÅĤy": 2071,
      "ĠproszÄĻ": 2072,
      "dziel": 2073,
      "jÄħÅĤ": 2074,
      "Ġkul": 2075,
      "ĠprzykÅĤad": 2076,
      "Ġ.": 2077,
      "Ġnadzie": 2078,
      "ĠbudÅ¼e": 2079,
      "gÃ³w": 2080,
      "koÅĽci": 2081,
      "Ġoby": 2082,
      "rucho": 2083,
      "czaj": 2084,
      "Ġjedynie": 2085,
      "Ġucze": 2086,
      "ĠrzÄħ": 2087,
      "Ġdopiero": 2088,
      "Ġpart": 2089,
      "eli": 2090,
      "Ġrad": 2091,
      "Ġtrzym": 2092,
      "Ġul": 2093,
      "ĠKon": 2094,
      "Ġzatrzym": 2095,
      "koj": 2096,
      "ĠrozwiÄħza": 2097,
      "ĠNi": 2098,
      "Ġmili": 2099,
      "Ġwieku": 2100,
      "wyÅ¼": 2101,
      "ĠPra": 2102,
      "tne": 2103,
      "Ġdosta": 2104,
      "liwoÅĽÄĩ": 2105,
      "ĠdzieÅĦ": 2106,
      "ĠTe": 2107,
      "pÄĻ": 2108,
      "Ġmieli": 2109,
      "ĠgÅĤÄĻ": 2110,
      "ĠmogÅĤa": 2111,
      "ĠjakÄħ": 2112,
      "ĠksiÄĻ": 2113,
      "Ka": 2114,
      "orÃ³w": 2115,
      "pada": 2116,
      "Cho": 2117,
      "owiem": 2118,
      "dzaj": 2119,
      "Ġznalaz": 2120,
      "Ġtakim": 2121,
      "tni": 2122,
      "miaÅĤ": 2123,
      "ĠpowiedziaÅĤa": 2124,
      "Ġtaka": 2125,
      "Ġpoczu": 2126,
      "ÅĽrÃ³d": 2127,
      "ler": 2128,
      "Ġzabi": 2129,
      "rabi": 2130,
      "lom": 2131,
      "Å¼d": 2132,
      "lenia": 2133,
      "usi": 2134,
      "Ġml": 2135,
      "Ġdwie": 2136,
      "ĠmieszkaÅĦ": 2137,
      "wÃ³r": 2138,
      "Ġodw": 2139,
      "chi": 2140,
      "siaj": 2141,
      "Ġopu": 2142,
      "ÅĽni": 2143,
      "Ġpal": 2144,
      "Ġpry": 2145,
      "ĠstronÄĻ": 2146,
      "anym": 2147,
      "ĠczÅĤon": 2148,
      "Ġpewno": 2149,
      "Ġdlaczego": 2150,
      "Ġpozwo": 2151,
      "podob": 2152,
      "Teraz": 2153,
      "Ġwarun": 2154,
      "ĠSe": 2155,
      "enta": 2156,
      "rwa": 2157,
      "miec": 2158,
      "czeÅĽnie": 2159,
      "Ġzasa": 2160,
      "Ġniekt": 2161,
      "Ġisto": 2162,
      "Ġ30": 2163,
      "kÃ³ÅĤ": 2164,
      "Ġ16": 2165,
      "alne": 2166,
      "Ġzakre": 2167,
      "Ġutrzym": 2168,
      "daÅĤ": 2169,
      "ĠogÃ³le": 2170,
      "Ġeksp": 2171,
      "ĠLu": 2172,
      "stety": 2173,
      "ĠstaÅĤ": 2174,
      "szczy": 2175,
      "nien": 2176,
      "Ġdrugiej": 2177,
      "czeniu": 2178,
      "kowie": 2179,
      "Ġter": 2180,
      "ĠczÄĻÅĽÄĩ": 2181,
      "Ġwart": 2182,
      "ĠjÄĻzy": 2183,
      "Ġtran": 2184,
      "We": 2185,
      "dli": 2186,
      "akÃ³w": 2187,
      "wÃ³dz": 2188,
      "Ġswojej": 2189,
      "aÅĤu": 2190,
      "czes": 2191,
      "Le": 2192,
      "szczÄĻ": 2193,
      "Ġistnie": 2194,
      "ĠjeÅ¼eli": 2195,
      "chaÄĩ": 2196,
      "Ġ17": 2197,
      "ĠÅĤÄħ": 2198,
      "DziÄĻkujÄĻ": 2199,
      "Ġjakim": 2200,
      "My": 2201,
      "Ġobro": 2202,
      "Ġdobre": 2203,
      "Ġmiejsca": 2204,
      "ani": 2205,
      "len": 2206,
      "rzeÄĩ": 2207,
      "ke": 2208,
      "ÅĤeÅĽ": 2209,
      "Ġcoraz": 2210,
      "Ġkan": 2211,
      "Ġdwu": 2212,
      "rami": 2213,
      "ĠnaleÅ¼": 2214,
      "lach": 2215,
      "ĠCzy": 2216,
      "lenie": 2217,
      "kal": 2218,
      "Ġwobec": 2219,
      "Ġnajbardziej": 2220,
      "ĠJak": 2221,
      "Ġziemi": 2222,
      "cyd": 2223,
      "Ġele": 2224,
      "ĠNo": 2225,
      "ĠSej": 2226,
      "Ġdoku": 2227,
      "Ã³sÅĤ": 2228,
      "przy": 2229,
      "Ġdysku": 2230,
      "ĠAle": 2231,
      "orem": 2232,
      "cyjne": 2233,
      "Ġniewie": 2234,
      "czeÅĦ": 2235,
      "ĠoÅĽ": 2236,
      "Ġzapro": 2237,
      "pita": 2238,
      "Ġnimi": 2239,
      "ĠpoczÄħtku": 2240,
      "tru": 2241,
      "nÄĻtrz": 2242,
      "Ġgene": 2243,
      "ĠdziÅĽ": 2244,
      "robi": 2245,
      "Ġkierow": 2246,
      "Ġzauwa": 2247,
      "Ġsamym": 2248,
      "ÅĤÃ³w": 2249,
      "10": 2250,
      "ing": 2251,
      "ĠRo": 2252,
      "Ġzabra": 2253,
      "Ġtowarzy": 2254,
      "Ġskrzy": 2255,
      "Ġstara": 2256,
      "Ġsztu": 2257,
      "ĠposÅĤ": 2258,
      "Ġciem": 2259,
      "Ġdzien": 2260,
      "In": 2261,
      "Ġlep": 2262,
      "sti": 2263,
      "dyn": 2264,
      "cen": 2265,
      "Ġraczej": 2266,
      "ĠmÃ³j": 2267,
      "ĠporzÄħd": 2268,
      "alo": 2269,
      "czÄħc": 2270,
      "tuje": 2271,
      "Ġjednego": 2272,
      "czyna": 2273,
      "Ġnapis": 2274,
      "Ġju": 2275,
      "Ġps": 2276,
      "Ġczerw": 2277,
      "Ġzain": 2278,
      "Ġcelu": 2279,
      "Ġniepo": 2280,
      "ĠjesteÅĽ": 2281,
      "ard": 2282,
      "moÅ¼": 2283,
      "kaÅĤ": 2284,
      "ĠsÅĤa": 2285,
      "ĠzostaÅĤy": 2286,
      "Ġuzy": 2287,
      "Ġmiejsc": 2288,
      "gnie": 2289,
      "szyÅĤ": 2290,
      "Ġwystar": 2291,
      "Ġrozma": 2292,
      "stanowi": 2293,
      "Ġrazy": 2294,
      "ĠÅ¼oÅĤ": 2295,
      "ĠdziÄĻki": 2296,
      "spek": 2297,
      "rum": 2298,
      "lacji": 2299,
      "hi": 2300,
      "Ġminister": 2301,
      "Ġpis": 2302,
      "Ġcel": 2303,
      "Ġnowe": 2304,
      "tami": 2305,
      "niki": 2306,
      "Ġrodzaj": 2307,
      "muje": 2308,
      "Ġnajlep": 2309,
      "ĠobowiÄħz": 2310,
      "owoÅĽci": 2311,
      "Ġprawda": 2312,
      "Ġciebie": 2313,
      "Ġsza": 2314,
      "raj": 2315,
      "szenie": 2316,
      "bÄħ": 2317,
      "seÅĤ": 2318,
      "tery": 2319,
      "ĠzupeÅĤnie": 2320,
      "Ġtelef": 2321,
      "vi": 2322,
      "owaÅĤem": 2323,
      "Ġchara": 2324,
      "ĠdoÅĽÄĩ": 2325,
      "ien": 2326,
      "Ġwskaz": 2327,
      "Ġsprawy": 2328,
      "ĠczÅĤowiek": 2329,
      "Ġ14": 2330,
      "Ġjednej": 2331,
      "najmniej": 2332,
      "ĠoczywiÅĽcie": 2333,
      "ĠdokÅĤad": 2334,
      "ĠczÅĤowieka": 2335,
      "Ġab": 2336,
      "Ġzad": 2337,
      "Ġwej": 2338,
      "twie": 2339,
      "ĠkaÅ¼dym": 2340,
      "Ġ100": 2341,
      "ĠudziaÅĤ": 2342,
      "Ġple": 2343,
      "pÅĤy": 2344,
      "dent": 2345,
      "reszcie": 2346,
      "Ġdziw": 2347,
      "Ġzamk": 2348,
      "Ġprakty": 2349,
      "Ġobraz": 2350,
      "ve": 2351,
      "Ġoni": 2352,
      "Ġproble": 2353,
      "rÃ³t": 2354,
      "prac": 2355,
      "Ġdow": 2356,
      "raca": 2357,
      "gii": 2358,
      "czyn": 2359,
      "niesie": 2360,
      "ostaÅĤ": 2361,
      "ĠbÄĻdÄĻ": 2362,
      "ÅĦskiej": 2363,
      "dopodob": 2364,
      "krÄĻ": 2365,
      "Ġmateri": 2366,
      "ho": 2367,
      "ĠwyÅĤÄħ": 2368,
      "czeÅĦstwa": 2369,
      "Ġpodstaw": 2370,
      "ĠwciÄħÅ¼": 2371,
      "Ġ11": 2372,
      "nictwa": 2373,
      "liÅĤ": 2374,
      "tera": 2375,
      "Ġrok": 2376,
      "Ġzale": 2377,
      "Ġ13": 2378,
      "Ġmimo": 2379,
      "Ġtwarz": 2380,
      "ĠwÄĻ": 2381,
      "Ġobu": 2382,
      "ĠÅĽwiata": 2383,
      "ĠskÅĤa": 2384,
      "waÅĤo": 2385,
      "½ï": 2386,
      "Ġprzeprowa": 2387,
      "ckiego": 2388,
      "wer": 2389,
      "ĠgÅĤu": 2390,
      "Ġnadal": 2391,
      "Ġprawdzi": 2392,
      "czone": 2393,
      "Ġokoli": 2394,
      "Ob": 2395,
      "Ġtrafi": 2396,
      "Ġnagle": 2397,
      "Ġzdoby": 2398,
      "Ġbe": 2399,
      "Ġone": 2400,
      "ĠAl": 2401,
      "Ġ,": 2402,
      "Ġrobo": 2403,
      "rwi": 2404,
      "tr": 2405,
      "Ġkre": 2406,
      "ĠKomisji": 2407,
      "kuje": 2408,
      "ĠmÃ³wiÅĤ": 2409,
      "Ġmomen": 2410,
      "ĠmÅĤod": 2411,
      "sji": 2412,
      "Ġobok": 2413,
      "kowe": 2414,
      "Ġinnego": 2415,
      "Mam": 2416,
      "omo": 2417,
      "Ġostatni": 2418,
      "lin": 2419,
      "dzone": 2420,
      "ĠpieniÄħ": 2421,
      "anu": 2422,
      "ĠurzÄĻ": 2423,
      "Ġwynika": 2424,
      "Ġide": 2425,
      "aru": 2426,
      "aki": 2427,
      "ĠpiÄĻk": 2428,
      "Ġkat": 2429,
      "niejsze": 2430,
      "ĠznaleÅº": 2431,
      "gna": 2432,
      "miÄĻ": 2433,
      "Ġzaraz": 2434,
      "Ġpanie": 2435,
      "eryka": 2436,
      "niÃ³sÅĤ": 2437,
      "ĠmoÅ¼liwoÅĽci": 2438,
      "az": 2439,
      "Ġwido": 2440,
      "kacji": 2441,
      "ĠSta": 2442,
      "JeÅ¼eli": 2443,
      "unku": 2444,
      "ProszÄĻ": 2445,
      "me": 2446,
      "Ġposiada": 2447,
      "Ġtre": 2448,
      "ĠposeÅĤ": 2449,
      "Ġinnym": 2450,
      "ĠmusiaÅĤ": 2451,
      "cenia": 2452,
      "Ġkor": 2453,
      "Ġprokura": 2454,
      "wiat": 2455,
      "wala": 2456,
      "Ġne": 2457,
      "czony": 2458,
      "Ġode": 2459,
      "jÄħÄĩ": 2460,
      "szenia": 2461,
      "ĠmÄĻ": 2462,
      "??": 2463,
      "ĠTy": 2464,
      "Å¼yÅĤa": 2465,
      "ĠswÃ³j": 2466,
      "par": 2467,
      "ĠchociaÅ¼": 2468,
      "Ġfo": 2469,
      "Ġodby": 2470,
      "niku": 2471,
      "ĠprÃ³b": 2472,
      "Ġrol": 2473,
      "ĠdziaÅĤal": 2474,
      "Ġczyn": 2475,
      "jcie": 2476,
      "ĠJo": 2477,
      "Wszyst": 2478,
      "form": 2479,
      "pisy": 2480,
      "sztaÅĤ": 2481,
      "ĠstaÅĤo": 2482,
      "IA": 2483,
      "ĠmiÄĻ": 2484,
      "Ġx": 2485,
      "St": 2486,
      "godnie": 2487,
      "kwi": 2488,
      "Ġwyraz": 2489,
      "Ġmoim": 2490,
      "Ġochro": 2491,
      "Jego": 2492,
      "Ġopie": 2493,
      "kcji": 2494,
      "ĠkoÅĦca": 2495,
      "Dzi": 2496,
      "ĠuÅĽmiech": 2497,
      "caÅĤ": 2498,
      "Ġprzepis": 2499,
      "ĠzaczÄħÅĤ": 2500,
      "Jednak": 2501,
      "ĠprzedsiÄĻ": 2502,
      "piÄĻ": 2503,
      "Bar": 2504,
      "naczej": 2505,
      "Ġcent": 2506,
      "dniej": 2507,
      "ĠpowaÅ¼": 2508,
      "strzym": 2509,
      "ByÅĤ": 2510,
      "Ġmor": 2511,
      "Ġener": 2512,
      "Ġswojego": 2513,
      "zja": 2514,
      "rzyÅĤa": 2515,
      "ĠspÃ³ÅĤ": 2516,
      "kcie": 2517,
      "liÄĩ": 2518,
      "ĠokoÅĤo": 2519,
      "Ġstwo": 2520,
      "czek": 2521,
      "Åºdzie": 2522,
      "ĠmiÅĤo": 2523,
      "ĠwrÃ³ci": 2524,
      "ÅĽnia": 2525,
      "cka": 2526,
      "ĠdoÅĽwiad": 2527,
      "sÅĤaw": 2528,
      "Ġ194": 2529,
      "czka": 2530,
      "Ġpara": 2531,
      "ĠdziaÅĤania": 2532,
      "Ġporu": 2533,
      "Ġpierwsze": 2534,
      "Ġsama": 2535,
      "ĠsprawÄĻ": 2536,
      "ciÅĤa": 2537,
      "ĠwÅĽrÃ³d": 2538,
      "ĠusÅĤy": 2539,
      "ĠÅĽwiecie": 2540,
      "Ġkol": 2541,
      "dam": 2542,
      "ĠwyglÄħd": 2543,
      "Ġmet": 2544,
      "krai": 2545,
      "ĠwojewÃ³dz": 2546,
      "Ġcieka": 2547,
      "ĠosiÄħ": 2548,
      "omi": 2549,
      "Ġznowu": 2550,
      "Äħcych": 2551,
      "Ġdzisiaj": 2552,
      "Ġuz": 2553,
      "cenie": 2554,
      "__": 2555,
      "ĠwyglÄħda": 2556,
      "ĠzakoÅĦ": 2557,
      "syj": 2558,
      "rzej": 2559,
      "Ġdrze": 2560,
      "Ġnato": 2561,
      "szÅĤoÅĽci": 2562,
      "ĠpoÅĤo": 2563,
      "Ġwszel": 2564,
      "tny": 2565,
      "rÃ³b": 2566,
      "ĠgÅĤowÄĻ": 2567,
      "Ġpunk": 2568,
      "cjali": 2569,
      "Ġtakiej": 2570,
      "jed": 2571,
      "ĠmaÅĤo": 2572,
      "Ġkoniec": 2573,
      "Ġkamie": 2574,
      "Ġogrom": 2575,
      "ĠrÄĻce": 2576,
      "Ġwspom": 2577,
      "gli": 2578,
      "Ġkobiety": 2579,
      "Ġspecjal": 2580,
      "ĠjednÄħ": 2581,
      "Ġludz": 2582,
      "Ġocz": 2583,
      "Ġnatomiast": 2584,
      "nki": 2585,
      "Ġzakresie": 2586,
      "ĠrÄĻkÄĻ": 2587,
      "ĠÅ¼oÅĤnie": 2588,
      "Ġtwarzy": 2589,
      "Ġpokoju": 2590,
      "Ġobej": 2591,
      "Ġstronie": 2592,
      "Ġpewnie": 2593,
      "ĠtakÄħ": 2594,
      "Ġwybra": 2595,
      "Ġinwe": 2596,
      "ĠMinister": 2597,
      "cjach": 2598,
      "Ġuzna": 2599,
      "ĠIz": 2600,
      "wnÄĻtrz": 2601,
      "ĠpaÅĦstw": 2602,
      "Ġtere": 2603,
      "ĠpomyÅĽl": 2604,
      "legÅĤ": 2605,
      "Ġwiecz": 2606,
      "cale": 2607,
      "Ġtwier": 2608,
      "ant": 2609,
      "Ġjeste": 2610,
      "Ġmogli": 2611,
      "kazy": 2612,
      "tural": 2613,
      "ĠAm": 2614,
      "ËĿ": 2615,
      "Ġobywat": 2616,
      "sek": 2617,
      "pol": 2618,
      "Ġkupi": 2619,
      "Ġfunkcjon": 2620,
      "ster": 2621,
      "ĠwiÄĻk": 2622,
      "Ġ198": 2623,
      "Ġdem": 2624,
      "Ġzmian": 2625,
      "18": 2626,
      "ĠwiedziaÅĤ": 2627,
      "teres": 2628,
      "kali": 2629,
      "giem": 2630,
      "ministra": 2631,
      "ĠkiedyÅĽ": 2632,
      "Ġwidzi": 2633,
      "wiaÅĤ": 2634,
      "WiÄĻ": 2635,
      "Ġorganiza": 2636,
      "Ġleka": 2637,
      "Ġwykona": 2638,
      "ĠpoÅĤu": 2639,
      "entu": 2640,
      "taÄĩ": 2641,
      "Ġefek": 2642,
      "ĠbiaÅĤ": 2643,
      "roz": 2644,
      "ĠEuropej": 2645,
      "Ġprzewodni": 2646,
      "Ġznaczy": 2647,
      "SA": 2648,
      "Ġper": 2649,
      "tacji": 2650,
      "nawi": 2651,
      "prez": 2652,
      "ĠSt": 2653,
      "ologi": 2654,
      "towaÄĩ": 2655,
      "che": 2656,
      "pl": 2657,
      "niÅĤa": 2658,
      "owski": 2659,
      "ĠkrÃ³t": 2660,
      "obie": 2661,
      "Ġszero": 2662,
      "Ġrazu": 2663,
      "Ġinformacji": 2664,
      "Ġpowinien": 2665,
      "Ġpowsta": 2666,
      "resztÄħ": 2667,
      "ĠpieniÄħdze": 2668,
      "pierw": 2669,
      "ir": 2670,
      "Ġmojej": 2671,
      "Ġdowie": 2672,
      "owaÅĤy": 2673,
      "ĠcaÅĤÄħ": 2674,
      "ĠznÃ³w": 2675,
      "Ġzdecyd": 2676,
      "Ġge": 2677,
      "aÅĤoby": 2678,
      "Ġresz": 2679,
      "Kto": 2680,
      "Chci": 2681,
      "Ġzasad": 2682,
      "Ġ25": 2683,
      "nikiem": 2684,
      "Ġzy": 2685,
      "leg": 2686,
      "Ġzdr": 2687,
      "Ġwymie": 2688,
      "Ġzostanie": 2689,
      "onie": 2690,
      "ĠciÄħgu": 2691,
      "ĠskÅĤad": 2692,
      "ĠNiem": 2693,
      "strz": 2694,
      "Ġwyd": 2695,
      "lone": 2696,
      "Ġzmiany": 2697,
      "Ġwrze": 2698,
      "nal": 2699,
      "ĠsÄħd": 2700,
      "th": 2701,
      "Ġobser": 2702,
      "ĠÅ¼adnych": 2703,
      "owiad": 2704,
      "Dlatego": 2705,
      "nale": 2706,
      "Przez": 2707,
      "Ġjaka": 2708,
      "Sam": 2709,
      "owanej": 2710,
      "Ġwraz": 2711,
      "dne": 2712,
      "ĠCi": 2713,
      "Ġpracu": 2714,
      "Ġelekt": 2715,
      "jesz": 2716,
      "Ġeuro": 2717,
      "ĠÅĽmierci": 2718,
      "ĠII": 2719,
      "Ġinaczej": 2720,
      "kowych": 2721,
      "ĠksztaÅĤ": 2722,
      "wane": 2723,
      "Ġfun": 2724,
      "Ġpozio": 2725,
      "Ġprzewi": 2726,
      "Ġsa": 2727,
      "Ġnauczy": 2728,
      "Ġkomp": 2729,
      "Ġprzypo": 2730,
      "poÅĽ": 2731,
      "Ġnazy": 2732,
      "ĠgdyÅ¼": 2733,
      "Ġprzede": 2734,
      "ĠspeÅĤ": 2735,
      "tam": 2736,
      "Re": 2737,
      "Ġude": 2738,
      "Ġniemal": 2739,
      "ĠSo": 2740,
      "Ġmln": 2741,
      "Ġpl": 2742,
      "rowia": 2743,
      "Ġpomocy": 2744,
      "Ġznak": 2745,
      "pisa": 2746,
      "Ġcharakt": 2747,
      "powie": 2748,
      "Ġstrze": 2749,
      "tna": 2750,
      "Ġtytu": 2751,
      "ĠrobiÄĩ": 2752,
      "ĠgÅĤowy": 2753,
      "Ġ0": 2754,
      "Dzie": 2755,
      "Ġnieu": 2756,
      "noc": 2757,
      "kowaÄĩ": 2758,
      "Ġukry": 2759,
      "Ġbowiem": 2760,
      "Ġmuzy": 2761,
      "ĠskÃ³": 2762,
      "czywist": 2763,
      "ĠMie": 2764,
      "mysÅĤ": 2765,
      "ĠÅ¼yciu": 2766,
      "Ġdowo": 2767,
      "nÃ³w": 2768,
      "Ġnormal": 2769,
      "owanym": 2770,
      "Ġtaj": 2771,
      "Ġskar": 2772,
      "dzeniu": 2773,
      "ĠpaÅĦstwo": 2774,
      "ÂŃ": 2775,
      "ĠogÃ³l": 2776,
      "Ġspokoj": 2777,
      "ĠzostaÅĤo": 2778,
      "oÅĽciÄħ": 2779,
      "ĠmnÄħ": 2780,
      "ĠRze": 2781,
      "lew": 2782,
      "Ġnarod": 2783,
      "owanego": 2784,
      "Ġzni": 2785,
      "15": 2786,
      "ĠÅĽrodkÃ³w": 2787,
      "tw": 2788,
      "Ġwych": 2789,
      "zaleÅ¼": 2790,
      "ĠpieniÄĻ": 2791,
      "mÃ³w": 2792,
      "Åºni": 2793,
      "owaniem": 2794,
      "ĠchcÄĻ": 2795,
      "Ġdale": 2796,
      "onego": 2797,
      "akie": 2798,
      "Ġuwagi": 2799,
      "Ġdal": 2800,
      "pÅĤa": 2801,
      "zmu": 2802,
      "Ġotwo": 2803,
      "net": 2804,
      "Ġwyob": 2805,
      "Ġpowro": 2806,
      "Ġjedna": 2807,
      "czych": 2808,
      "Ã³wczas": 2809,
      "owaÅĤo": 2810,
      "ĠÅĽwiÄĻ": 2811,
      "Ġsier": 2812,
      "nd": 2813,
      "Ġdrogi": 2814,
      "Ġnierucho": 2815,
      "½ï¿": 2816,
      "Ġpapie": 2817,
      "Ġprzestrze": 2818,
      "rzaÅĤa": 2819,
      "ciÄħga": 2820,
      "Ġposie": 2821,
      "Ten": 2822,
      "Ġobo": 2823,
      "Ġkierunku": 2824,
      "Ġkas": 2825,
      "Ġzab": 2826,
      "szech": 2827,
      "Ġzim": 2828,
      "ania": 2829,
      "½ï¿½ï¿": 2830,
      "onÃ³w": 2831,
      "szyÄĩ": 2832,
      "ĠpiÄĻÄĩ": 2833,
      "Ġpomoc": 2834,
      "ĠkoÅĽci": 2835,
      "Ġzainteres": 2836,
      "ĠtÄħ": 2837,
      "rad": 2838,
      "Potem": 2839,
      "nij": 2840,
      "ĠÅĤo": 2841,
      "maga": 2842,
      "ĠgÅĤÄĻbo": 2843,
      "12": 2844,
      "ĠcaÅĤkowi": 2845,
      "Ġdziecko": 2846,
      "ĠrÃ³Å¼nych": 2847,
      "ÅĦska": 2848,
      "Ġrami": 2849,
      "arÃ³wno": 2850,
      "Ġdocho": 2851,
      "Ġtru": 2852,
      "ger": 2853,
      "ĠwyraÅº": 2854,
      "ĠDe": 2855,
      "Spo": 2856,
      "Ġnajmniej": 2857,
      "Ġramach": 2858,
      "cyjnego": 2859,
      "ÅĤaszcza": 2860,
      "Ġinwesty": 2861,
      "cam": 2862,
      "Ġnowo": 2863,
      "are": 2864,
      "ĠudaÅĤo": 2865,
      "Ġnieco": 2866,
      "nÄĻÅĤo": 2867,
      "dia": 2868,
      "Ġzapo": 2869,
      "Lu": 2870,
      "raÅ¼a": 2871,
      "Ġwymaga": 2872,
      "Ġpotwier": 2873,
      "asad": 2874,
      "ciej": 2875,
      "Ġnocy": 2876,
      "wajÄħ": 2877,
      "Ġelem": 2878,
      "ĠwyÅ¼": 2879,
      "kowo": 2880,
      "Ġmil": 2881,
      "Ġzanim": 2882,
      "Ġwody": 2883,
      "Panie": 2884,
      "ĠwiÄĻkszoÅĽÄĩ": 2885,
      "Ġkwo": 2886,
      "alny": 2887,
      "ĠÅĽrodowi": 2888,
      "stwie": 2889,
      "Ġwydaje": 2890,
      "com": 2891,
      "chÃ³d": 2892,
      "Ġtypu": 2893,
      "Ro": 2894,
      "Ġwojny": 2895,
      "cis": 2896,
      "Ġwypowie": 2897,
      "ĠwzglÄĻdu": 2898,
      "moc": 2899,
      "gad": 2900,
      "ĠmÃ³w": 2901,
      "OczywiÅĽcie": 2902,
      "krzy": 2903,
      "Tylko": 2904,
      "bliÅ¼": 2905,
      "Ġrozwo": 2906,
      "ĠzajÄĻ": 2907,
      "Ġocze": 2908,
      "mieniu": 2909,
      "prawie": 2910,
      "Ġzrozumie": 2911,
      "ĠwidaÄĩ": 2912,
      "Ġprem": 2913,
      "Ġwro": 2914,
      "ÄĻdzi": 2915,
      "Ġwycho": 2916,
      "ĠwyjÄħ": 2917,
      "Nawet": 2918,
      "ĠJu": 2919,
      "kÃ³j": 2920,
      "Ġwywo": 2921,
      "cent": 2922,
      "Ġpanu": 2923,
      "stw": 2924,
      "Ġstru": 2925,
      "tychmiast": 2926,
      "Ġniech": 2927,
      "les": 2928,
      "Ġbrz": 2929,
      "Ġnoc": 2930,
      "Ġbrak": 2931,
      "Ġspad": 2932,
      "ĠnadziejÄĻ": 2933,
      "Ġograni": 2934,
      "ĠBar": 2935,
      "siÄħc": 2936,
      "Ġwyro": 2937,
      "nÄĻÅĤy": 2938,
      "ĠÅĽle": 2939,
      "Ġ197": 2940,
      "ĠbÄĻdziemy": 2941,
      "ĠmoÅ¼emy": 2942,
      "eÅĤ": 2943,
      "Ġzacho": 2944,
      "Ġprzynajmniej": 2945,
      "tura": 2946,
      "rym": 2947,
      "ĠY": 2948,
      "ĠPO": 2949,
      "Ġnatychmiast": 2950,
      "Ġmocno": 2951,
      "ĠdotyczÄħce": 2952,
      "Ġdost": 2953,
      "Tu": 2954,
      "ĠwÄħtp": 2955,
      "ĠdokÅĤadnie": 2956,
      "ksztaÅĤ": 2957,
      "Ġczasem": 2958,
      "SÄħ": 2959,
      "siÄĩ": 2960,
      "zdy": 2961,
      "ĠmiaÅĤem": 2962,
      "Ġstycz": 2963,
      "ĠÂ": 2964,
      "ĠpoÅĤÄħ": 2965,
      "Tym": 2966,
      "ĠDa": 2967,
      "szli": 2968,
      "ium": 2969,
      "ÅĦskich": 2970,
      "Ġkontak": 2971,
      "Ġwojsk": 2972,
      "rzyst": 2973,
      "Ġwcale": 2974,
      "Ġskoro": 2975,
      "Bardzo": 2976,
      "Ġeg": 2977,
      "nica": 2978,
      "myÅĽl": 2979,
      "Ġuda": 2980,
      "Ġpozna": 2981,
      "ĠzgÅĤo": 2982,
      "Ġwas": 2983,
      "Ġuch": 2984,
      "ĠPan": 2985,
      "Ġinny": 2986,
      "Ġcu": 2987,
      "lim": 2988,
      "Ġpos": 2989,
      "ĠBa": 2990,
      "Ġsamego": 2991,
      "Ġzapyta": 2992,
      "giel": 2993,
      "Ġmaja": 2994,
      "tnych": 2995,
      "Ġniczym": 2996,
      "tycznie": 2997,
      "nione": 2998,
      "Ġprzekona": 2999,
      "ĠprzedsiÄĻbior": 3000,
      "Ġprzyzna": 3001,
      "ĠwziÄħ": 3002,
      "Ġ50": 3003,
      "Ġho": 3004,
      "Ġdrodze": 3005,
      "ciele": 3006,
      "roÅ¼": 3007,
      "Ġmoja": 3008,
      "Ġotwar": 3009,
      "tory": 3010,
      "Ġpodstawie": 3011,
      "Ġkonku": 3012,
      "cych": 3013,
      "Ġoznacza": 3014,
      "Pan": 3015,
      "Pier": 3016,
      "Ġprojektu": 3017,
      "Ġoto": 3018,
      "Ġtrzech": 3019,
      "ĠbyÅĤoby": 3020,
      "wnÄħ": 3021,
      "ĠmiaÅĤy": 3022,
      "unkt": 3023,
      "Ġnasze": 3024,
      "Ġwreszcie": 3025,
      "czonych": 3026,
      "ĠOd": 3027,
      "wan": 3028,
      "ĠMe": 3029,
      "Ta": 3030,
      "ĠwraÅ¼enie": 3031,
      "Ġsym": 3032,
      "mienia": 3033,
      "Ġrodzaju": 3034,
      "Ġprywat": 3035,
      "Ġrodziny": 3036,
      "Ġprawi": 3037,
      "zer": 3038,
      "Ġpocho": 3039,
      "30": 3040,
      "ĠzapytaÅĤ": 3041,
      "iÄĩ": 3042,
      "Ġlubi": 3043,
      "Ġoba": 3044,
      "ĠtÅĤuma": 3045,
      "Ġobecnie": 3046,
      "Ġpropozy": 3047,
      "skiem": 3048,
      "Ġnaszych": 3049,
      "onej": 3050,
      "kier": 3051,
      "Ġpytania": 3052,
      "Ġprzezna": 3053,
      "Ġczeka": 3054,
      "Ġzgodnie": 3055,
      "Ġzre": 3056,
      "Ġdr": 3057,
      "jeÅ¼d": 3058,
      "ĠmoÅ¼esz": 3059,
      "ĠcaÅĤej": 3060,
      "danie": 3061,
      "Ġzja": 3062,
      "Ġtwoje": 3063,
      "Ġjakiej": 3064,
      "ĠAnd": 3065,
      "Ġodpowiedni": 3066,
      "zw": 3067,
      "Ġzagro": 3068,
      "Ġszpita": 3069,
      "racji": 3070,
      "rzem": 3071,
      "Ġhi": 3072,
      "ĠosiÄħg": 3073,
      "zwy": 3074,
      "Ġsprzeda": 3075,
      "Ġadministra": 3076,
      "Ġrozwi": 3077,
      "tur": 3078,
      "ĠPrzy": 3079,
      "Ġuczest": 3080,
      "ĠjesteÅĽmy": 3081,
      "mÄĻ": 3082,
      "czkÄĻ": 3083,
      "owymi": 3084,
      "ĠokrÄĻ": 3085,
      "ĠkrÄĻ": 3086,
      "Ã³re": 3087,
      "rost": 3088,
      "Ġpojawi": 3089,
      "Ġpoprzedni": 3090,
      "sor": 3091,
      "grafi": 3092,
      "lega": 3093,
      "dziesiÄħ": 3094,
      "ĠPiS": 3095,
      "resu": 3096,
      "Ġdosko": 3097,
      "kazu": 3098,
      "ĠzarÃ³wno": 3099,
      "nne": 3100,
      "Ġpodkre": 3101,
      "Ġminut": 3102,
      "ĠpozostaÅĤ": 3103,
      "Ġwymi": 3104,
      "Ġniemiec": 3105,
      "ĠdostÄĻp": 3106,
      "Ġzaczyna": 3107,
      "ĠznaleÅºÄĩ": 3108,
      "Ġwiadom": 3109,
      "Ġzaba": 3110,
      "Ġzmieni": 3111,
      "Ġopera": 3112,
      "ckiej": 3113,
      "Ġprezyden": 3114,
      "Ġwiesz": 3115,
      "Ġmomencie": 3116,
      "Ġinstytu": 3117,
      "ĠkogoÅĽ": 3118,
      "dzili": 3119,
      "Gdyby": 3120,
      "ord": 3121,
      "Ġznacznie": 3122,
      "ÅĤÃ³": 3123,
      "Ġv": 3124,
      "Ġcier": 3125,
      "Ġil": 3126,
      "JuÅ¼": 3127,
      "Ġpowierz": 3128,
      "skar": 3129,
      "000": 3130,
      "kan": 3131,
      "nnych": 3132,
      "nka": 3133,
      "--": 3134,
      "ĠcaÅĤe": 3135,
      "ĠwokÃ³ÅĤ": 3136,
      "ĠWa": 3137,
      "ĠMu": 3138,
      "ĠbÅĤÄĻ": 3139,
      "wart": 3140,
      "woje": 3141,
      "ĠmiaÅĤo": 3142,
      "Ġgor": 3143,
      "liza": 3144,
      "str": 3145,
      "dwie": 3146,
      "Ġnaszej": 3147,
      "Ġosie": 3148,
      "dziÄĻ": 3149,
      "Ġzamiast": 3150,
      "Ġwiadomo": 3151,
      "Ġpreze": 3152,
      "Ġniko": 3153,
      "Ġprzeciwko": 3154,
      "Ġkl": 3155,
      "son": 3156,
      "ĠtysiÄĻcy": 3157,
      "Ġaktu": 3158,
      "Ġbym": 3159,
      "nieÅĽÄĩ": 3160,
      "Ġswego": 3161,
      "ĠdÅº": 3162,
      "Ġlip": 3163,
      "ĠchciaÅĤa": 3164,
      "fer": 3165,
      "cyjny": 3166,
      "waran": 3167,
      "ĠSa": 3168,
      "Ġkobieta": 3169,
      "Ġinnymi": 3170,
      "ĠpracÄĻ": 3171,
      "lika": 3172,
      "Ġdziedzi": 3173,
      "nos": 3174,
      "Ġregi": 3175,
      "ĠwyciÄħg": 3176,
      "Ġwielo": 3177,
      "liwie": 3178,
      "ĠporÃ³w": 3179,
      "kowa": 3180,
      "Ġkonkre": 3181,
      "Ġdecyz": 3182,
      "Ġnieruchom": 3183,
      "anta": 3184,
      "misja": 3185,
      "ater": 3186,
      "wz": 3187,
      "ciela": 3188,
      "kazuje": 3189,
      "wsze": 3190,
      "Ġnasz": 3191,
      "ckie": 3192,
      "Ġsuk": 3193,
      "ĠmÃ³wiÄĩ": 3194,
      "Ġdzieje": 3195,
      "rÃ³j": 3196,
      "ciec": 3197,
      "Musi": 3198,
      "znaÅĤ": 3199,
      "wien": 3200,
      "czyli": 3201,
      "Ġzaku": 3202,
      "Ġtry": 3203,
      "ĠgdzieÅĽ": 3204,
      "ÄĻdzie": 3205,
      "Ġponow": 3206,
      "ĠporzÄħdku": 3207,
      "Ġznik": 3208,
      "ĠopÅĤa": 3209,
      "Ġfizy": 3210,
      "jedno": 3211,
      "Ġzastana": 3212,
      "ĠwedÅĤug": 3213,
      "sznie": 3214,
      "ĠwidzÄĻ": 3215,
      "rzeÅĦ": 3216,
      "kowy": 3217,
      "wiÄĻksz": 3218,
      "Ġreli": 3219,
      "wicz": 3220,
      "Ġnadz": 3221,
      "cznoÅĽÄĩ": 3222,
      "gach": 3223,
      "Ġkam": 3224,
      "Ġwyzna": 3225,
      "ĠKu": 3226,
      "ÅĽciu": 3227,
      "Ġszczeg": 3228,
      "ÅĦskie": 3229,
      "Ġzawiera": 3230,
      "ĠposÅĤa": 3231,
      "ĠmoÅ¼liwoÅĽÄĩ": 3232,
      "Ġartyku": 3233,
      "Ġgot": 3234,
      "czÄħcy": 3235,
      "Ġministra": 3236,
      "alnych": 3237,
      "Ġpierwszej": 3238,
      "........": 3239,
      "Ġstanu": 3240,
      "Ġwyna": 3241,
      "Ġbla": 3242,
      "ĠWil": 3243,
      "Ġhistorii": 3244,
      "Ġauto": 3245,
      "ÄħdÅº": 3246,
      "anow": 3247,
      "Ġrzeczywist": 3248,
      "Ġklasy": 3249,
      "ĠchÄĻ": 3250,
      "Ġmojego": 3251,
      "ĠÅĤÃ³Å¼": 3252,
      "ÅĤaÅĤ": 3253,
      ".)": 3254,
      "ĠzostaÄĩ": 3255,
      "obi": 3256,
      "Ġcywi": 3257,
      "17": 3258,
      "Dlaczego": 3259,
      "ĠgÃ³r": 3260,
      "Ġzespo": 3261,
      "ĠurzÄħ": 3262,
      "Ġtech": 3263,
      "szÄħc": 3264,
      "Ġpowy": 3265,
      "Ġchcesz": 3266,
      "Ġdostrze": 3267,
      "Ġnowych": 3268,
      "ĠwÃ³wczas": 3269,
      "ĠNarod": 3270,
      "szam": 3271,
      "ram": 3272,
      "16": 3273,
      "Ġeko": 3274,
      "ĠprÄĻ": 3275,
      "czona": 3276,
      "nomi": 3277,
      "Ġana": 3278,
      "Ġkapi": 3279,
      "Ġ24": 3280,
      "nny": 3281,
      "ĠwidziaÅĤ": 3282,
      "Ġkim": 3283,
      "ĠmyÅĽle": 3284,
      "prawi": 3285,
      "stro": 3286,
      "ĠAu": 3287,
      "ĠSy": 3288,
      "Ġanty": 3289,
      "ĠczegoÅĽ": 3290,
      "ĠzarzÄħ": 3291,
      "Ġojciec": 3292,
      "Åºdzier": 3293,
      "Ġzdaniem": 3294,
      "ĠwartoÅĽci": 3295,
      "Ã³g": 3296,
      "cyjnej": 3297,
      "legÅĤo": 3298,
      "Ġtek": 3299,
      "ĠMich": 3300,
      "jÄħco": 3301,
      "ĠPod": 3302,
      "Ġgrupy": 3303,
      "Ġprawdopodob": 3304,
      "ĠcÃ³r": 3305,
      "Ġzapom": 3306,
      "kÄħd": 3307,
      "Ġopowie": 3308,
      "ĠmieszkaÅĦcÃ³w": 3309,
      "Ġreprez": 3310,
      "Ġpora": 3311,
      "niÄĻcia": 3312,
      "Ġuczu": 3313,
      "ĠPe": 3314,
      "dzam": 3315,
      "oÅĤa": 3316,
      "cjonal": 3317,
      "Ġdobry": 3318,
      "onymi": 3319,
      "//": 3320,
      "ĠzakÅĤa": 3321,
      "ĠpieniÄĻdzy": 3322,
      "ÅĽciÄĩ": 3323,
      "pisu": 3324,
      "Ġpunkt": 3325,
      "obrze": 3326,
      "ĠBy": 3327,
      "Ġniebezpie": 3328,
      "Przed": 3329,
      "Ġpisa": 3330,
      "niÄĻcie": 3331,
      "sÅĤugi": 3332,
      "Ġgry": 3333,
      "ĠjednoczeÅĽnie": 3334,
      "50": 3335,
      "nice": 3336,
      "DD": 3337,
      "nes": 3338,
      "ĠÅ¼adnego": 3339,
      "Ġsiedzi": 3340,
      "Ġwybu": 3341,
      "czaÅĤ": 3342,
      "ÅĦskim": 3343,
      "ĠuwaÅ¼a": 3344,
      "ĠbezpoÅĽ": 3345,
      "ÅĽciÄħ": 3346,
      "rwaÅĤ": 3347,
      "Ġszans": 3348,
      "ĠJan": 3349,
      "del": 3350,
      "Ġzmienia": 3351,
      "Ġpowinna": 3352,
      "atyw": 3353,
      "ton": 3354,
      "ĠBe": 3355,
      "Li": 3356,
      "Ġgmi": 3357,
      "mar": 3358,
      "ĠpomiÄĻdzy": 3359,
      "Ġkorzysta": 3360,
      "Ġodda": 3361,
      "Ġprogram": 3362,
      "lity": 3363,
      "sia": 3364,
      "Ġstat": 3365,
      "nemu": 3366,
      "Ġnaszego": 3367,
      "kazaÄĩ": 3368,
      "ĠpaÅºdzier": 3369,
      "ĠWiel": 3370,
      "Ġuprze": 3371,
      "Ġrynku": 3372,
      "koÅĽÄĩ": 3373,
      "14": 3374,
      "Ġtelewi": 3375,
      "Ġodkry": 3376,
      "ckich": 3377,
      "Ġproc": 3378,
      "Ġprzypom": 3379,
      "gh": 3380,
      "Ġblo": 3381,
      "emi": 3382,
      "entÃ³w": 3383,
      "ĠrzÄħdu": 3384,
      "nowa": 3385,
      "rob": 3386,
      "nami": 3387,
      "ĠzwÅĤaszcza": 3388,
      "Ġ193": 3389,
      "Ġfirmy": 3390,
      "Mie": 3391,
      "alnego": 3392,
      "ĠchcÄħ": 3393,
      "Ġameryka": 3394,
      "Ġhand": 3395,
      "ĠzÅĤa": 3396,
      "Ġha": 3397,
      "iera": 3398,
      "ĠkaÅ¼dego": 3399,
      "ownie": 3400,
      "Ġodpowiada": 3401,
      "Ġpory": 3402,
      "Ġkobiet": 3403,
      "Ġzor": 3404,
      "Ġdoj": 3405,
      "Ġface": 3406,
      "narod": 3407,
      "Ġmiast": 3408,
      "ww": 3409,
      "ĠpodÅĤo": 3410,
      "naÅĤ": 3411,
      "Ġkwiet": 3412,
      "13": 3413,
      "Ġwypo": 3414,
      "ĠwysokoÅĽci": 3415,
      "rÄĻcz": 3416,
      "bor": 3417,
      "Ġpoch": 3418,
      "Al": 3419,
      "ĠodparÅĤ": 3420,
      "Ġpomi": 3421,
      "tat": 3422,
      "owanÄħ": 3423,
      "jÄĻcie": 3424,
      "Ġdotyczy": 3425,
      "ĠdziaÅĤ": 3426,
      "tyj": 3427,
      "Ġnazwi": 3428,
      "ÅĽciÅĤ": 3429,
      "Ġnum": 3430,
      "szuki": 3431,
      "ĠÅ»y": 3432,
      "Ġjakich": 3433,
      "stemu": 3434,
      "Ġ196": 3435,
      "Ġtrakt": 3436,
      "ĠwyÅ¼ej": 3437,
      "Ġpowinno": 3438,
      "Ġ[": 3439,
      "kla": 3440,
      "puszcz": 3441,
      "MyÅĽl": 3442,
      "Ġsierp": 3443,
      "Ġpierwszym": 3444,
      "iel": 3445,
      "ĠciaÅĤa": 3446,
      "Ġdoprowa": 3447,
      "Ġzarzu": 3448,
      "wki": 3449,
      "Ġfilm": 3450,
      "waj": 3451,
      "Ġubra": 3452,
      "lot": 3453,
      "DZ": 3454,
      "Ã³ki": 3455,
      "Ġpozwala": 3456,
      "roni": 3457,
      "Ġgrze": 3458,
      "Ġpoje": 3459,
      "Ġznajom": 3460,
      "ĠpÅĤo": 3461,
      "ĠTu": 3462,
      "Ġ22": 3463,
      "Ġodrzu": 3464,
      "Å¼na": 3465,
      "owaÅĦ": 3466,
      "zdu": 3467,
      "jach": 3468,
      "Ġprzyby": 3469,
      "ĠUkrai": 3470,
      "kowej": 3471,
      "tÃ³": 3472,
      "Ġlisto": 3473,
      "ĠLa": 3474,
      "ĠpiÄħ": 3475,
      "wiajÄħ": 3476,
      "Ġdanych": 3477,
      "Ġscho": 3478,
      "Ġdobra": 3479,
      "ĠpiÅĤ": 3480,
      "gami": 3481,
      "Ġzatru": 3482,
      "ĠnastÄĻpu": 3483,
      "pia": 3484,
      "ĠOr": 3485,
      "ytaÅĤa": 3486,
      "Ġnatural": 3487,
      "ĠDu": 3488,
      "ĠpÃ³j": 3489,
      "kÅĤo": 3490,
      "tarz": 3491,
      "Ġstycznia": 3492,
      "ĠUSA": 3493,
      "Ġniczego": 3494,
      "feren": 3495,
      "ÅĦca": 3496,
      "ĠmÃ³wiÄħc": 3497,
      "Ġkad": 3498,
      "siej": 3499,
      "Ġcztery": 3500,
      "wym": 3501,
      "Ġprofe": 3502,
      "woz": 3503,
      "ĠjakoÅĽ": 3504,
      "rat": 3505,
      "wany": 3506,
      "ĠmiesiÄĻcy": 3507,
      "ĠMarszaÅĤ": 3508,
      "moÅ¼li": 3509,
      "ĠszczegÃ³lnie": 3510,
      "wajÄħc": 3511,
      "Ġnaszym": 3512,
      "Ã³rych": 3513,
      "zwo": 3514,
      "ĠwspÃ³ÅĤpra": 3515,
      "ĠszkoÅĤy": 3516,
      "Ġsena": 3517,
      "wego": 3518,
      "ĠbyÅĤem": 3519,
      "Ġpewien": 3520,
      "ĠpoÅĤ": 3521,
      "ĠzaÅĤ": 3522,
      "ĠÅĤad": 3523,
      "ont": 3524,
      "Ġidzie": 3525,
      "arÄĻ": 3526,
      "ĠpÄĻ": 3527,
      "Ġpostanowi": 3528,
      "Ġruchu": 3529,
      "ĠparÄĻ": 3530,
      "Ġznajdu": 3531,
      "ĠleÅ¼": 3532,
      "Ġspowo": 3533,
      "rektor": 3534,
      "ĠHe": 3535,
      "Ġzmu": 3536,
      "krotnie": 3537,
      "niec": 3538,
      "ĠRy": 3539,
      "Ġojca": 3540,
      "ĠwyÅĤÄħcznie": 3541,
      "ĠgÅĤÃ³wnie": 3542,
      "Ġlud": 3543,
      "Ã³z": 3544,
      "Ġmedy": 3545,
      "Ġprzyjem": 3546,
      "sam": 3547,
      "las": 3548,
      "Ġniezwy": 3549,
      "gor": 3550,
      "wnÄħtrz": 3551,
      "ĠgwaÅĤ": 3552,
      "ĠmuszÄĻ": 3553,
      "godni": 3554,
      "Ġznajduje": 3555,
      "Ġzatem": 3556,
      "Ġit": 3557,
      "Ġczer": 3558,
      "WÅĤa": 3559,
      "ĠzrobiÅĤ": 3560,
      "ĠkÄħ": 3561,
      "ĠSi": 3562,
      "Ġnos": 3563,
      "bel": 3564,
      "ĠrzeczywiÅĽcie": 3565,
      "ttp": 3566,
      "wzglÄĻ": 3567,
      "ĠdziesiÄĻ": 3568,
      "Ġwygra": 3569,
      "rak": 3570,
      "ĠmogÅĤo": 3571,
      "gnÄħÅĤ": 3572,
      "AN": 3573,
      "Ġbrze": 3574,
      "ĠRu": 3575,
      "ÅĽciej": 3576,
      "Ġsystemu": 3577,
      "fy": 3578,
      "ĠoÅĽwiad": 3579,
      "Ġostatnie": 3580,
      "ĠÅĽla": 3581,
      "Ġwers": 3582,
      "fika": 3583,
      "Ġmiasto": 3584,
      "Ġwam": 3585,
      "Ze": 3586,
      "://": 3587,
      "niÄĻte": 3588,
      "Ġgar": 3589,
      "bieg": 3590,
      "Ġsiost": 3591,
      "niwer": 3592,
      "ĠWe": 3593,
      "ĠRady": 3594,
      "ĠÅĽredni": 3595,
      "spÃ³ÅĤ": 3596,
      "Ġfakt": 3597,
      "Ġprote": 3598,
      "ĠprzestÄĻp": 3599,
      "Powie": 3600,
      "ĠmiesiÄħ": 3601,
      "jaw": 3602,
      "tychczas": 3603,
      "ĠzwiÄĻk": 3604,
      "atomiast": 3605,
      "Ġofer": 3606,
      "koÅĦ": 3607,
      "Ġtajem": 3608,
      "ĠCie": 3609,
      "Ġszef": 3610,
      "szek": 3611,
      "pienia": 3612,
      "Ġzdrowia": 3613,
      "Ġpodmio": 3614,
      "ĠduÅ¼e": 3615,
      "Ġsami": 3616,
      "Ġpopu": 3617,
      "Ġuwie": 3618,
      "Ġpowinni": 3619,
      "Ġmiesz": 3620,
      "jechaÅĤ": 3621,
      "kazaÅĤ": 3622,
      "Å¼ony": 3623,
      "nÄĻli": 3624,
      "Ġzawod": 3625,
      "Ġdokumen": 3626,
      "ĠsiÅĤ": 3627,
      "Ġbudy": 3628,
      "Ġmeto": 3629,
      "dziaÅĤu": 3630,
      "Ġtrudno": 3631,
      "nÄħÅĤem": 3632,
      "Ġmart": 3633,
      "rzÄħc": 3634,
      "Ġmoich": 3635,
      "ĠwrzeÅĽnia": 3636,
      "Ġgodzin": 3637,
      "Ġpotrzebu": 3638,
      "ĠzwrÃ³ci": 3639,
      "ĠmoÅ¼liwe": 3640,
      "ĠPu": 3641,
      "ĠcaÅĤym": 3642,
      "biega": 3643,
      "wych": 3644,
      "ĠrzekÅĤ": 3645,
      "Ġzapis": 3646,
      "Ġpolega": 3647,
      "Ġmini": 3648,
      "Ġargu": 3649,
      "wiam": 3650,
      "ĠrÃ³Å¼ne": 3651,
      "Ġruch": 3652,
      "qu": 3653,
      "Å¼one": 3654,
      "ĠbÅĤy": 3655,
      "Ġzi": 3656,
      "AT": 3657,
      "Poza": 3658,
      "ĠkrÃ³l": 3659,
      "ĠBu": 3660,
      "Ġkonsu": 3661,
      "Ġkoch": 3662,
      "wej": 3663,
      "Ġuczy": 3664,
      "Ġnami": 3665,
      "!!": 3666,
      "Ġpokry": 3667,
      "Ġsamej": 3668,
      "tÄħd": 3669,
      "aÅĤbym": 3670,
      "Natomiast": 3671,
      "ĠwiedzieÄĩ": 3672,
      "Ġmaszy": 3673,
      "Ġpoprzez": 3674,
      "ĠmojÄħ": 3675,
      "Ġ40": 3676,
      "ĠgÃ³ry": 3677,
      "Ġwniosek": 3678,
      "Ost": 3679,
      "Trze": 3680,
      "bry": 3681,
      "Ġniewiel": 3682,
      "Ġwykony": 3683,
      "dania": 3684,
      "Ġprzycho": 3685,
      "ĠwÄħtpliwoÅĽci": 3686,
      "waniu": 3687,
      "ĠÅĽwiadom": 3688,
      "ora": 3689,
      "ĠnastÄĻpnie": 3690,
      "ĠmÄĻÅ¼czyzna": 3691,
      "szem": 3692,
      "ĠnieruchomoÅĽci": 3693,
      "lub": 3694,
      "Ġprzyczy": 3695,
      "chnÄħÅĤ": 3696,
      "ĠmuszÄħ": 3697,
      "ĠsiÅĤy": 3698,
      "Ġrozumiem": 3699,
      "Ġnowego": 3700,
      "Ġsm": 3701,
      "br": 3702,
      "biegÅĤ": 3703,
      "Ġskute": 3704,
      "Ġblisko": 3705,
      "end": 3706,
      "ĠdowÃ³d": 3707,
      "Ġstu": 3708,
      "ĠposÅĤÃ³w": 3709,
      "KaÅ¼": 3710,
      "ĠpomocÄħ": 3711,
      "ĠwewnÄĻtrz": 3712,
      "ĠPolska": 3713,
      "Jeszcze": 3714,
      "Ġgodziny": 3715,
      "Ġnied": 3716,
      "Ġchoro": 3717,
      "Ġautor": 3718,
      "Ġkolejne": 3719,
      "Ġpolicj": 3720,
      "ĠKrakowie": 3721,
      "tyczne": 3722,
      "Ġpostaci": 3723,
      "ĠzaczÄĻÅĤa": 3724,
      "tnej": 3725,
      "rozumie": 3726,
      "Ġusu": 3727,
      "czoraj": 3728,
      "syte": 3729,
      "Ġdziecka": 3730,
      "Ġgrudnia": 3731,
      "lec": 3732,
      "grze": 3733,
      "piÄħ": 3734,
      "kam": 3735,
      "ks": 3736,
      "Ġ'": 3737,
      "Ġpacje": 3738,
      "ByÅĤa": 3739,
      "Ġpolskich": 3740,
      "ver": 3741,
      "inform": 3742,
      "Ġkolei": 3743,
      "Ġczerwca": 3744,
      "cin": 3745,
      "niwersyte": 3746,
      "Ġokresie": 3747,
      "Ġsmu": 3748,
      "Ġsposob": 3749,
      "ĠskoÅĦ": 3750,
      "zny": 3751,
      "jak": 3752,
      "ĠbÄĻdziesz": 3753,
      "PrzecieÅ¼": 3754,
      "Ġtygod": 3755,
      "nicÄĻ": 3756,
      "zyj": 3757,
      "ĠzapÅĤa": 3758,
      "Ġprez": 3759,
      "Ġkrze": 3760,
      "ciÃ³ÅĤ": 3761,
      "krÃ³t": 3762,
      "ĠgÅĤoÅĽ": 3763,
      "Ġdaje": 3764,
      "enty": 3765,
      "Ġkart": 3766,
      "24": 3767,
      "Ġwydat": 3768,
      "ĠcaÅĤkiem": 3769,
      "ĠgÅĤosu": 3770,
      "Ġsytuacja": 3771,
      "ĠRoz": 3772,
      "Ġplu": 3773,
      "ĠBer": 3774,
      "Ġobsz": 3775,
      "ĠprÃ³bu": 3776,
      "ĠpomysÅĤ": 3777,
      "ĠwÅĤÄħ": 3778,
      "czasem": 3779,
      "Ġponownie": 3780,
      "Å»e": 3781,
      "WedÅĤug": 3782,
      "Ġ195": 3783,
      "byÅĽ": 3784,
      "Ġtzw": 3785,
      "ĠnajwaÅ¼": 3786,
      "szÅĤ": 3787,
      "ĠmieÅĽcie": 3788,
      "Ġprezydent": 3789,
      "praszam": 3790,
      "cjami": 3791,
      "Pi": 3792,
      "Ġterenie": 3793,
      "Ġkm": 3794,
      "Ġniewy": 3795,
      "Ġzer": 3796,
      "ĠRad": 3797,
      "Ġtyp": 3798,
      "czeÅĦstwo": 3799,
      "ĠSam": 3800,
      "RO": 3801,
      "Ġdar": 3802,
      "ĠzwyciÄĻ": 3803,
      "czer": 3804,
      "Ġodpowiedzial": 3805,
      "Jej": 3806,
      "Ġfran": 3807,
      "tnoÅĽci": 3808,
      "Ġzwykle": 3809,
      "Ġzob": 3810,
      "ST": 3811,
      "Ġwpad": 3812,
      "Ġspodzie": 3813,
      "Ġgu": 3814,
      "Ġwykorzy": 3815,
      "Jestem": 3816,
      "Ġlipca": 3817,
      "Ġsumie": 3818,
      "Ġ23": 3819,
      "ortu": 3820,
      "rii": 3821,
      "ĠPar": 3822,
      "Ar": 3823,
      "Ġsyn": 3824,
      "wor": 3825,
      "ĠszczÄĻÅĽcie": 3826,
      "Ġopowiada": 3827,
      "ĠniektÃ³rych": 3828,
      "Ġzagra": 3829,
      "czyÅĤo": 3830,
      "koÅĤa": 3831,
      "dzony": 3832,
      "Wszystko": 3833,
      "Ġsez": 3834,
      "Ġzga": 3835,
      "Ġlokal": 3836,
      "Ġbroni": 3837,
      "Ġitd": 3838,
      "ĠpomÃ³": 3839,
      "klu": 3840,
      "bur": 3841,
      "mia": 3842,
      "ĠHa": 3843,
      "Ġpowoli": 3844,
      "Ġryzy": 3845,
      "Ġtransp": 3846,
      "szczenia": 3847,
      "niaÅĤa": 3848,
      "wski": 3849,
      "syw": 3850,
      "Ġkredy": 3851,
      "ĠjakiegoÅĽ": 3852,
      "ĠwziÄĻ": 3853,
      "Ġkrwi": 3854,
      "lii": 3855,
      "ĠciaÅĤo": 3856,
      "dzien": 3857,
      "Ġeksper": 3858,
      "Ġpowiet": 3859,
      "ĠSena": 3860,
      "lona": 3861,
      "ĠGo": 3862,
      "Ġup": 3863,
      "Ġostatnich": 3864,
      "Ġodez": 3865,
      "ÅĤach": 3866,
      "ĠZie": 3867,
      "szki": 3868,
      "Sta": 3869,
      "ens": 3870,
      "rzad": 3871,
      "Ġinformacje": 3872,
      "Ġrady": 3873,
      "Ġokazji": 3874,
      "cÅĤa": 3875,
      "Ġmarca": 3876,
      "szczegÃ³l": 3877,
      "Pa": 3878,
      "Ġrozwoju": 3879,
      "Ġpozba": 3880,
      "wolu": 3881,
      "Ġznie": 3882,
      "lina": 3883,
      "Ġkompu": 3884,
      "lepiej": 3885,
      "Ġzrozu": 3886,
      "wiajÄħc": 3887,
      "Ġkandy": 3888,
      "Ġwier": 3889,
      "leks": 3890,
      "ĠRz": 3891,
      "11": 3892,
      "mÃ³wi": 3893,
      "Ġszczy": 3894,
      "Ġpewne": 3895,
      "giÄĻ": 3896,
      "ĠMy": 3897,
      "knÄĻÅĤa": 3898,
      "Ġprowadzi": 3899,
      "ĠkaÅ¼dej": 3900,
      "ĠGa": 3901,
      "Ġnowy": 3902,
      "ĠÅºrÃ³d": 3903,
      "Ġsame": 3904,
      "Ġdotar": 3905,
      "ĠdziaÅĤaÅĦ": 3906,
      "ĠwÅĤaÅĽciwie": 3907,
      "Ġtor": 3908,
      "ĠpewnoÅĽciÄħ": 3909,
      "Ġokres": 3910,
      "ĠspÄĻ": 3911,
      "Ġprzedmio": 3912,
      "Ġaut": 3913,
      "mier": 3914,
      "owani": 3915,
      "Ġulicy": 3916,
      "usza": 3917,
      "ĠNaj": 3918,
      "ÅĤopo": 3919,
      "ĠPio": 3920,
      "ĠgÅĤowie": 3921,
      "ĠpracownikÃ³w": 3922,
      "dny": 3923,
      "Ġistnieje": 3924,
      "Ġskle": 3925,
      "ĠdziaÅĤalnoÅĽci": 3926,
      "ĠsprzÄĻ": 3927,
      "Ġoskar": 3928,
      "wam": 3929,
      "Ġostate": 3930,
      "Ġbry": 3931,
      "iom": 3932,
      "Ġoczeki": 3933,
      "ĠMinist": 3934,
      "ĠcaÅĤkowicie": 3935,
      "ĠbÄħdÅº": 3936,
      "Ġwybor": 3937,
      "ĠwypeÅĤ": 3938,
      "ĠwyraÅºnie": 3939,
      "dzaÄĩ": 3940,
      "ĠdÅĤugi": 3941,
      "anki": 3942,
      "ĠWarszawie": 3943,
      "Ġrek": 3944,
      "ktury": 3945,
      "Ġdecyzji": 3946,
      "ĠwystÄĻpu": 3947,
      "mii": 3948,
      "szt": 3949,
      "nar": 3950,
      "Ġwyt": 3951,
      "Ġchor": 3952,
      "ph": 3953,
      "Ġinteres": 3954,
      "Å¼ÄĻ": 3955,
      "niosÅĤa": 3956,
      "Ġlekko": 3957,
      "Ġopar": 3958,
      "ckim": 3959,
      "mentÃ³w": 3960,
      "Ġwspar": 3961,
      "ĠzresztÄħ": 3962,
      "Ġkonty": 3963,
      "ĠpÃ³ÅĤnoc": 3964,
      "ĠzdÄħ": 3965,
      "Ġzbro": 3966,
      "ĠwÅĤadzy": 3967,
      "Ġmiej": 3968,
      "raÅĤ": 3969,
      "sÅĤo": 3970,
      "ĠpoÅĽwiÄĻ": 3971,
      "Ġcharakter": 3972,
      "szyÅĤa": 3973,
      "cym": 3974,
      "ĠkawaÅĤ": 3975,
      "ĠwiÄĻzie": 3976,
      "Ġdniu": 3977,
      "Ġhistory": 3978,
      "port": 3979,
      "gat": 3980,
      "Ġuzyska": 3981,
      "Ġstanowisko": 3982,
      "Ġ27": 3983,
      "Ġemo": 3984,
      "Ġpoziomie": 3985,
      "caÄĩ": 3986,
      "Ġdia": 3987,
      "Ġzaka": 3988,
      "urat": 3989,
      "Ġinni": 3990,
      "krÃ³tce": 3991,
      "Ġtrady": 3992,
      "ĠmÄĻÅ¼czyzn": 3993,
      "dzieÅĦ": 3994,
      "Ġsukce": 3995,
      "Bi": 3996,
      "Ġspod": 3997,
      "ĠSte": 3998,
      "Ġgrup": 3999,
      "Ġpunktu": 4000,
      "ĠUnii": 4001,
      "Ġczemu": 4002,
      "ĠSu": 4003,
      "Ġwiat": 4004,
      "Ġdotychczas": 4005,
      "Ġska": 4006,
      "ganiz": 4007,
      "ĠspojrzaÅĤ": 4008,
      "CZ": 4009,
      "Ġzabezpie": 4010,
      "Ġdop": 4011,
      "Ġ*": 4012,
      "Ġdzisiej": 4013,
      "Ġwzrok": 4014,
      "deÅĤ": 4015,
      "ychi": 4016,
      "rÃ³cz": 4017,
      "ĠdrogÄĻ": 4018,
      "erw": 4019,
      "dzeniem": 4020,
      "ĠÅºle": 4021,
      "Ġpodobnie": 4022,
      "dzeÅĦ": 4023,
      "ĠLo": 4024,
      "ĠÄĩ": 4025,
      "Ġkwietnia": 4026,
      "Bez": 4027,
      "ĠStan": 4028,
      "Ġznajdzie": 4029,
      "zj": 4030,
      "Ġniestety": 4031,
      "ĠskÄħd": 4032,
      "Ġwykorzysta": 4033,
      "Ġzgi": 4034,
      "ĠwpÅĤyw": 4035,
      "gni": 4036,
      "okra": 4037,
      "Ġwypadku": 4038,
      "Ġtrakcie": 4039,
      "Ġspa": 4040,
      "ff": 4041,
      "Ġsali": 4042,
      "ĠbudÅ¼et": 4043,
      "ĠsÅĤÃ³w": 4044,
      "Ġniewi": 4045,
      "ĠzwierzÄĻ": 4046,
      "Ġszuka": 4047,
      "Ġzebra": 4048,
      "Ġpoinform": 4049,
      "ĠogÅĤo": 4050,
      "ĠFi": 4051,
      "Wtedy": 4052,
      "ĠbudÅ¼etu": 4053,
      "Ġnajpierw": 4054,
      "ĠprzeszÅĤoÅĽci": 4055,
      "Ġsub": 4056,
      "Ġwyrzu": 4057,
      "ĠdÅĤoÅĦ": 4058,
      "gla": 4059,
      "ĠPanie": 4060,
      "Ġzdol": 4061,
      "Ġkomisji": 4062,
      "Ġzasko": 4063,
      "Ġrozpat": 4064,
      "Ġosoba": 4065,
      "Ġupraw": 4066,
      "leÅĦ": 4067,
      "imi": 4068,
      "RA": 4069,
      "ĠpaÅºdziernika": 4070,
      "ĠÅ¼adnej": 4071,
      "wÅĤa": 4072,
      "ÄħÅ¼": 4073,
      "ĠÅĽwiet": 4074,
      "Ġodbi": 4075,
      "gaÅĤ": 4076,
      "dzwo": 4077,
      "dliwoÅĽci": 4078,
      "ĠmogÅĤy": 4079,
      "Ġpostawi": 4080,
      "ĠrozpoczÄĻ": 4081,
      "Ġakurat": 4082,
      "ient": 4083,
      "ĠprawidÅĤ": 4084,
      "Ġrosyj": 4085,
      "Ġmistrz": 4086,
      "Ġpoprawki": 4087,
      "wcze": 4088,
      "Ġdrew": 4089,
      "ss": 4090,
      "wach": 4091,
      "Ġczyta": 4092,
      "Ġodwie": 4093,
      "rol": 4094,
      "Ġszep": 4095,
      "ĠwÅĤosy": 4096,
      "nin": 4097,
      "dniego": 4098,
      "bÃ³w": 4099,
      "Ġaktyw": 4100,
      "Ġgi": 4101,
      "ĠposÅĤu": 4102,
      "ĠMoÅ¼e": 4103,
      "ĠnajbliÅ¼": 4104,
      "Ġpozwoli": 4105,
      "ĠprzyjaciÃ³ÅĤ": 4106,
      "ĠspytaÅĤ": 4107,
      "czeniem": 4108,
      "Ġitp": 4109,
      "dziesiÄħt": 4110,
      "ĠracjÄĻ": 4111,
      "Ġodzy": 4112,
      "ĠsÅĤucha": 4113,
      "ĠjakÄħÅĽ": 4114,
      "Ġwalki": 4115,
      "Ġag": 4116,
      "dii": 4117,
      "Ġproblemy": 4118,
      "ĠcaÅĤego": 4119,
      "Å¼eÅĦ": 4120,
      "ĠProkura": 4121,
      "ĠEuropejskiej": 4122,
      "Ġzajm": 4123,
      "Ġpr": 4124,
      "ĠokreÅĽl": 4125,
      "ion": 4126,
      "Ġzamy": 4127,
      "Ġpomie": 4128,
      "Ġocho": 4129,
      "Ġkomunika": 4130,
      "Ġoczach": 4131,
      "ĠDzie": 4132,
      "Ġmru": 4133,
      "torÃ³w": 4134,
      "wentu": 4135,
      "Ġbru": 4136,
      "Ġnumer": 4137,
      "Ġpoziom": 4138,
      "ĠstaÄĩ": 4139,
      "aliÅĽmy": 4140,
      "ĠÅĽrodki": 4141,
      "ujÄħ": 4142,
      "nuje": 4143,
      "piÄĩ": 4144,
      "Ġobli": 4145,
      "spoli": 4146,
      "ĠcaÅĤa": 4147,
      "SZ": 4148,
      "ktÃ³w": 4149,
      "dziÅĤo": 4150,
      "Ġsierpnia": 4151,
      "Ġsprawoz": 4152,
      "ĠbezpoÅĽredni": 4153,
      "ĠxD": 4154,
      "niÄĻty": 4155,
      "wana": 4156,
      "Ġkos": 4157,
      "Ġoku": 4158,
      "Ġdaleko": 4159,
      "Ġmecha": 4160,
      "niaÄĩ": 4161,
      "alnej": 4162,
      "ĠKrzy": 4163,
      "aliz": 4164,
      "lizacji": 4165,
      "ĠszczegÃ³ÅĤ": 4166,
      "Ġwolno": 4167,
      "Ġnogi": 4168,
      "Ġfra": 4169,
      "Ġwarto": 4170,
      "dzonych": 4171,
      "Ġ26": 4172,
      "Ġprezydenta": 4173,
      "ĠwaÅ¼ne": 4174,
      "ĠzaleÅ¼": 4175,
      "wienia": 4176,
      "Ġdyrektor": 4177,
      "ĠmÃ³wiÄĻ": 4178,
      "Ot": 4179,
      "Ġkonsek": 4180,
      "ntÃ³w": 4181,
      "ĠzobaczyÄĩ": 4182,
      "Ġdwo": 4183,
      "Ġwil": 4184,
      "Ġzdzi": 4185,
      "Ġdrugim": 4186,
      "Ġorze": 4187,
      "dak": 4188,
      "Ġpiersi": 4189,
      "lami": 4190,
      "ĠzwiÄħzane": 4191,
      "cisk": 4192,
      "Ġpad": 4193,
      "Ġoka": 4194,
      "Ġare": 4195,
      "Ġinf": 4196,
      "Ġwscho": 4197,
      "ĠpÅĤ": 4198,
      "Ġmatka": 4199,
      "tkiem": 4200,
      "ina": 4201,
      "Ġzwol": 4202,
      "ĠnastÄħpi": 4203,
      "Ġkolejny": 4204,
      "NastÄĻp": 4205,
      "niejszych": 4206,
      "jmy": 4207,
      "ĠWarszawa": 4208,
      "Mar": 4209,
      "Ġgodz": 4210,
      "Da": 4211,
      "niony": 4212,
      "ĠodpowiedÅº": 4213,
      "Ġprzypomina": 4214,
      "lne": 4215,
      "Kon": 4216,
      "ĠGra": 4217,
      "MÃ³wi": 4218,
      "Ġwsi": 4219,
      "ĠTa": 4220,
      "ĠmÃ³wiÄħ": 4221,
      "kowego": 4222,
      "lia": 4223,
      "ĠGe": 4224,
      "ĠCent": 4225,
      "lik": 4226,
      "styczne": 4227,
      "Ġtechni": 4228,
      "Ġubezpie": 4229,
      "Ġtrwa": 4230,
      "Ġprosto": 4231,
      "ĠodpowiedziaÅĤ": 4232,
      "byÅĽmy": 4233,
      "Ġ28": 4234,
      "Ġkryty": 4235,
      "fie": 4236,
      "Ġpsycho": 4237,
      "ÅĽliÄĩ": 4238,
      "ĠniezaleÅ¼": 4239,
      "ĠbezpieczeÅĦstwa": 4240,
      "Ġkomenta": 4241,
      "Ġpolskiego": 4242,
      "Ġseku": 4243,
      "ĠzÄĻ": 4244,
      "ĠstÄħd": 4245,
      "Ġupad": 4246,
      "Ġwynosi": 4247,
      "Ġid": 4248,
      "tkowo": 4249,
      "Ġzawie": 4250,
      "Ġskier": 4251,
      "Ġtymi": 4252,
      "fik": 4253,
      "Ġhttp": 4254,
      "dzisz": 4255,
      "ĠEl": 4256,
      "Mimo": 4257,
      "owskiego": 4258,
      "dziela": 4259,
      "Ġiz": 4260,
      "ĠznalazÅĤ": 4261,
      "ĠjakimÅĽ": 4262,
      "tnego": 4263,
      "ĠnajwiÄĻksz": 4264,
      "ĠchciaÅĤbym": 4265,
      "On": 4266,
      "Ġpopro": 4267,
      "Ġmedi": 4268,
      "Ġorganiz": 4269,
      "ĠwiÄĻkszoÅĽci": 4270,
      "ĠczymÅĽ": 4271,
      "Ġlistopada": 4272,
      "Ġstoi": 4273,
      "Ġzbli": 4274,
      "miaÅĤa": 4275,
      "nictwo": 4276,
      "Nic": 4277,
      "ĠCze": 4278,
      "letnie": 4279,
      "Ġwstrzym": 4280,
      "Ġdane": 4281,
      "Ã©": 4282,
      "Ġspecjali": 4283,
      "Ġprag": 4284,
      "Ġinteresu": 4285,
      "Mu": 4286,
      "Ġthe": 4287,
      "ĠstaÅĤa": 4288,
      "Ġtrans": 4289,
      "Ġbudow": 4290,
      "ĠdaÄĩ": 4291,
      "Ġuj": 4292,
      "dek": 4293,
      "ĠÅĤu": 4294,
      "ĠSejmu": 4295,
      "Ġzastos": 4296,
      "Ġwizy": 4297,
      "Ġgwia": 4298,
      "Ġciep": 4299,
      "ĠsÄĻdzi": 4300,
      "Ġpisze": 4301,
      "Ġkup": 4302,
      "Ġspokojnie": 4303,
      "ama": 4304,
      "Ġkryter": 4305,
      "Czas": 4306,
      "ĠgÄĻ": 4307,
      "Ġdelika": 4308,
      "aks": 4309,
      "Ġinten": 4310,
      "Ġtar": 4311,
      "alna": 4312,
      "ĠprzepisÃ³w": 4313,
      "asa": 4314,
      "Ġczte": 4315,
      "kaÅĤa": 4316,
      "Ġnar": 4317,
      "Ġniebie": 4318,
      "Ġfaj": 4319,
      "ĠÅĽmierÄĩ": 4320,
      "ĠpojÄĻcia": 4321,
      "Ġpsychi": 4322,
      "200": 4323,
      "Ġpowszech": 4324,
      "Ġchu": 4325,
      "Ġproces": 4326,
      "logii": 4327,
      "nna": 4328,
      "Ġcud": 4329,
      "kÅĤada": 4330,
      "Ġprogramu": 4331,
      "onami": 4332,
      "ĠFun": 4333,
      "Ġorgan": 4334,
      "nnego": 4335,
      "Ġostrze": 4336,
      "ĠRob": 4337,
      "miot": 4338,
      "szeni": 4339,
      "ĠBiaÅĤ": 4340,
      "Ġproblemu": 4341,
      "21": 4342,
      "Ã³rzy": 4343,
      "staÅĤa": 4344,
      "ĠKoÅĽci": 4345,
      "ĠuÅ¼ytk": 4346,
      "Ġstudi": 4347,
      "Ġreak": 4348,
      "gia": 4349,
      "ĠMat": 4350,
      "ĠposzczegÃ³l": 4351,
      "Pol": 4352,
      "oni": 4353,
      "Nikt": 4354,
      "mos": 4355,
      "Ġkwestii": 4356,
      "sla": 4357,
      "ĠÅĤatwo": 4358,
      "cznymi": 4359,
      "Ġhu": 4360,
      "ley": 4361,
      "prawy": 4362,
      "Wyso": 4363,
      "Ġeta": 4364,
      "ĠBry": 4365,
      "wiÅĤa": 4366,
      "Ġspotk": 4367,
      "Ġnajwy": 4368,
      "Ġorganizacji": 4369,
      "ĠEuropy": 4370,
      "Dru": 4371,
      "Ġkontroli": 4372,
      "Ġstosunku": 4373,
      "Niestety": 4374,
      "Ġlinii": 4375,
      "Tam": 4376,
      "Wszyscy": 4377,
      "dzono": 4378,
      "nicj": 4379,
      "Ġdziel": 4380,
      "wÃ³d": 4381,
      "Ġzmniej": 4382,
      "ĠwyjaÅĽ": 4383,
      "Ġsport": 4384,
      "Ġsieci": 4385,
      "Ġtery": 4386,
      "forma": 4387,
      "Ġucz": 4388,
      "ĠmusiaÅĤa": 4389,
      "Ġakcji": 4390,
      "ĠciÄħgle": 4391,
      "ower": 4392,
      "Ġwniosku": 4393,
      "Ġwielko": 4394,
      "Ġjad": 4395,
      "ĠporÃ³wna": 4396,
      "Ġwez": 4397,
      "czem": 4398,
      "Ġalko": 4399,
      "ĠSpo": 4400,
      "Ġkogo": 4401,
      "Ġeuropej": 4402,
      "towaÅĤ": 4403,
      "Ġdi": 4404,
      "rzas": 4405,
      "ĠjakaÅĽ": 4406,
      "Ġterytor": 4407,
      "Ġegz": 4408,
      "Ġwielki": 4409,
      "Ġkoryta": 4410,
      "Ġgwaran": 4411,
      "ĠHo": 4412,
      "Ġzao": 4413,
      "arÅĤa": 4414,
      "jeÅ¼dÅ¼a": 4415,
      "Ġpasa": 4416,
      "Ġklien": 4417,
      "cyjnym": 4418,
      "wencji": 4419,
      "ByÅĤo": 4420,
      "Ġrano": 4421,
      "niesi": 4422,
      "ytanie": 4423,
      "Ġodwo": 4424,
      "Ġtelefon": 4425,
      "Ġminist": 4426,
      "Ġochrony": 4427,
      "ĠmiesiÄħc": 4428,
      "23": 4429,
      "ciera": 4430,
      "dÅĤem": 4431,
      "Ġboh": 4432,
      "dowaÄĩ": 4433,
      "ĠKar": 4434,
      "leni": 4435,
      "set": 4436,
      "ĠPoli": 4437,
      "Ġkandydat": 4438,
      "Ġwynik": 4439,
      "ĠzakÅĤad": 4440,
      "ĠnajwyÅ¼": 4441,
      "Ġpobli": 4442,
      "25": 4443,
      "Ġwielkie": 4444,
      "Ġprzesta": 4445,
      "Nigdy": 4446,
      "dziaÅĤy": 4447,
      "sh": 4448,
      "ĠtuÅ¼": 4449,
      "ĠstwierdziÅĤ": 4450,
      "ĠgÃ³rÄĻ": 4451,
      "ĠprzyszÅĤo": 4452,
      "nicÄħ": 4453,
      "ĠpeÅĤni": 4454,
      "ĠdÅĤuÅ¼": 4455,
      "Ġ?": 4456,
      "Ġprzeby": 4457,
      "Ġuzasad": 4458,
      "Ġparlam": 4459,
      "Ġchi": 4460,
      "**": 4461,
      "Ġkrew": 4462,
      "ÄĻp": 4463,
      "Ġmusie": 4464,
      "ĠpodrÃ³Å¼": 4465,
      "szÅĤy": 4466,
      "Ġpierwszego": 4467,
      "ĠusÅĤu": 4468,
      "Ġzapach": 4469,
      "gno": 4470,
      "Ġwszystkiego": 4471,
      "Ġtow": 4472,
      "DziÄĻki": 4473,
      "ĠzobowiÄħ": 4474,
      "owoÅĽÄĩ": 4475,
      "Ġzapropon": 4476,
      "ÅĦstw": 4477,
      "ĠpoÅ¼y": 4478,
      "lera": 4479,
      "Ġcza": 4480,
      "Ġpolskiej": 4481,
      "Ġ21": 4482,
      "Ġpropon": 4483,
      "Ġedu": 4484,
      "ĠÅ¼aden": 4485,
      "Ġpowinny": 4486,
      "ĠwzglÄĻdem": 4487,
      "Ġwymy": 4488,
      "Ġ60": 4489,
      "Ġmoment": 4490,
      "Ġkomi": 4491,
      "Ġproduk": 4492,
      "Ġekonomi": 4493,
      "Ġogar": 4494,
      "ĠpostÄĻpowania": 4495,
      "owcÃ³w": 4496,
      "nieÄĩ": 4497,
      "sÅĤawa": 4498,
      "ĠJoh": 4499,
      "paÅĤ": 4500,
      "Podob": 4501,
      "gaÅ¼": 4502,
      "ĠmÃ³gÅĤby": 4503,
      "ĠdoszÅĤo": 4504,
      "ĠsÅĤuÅ¼by": 4505,
      "Ġpowrotem": 4506,
      "MoÅ¼na": 4507,
      "Ġchcieli": 4508,
      "ĠpomÃ³c": 4509,
      "Ġbur": 4510,
      "Ġnikogo": 4511,
      "Ġfe": 4512,
      "Ġus": 4513,
      "ĠmiÄĻdzynarod": 4514,
      "dziÅĤem": 4515,
      "Ġwyniku": 4516,
      "Ġniedo": 4517,
      "szony": 4518,
      "Ġnieprzy": 4519,
      "ĠÅĤy": 4520,
      "rzyÅĤo": 4521,
      "ÅĦstwie": 4522,
      "Ġpozytyw": 4523,
      "anka": 4524,
      "Ġ;": 4525,
      "Ġ29": 4526,
      "rodu": 4527,
      "ĠsÅĤowo": 4528,
      "Ġrzad": 4529,
      "Ġwidzenia": 4530,
      "Ġhe": 4531,
      "ĠrozporzÄħ": 4532,
      "Ġduch": 4533,
      "Ġzasady": 4534,
      "Ġlotni": 4535,
      "WiÄĻc": 4536,
      "ÄħÅĤ": 4537,
      "ĠpopeÅĤ": 4538,
      "Ġdrob": 4539,
      "ĠrÄĻkÄħ": 4540,
      "Ġstre": 4541,
      "Ġdrugiego": 4542,
      "Ġrealizacji": 4543,
      "Ġzdra": 4544,
      "Ġpotrzeby": 4545,
      "stej": 4546,
      "De": 4547,
      "ĠHi": 4548,
      "ĠRegi": 4549,
      "Ġinstru": 4550,
      "dzia": 4551,
      "Ġodci": 4552,
      "ĠiÅĽÄĩ": 4553,
      "ĠmÅĤodzie": 4554,
      "ĠKrakÃ³w": 4555,
      "ĠmateriaÅĤ": 4556,
      "ĠÅĽnie": 4557,
      "ĠHar": 4558,
      "Cie": 4559,
      "ĠsamorzÄħd": 4560,
      "Ġemery": 4561,
      "szaÄĩ": 4562,
      "Ġpoda": 4563,
      "Ġcentrum": 4564,
      "bat": 4565,
      "Ġzanie": 4566,
      "gram": 4567,
      "Ġwspiera": 4568,
      "ĠimiÄĻ": 4569,
      "ĠpowtÃ³": 4570,
      "Ġrozmowy": 4571,
      "Trzeba": 4572,
      "Ġol": 4573,
      "alnym": 4574,
      "ĠÅĽrodku": 4575,
      "Ġ2012": 4576,
      "dami": 4577,
      "ĠprÄĻd": 4578,
      "ĠzaleÅ¼y": 4579,
      "ĠPozna": 4580,
      "Ġzjawi": 4581,
      "ĠWÅĤo": 4582,
      "ade": 4583,
      "Ġlogi": 4584,
      "Ġsekre": 4585,
      "sach": 4586,
      "spi": 4587,
      "Ġwykon": 4588,
      "Ġprzym": 4589,
      "Ġfrancu": 4590,
      "Ġsch": 4591,
      "Ġster": 4592,
      "jÄħcymi": 4593,
      "bun": 4594,
      "niczych": 4595,
      "Å¼ek": 4596,
      "ĠmetrÃ³w": 4597,
      "zacja": 4598,
      "atoli": 4599,
      "AR": 4600,
      "fli": 4601,
      "ĠwÅĤasne": 4602,
      "niejszy": 4603,
      "ĠciÄĻÅ¼ko": 4604,
      "Ġzbud": 4605,
      "wskiego": 4606,
      "ĠdrugÄħ": 4607,
      "dowaÅĤ": 4608,
      "Ġnajlepiej": 4609,
      "Ġpolicji": 4610,
      "Ġzez": 4611,
      "cio": 4612,
      "ĠÅ¼oÅĤnierzy": 4613,
      "Ġszere": 4614,
      "Ġnieo": 4615,
      "cili": 4616,
      "Ġbadania": 4617,
      "ĠjeÅº": 4618,
      "tnym": 4619,
      "Ġ/": 4620,
      "Chyba": 4621,
      "Å¼ona": 4622,
      "Ġtrzyma": 4623,
      "Ġangiel": 4624,
      "pospoli": 4625,
      "rabia": 4626,
      "Ġcicho": 4627,
      "Wo": 4628,
      "ĠRosji": 4629,
      "tarza": 4630,
      "owiec": 4631,
      "zwyczaj": 4632,
      "groma": 4633,
      "Ġkoncer": 4634,
      "akiem": 4635,
      "noÅĽ": 4636,
      "Ġkontra": 4637,
      "ĠAdam": 4638,
      "Ġodczu": 4639,
      "gÅĤÄĻ": 4640,
      "Ġbiur": 4641,
      "glÄħdaÄĩ": 4642,
      "Å¼em": 4643,
      "Ġutwo": 4644,
      "ĠDziÄĻ": 4645,
      "Ġprodukcji": 4646,
      "Pani": 4647,
      "ĠdodaÅĤ": 4648,
      "ĠmÃ³z": 4649,
      "Ġstoli": 4650,
      "Ġzawar": 4651,
      "Ġumy": 4652,
      "ĠmyÅĽlÄĻ": 4653,
      "cznik": 4654,
      "ĠËĿ": 4655,
      "Ġprzemy": 4656,
      "ĠLon": 4657,
      "Ġbior": 4658,
      "Ġustaw": 4659,
      "Ġsur": 4660,
      "ĠTV": 4661,
      "Ġopis": 4662,
      "ÅĦcu": 4663,
      "ĠrÃ³wno": 4664,
      "ON": 4665,
      "Ġumowy": 4666,
      "Ġstaro": 4667,
      "Ġmusimy": 4668,
      "Ġposzuki": 4669,
      "niewaÅ¼": 4670,
      "ĠSejm": 4671,
      "dna": 4672,
      "Ġdotk": 4673,
      "ĠszeÅĽÄĩ": 4674,
      "publi": 4675,
      "Ġprzekaza": 4676,
      "czyÅĤem": 4677,
      "tnÄħ": 4678,
      "Ġpowstrzym": 4679,
      "Ġustawie": 4680,
      "mÄħ": 4681,
      "Ġkonstytu": 4682,
      "Ġprzeczy": 4683,
      "solu": 4684,
      "ĠGre": 4685,
      "owaliÅĽmy": 4686,
      "____": 4687,
      "terze": 4688,
      "OW": 4689,
      "Ġprace": 4690,
      "rysty": 4691,
      "ĠwystÄĻp": 4692,
      "Ġewentu": 4693,
      "Ġseksu": 4694,
      "ĠdaÅĤ": 4695,
      "Ġwystarczy": 4696,
      "Ġliczba": 4697,
      "22": 4698,
      "Ġoficjal": 4699,
      "Pew": 4700,
      "Å¼yli": 4701,
      "Ġwoli": 4702,
      "leci": 4703,
      "Ġlutego": 4704,
      "kowaÅĤ": 4705,
      "ĠÅĽpie": 4706,
      "Ġsporo": 4707,
      "jÃ³w": 4708,
      "chaÅĤ": 4709,
      "Ġsygn": 4710,
      "cone": 4711,
      "ĠdÃ³ÅĤ": 4712,
      "Ġchwy": 4713,
      "Ġnienawi": 4714,
      "Ġwios": 4715,
      "zajem": 4716,
      "Ġosobi": 4717,
      "ĠFa": 4718,
      "rzeÅĽci": 4719,
      "Ġdod": 4720,
      "atry": 4721,
      "ĠÃ³w": 4722,
      "?!": 4723,
      "Ġpolityki": 4724,
      "ĠDla": 4725,
      "rech": 4726,
      "ĠpostÄĻpowanie": 4727,
      "siadÅĤ": 4728,
      "niajÄħ": 4729,
      "Ġlist": 4730,
      "Ġprokuratury": 4731,
      "Ġwczoraj": 4732,
      "ĠKrÃ³": 4733,
      "Ġfar": 4734,
      "Poz": 4735,
      "ĠwrÄĻcz": 4736,
      "Ġwcho": 4737,
      "Ġcodzien": 4738,
      "siÅĤa": 4739,
      "Ġstron": 4740,
      "ĠsamochÃ³d": 4741,
      "ĠtwÃ³r": 4742,
      "Ġmocy": 4743,
      "MyÅĽlÄĻ": 4744,
      "ER": 4745,
      "ĠdruÅ¼y": 4746,
      "Jeste": 4747,
      "paÄĩ": 4748,
      "mienie": 4749,
      "ĠdÅĤugie": 4750,
      "tyka": 4751,
      "Ġdostar": 4752,
      "Ġoprac": 4753,
      "dr": 4754,
      "ĠczÅĤonkÃ³w": 4755,
      "ĠwiÄħ": 4756,
      "ĠkÅĤopo": 4757,
      "cony": 4758,
      "Ġzapewne": 4759,
      "Ġwidok": 4760,
      "nieÅĦ": 4761,
      "Ġswej": 4762,
      "Ġsce": 4763,
      "lacja": 4764,
      "mawi": 4765,
      "ĠpociÄħg": 4766,
      "Sy": 4767,
      "ÅĤuma": 4768,
      "szczenie": 4769,
      "ĠzdjÄĻ": 4770,
      "ĠksiÄħÅ¼ki": 4771,
      "trzeb": 4772,
      "kowski": 4773,
      "âĢĭ": 4774,
      "nam": 4775,
      "ĠPre": 4776,
      "pisaÄĩ": 4777,
      "Ġobserw": 4778,
      "ĠChi": 4779,
      "Ġspi": 4780,
      "Ġniespo": 4781,
      "lnego": 4782,
      "Ġpartii": 4783,
      "oty": 4784,
      "Ġzawi": 4785,
      "ponu": 4786,
      "fry": 4787,
      "Ġliczby": 4788,
      "lny": 4789,
      "ĠÅĽcian": 4790,
      "Ġodd": 4791,
      "zÅĤ": 4792,
      "panii": 4793,
      "Ġszac": 4794,
      "lacjÄĻ": 4795,
      "ĠNe": 4796,
      "granicz": 4797,
      "Ġwypowiedzi": 4798,
      "Ġzbiera": 4799,
      "lon": 4800,
      "Ponad": 4801,
      "ĠWoj": 4802,
      "Ġotwiera": 4803,
      "ÅĤos": 4804,
      "Ġuzn": 4805,
      "letni": 4806,
      "Ġpewnym": 4807,
      "Ġtygodni": 4808,
      "ĠzauwaÅ¼yÅĤ": 4809,
      "ĠurzÄĻdni": 4810,
      "ĠchoÄĩby": 4811,
      "Ġarchi": 4812,
      "Ġtez": 4813,
      "Ġstanowiska": 4814,
      "½ï¿½ï¿½ï¿½ï¿": 4815,
      "kony": 4816,
      "Ġszar": 4817,
      "Å¼eniem": 4818,
      "Ġprocedu": 4819,
      "Ġwysy": 4820,
      "spon": 4821,
      "Ġtechno": 4822,
      "waÅĤem": 4823,
      "ĠPos": 4824,
      "ĠMiej": 4825,
      "dniu": 4826,
      "MiaÅĤ": 4827,
      "czeni": 4828,
      "part": 4829,
      "ĠZjedno": 4830,
      "Ġcen": 4831,
      "Ġmusisz": 4832,
      "Ġteren": 4833,
      "ĠUE": 4834,
      "Ġofiar": 4835,
      "ble": 4836,
      "Ġpolski": 4837,
      "ĠPolakÃ³w": 4838,
      "Ġteor": 4839,
      "ĠKat": 4840,
      "ĠgwaÅĤtow": 4841,
      "era": 4842,
      "ĠÅĽrodka": 4843,
      "ĠzaÅĤat": 4844,
      "rzeniem": 4845,
      "cemy": 4846,
      "Ġwystarcza": 4847,
      "Ġkwa": 4848,
      "Ġwyco": 4849,
      "dziÅĤy": 4850,
      "ĠmarszaÅĤ": 4851,
      "ĠpoÅ¼": 4852,
      "turÄĻ": 4853,
      "Ġfundu": 4854,
      "Ġprowadzone": 4855,
      "Ġopinii": 4856,
      "ĠgÅĤosem": 4857,
      "biÄĻ": 4858,
      "strzy": 4859,
      "szaÅĤem": 4860,
      "legÅĤoÅĽci": 4861,
      "dzania": 4862,
      "ĠGda": 4863,
      "ĠumoÅ¼li": 4864,
      "zacjÄĻ": 4865,
      "Ġsens": 4866,
      "Ġsal": 4867,
      "Ġmal": 4868,
      "tymi": 4869,
      "Ġzasadzie": 4870,
      "ĠprzyszÅĤoÅĽci": 4871,
      "Ġszk": 4872,
      "Ġkolo": 4873,
      "wano": 4874,
      "Ġprzesu": 4875,
      "Ġdyskusji": 4876,
      "ela": 4877,
      "Ġpil": 4878,
      "Ġzagad": 4879,
      "ĠrodzicÃ³w": 4880,
      "stawia": 4881,
      "US": 4882,
      "Ġustawa": 4883,
      "Ġsamolo": 4884,
      "Ġbiz": 4885,
      "Äĺ": 4886,
      "nÄĻÅĤam": 4887,
      "Ġprawdopodobnie": 4888,
      "ĠMarszaÅĤku": 4889,
      "Ġdoro": 4890,
      "Ġuczni": 4891,
      "skÄĻ": 4892,
      "Ġprzekon": 4893,
      "Ġpowietrze": 4894,
      "CH": 4895,
      "Ġwd": 4896,
      "rÃ³g": 4897,
      "Ġindy": 4898,
      "ĠstraÅ¼": 4899,
      "ĠuwzglÄĻ": 4900,
      "va": 4901,
      "Ġzbior": 4902,
      "Ġpodpis": 4903,
      "Ġzdu": 4904,
      "Ġtermi": 4905,
      "wienie": 4906,
      "ĠnajwiÄĻk": 4907,
      "ralnie": 4908,
      "rzÄħt": 4909,
      "nikami": 4910,
      "Ġ80": 4911,
      "ĠKi": 4912,
      "Ġniby": 4913,
      "szaÅĤa": 4914,
      "atem": 4915,
      "Å¼eniu": 4916,
      "Ġrealiz": 4917,
      "Ã³dz": 4918,
      "pal": 4919,
      "Ġniewiele": 4920,
      "Ġznaczenie": 4921,
      "Ġdyskus": 4922,
      "ĠpodjÄĻ": 4923,
      "ĠgoÅĽci": 4924,
      "ĠLud": 4925,
      "ĠTh": 4926,
      "noszÄħ": 4927,
      "ĠbroÅĦ": 4928,
      "ĠpotÄĻÅ¼": 4929,
      "ĠskoÅĦczy": 4930,
      "pÃ³w": 4931,
      "ĠokazaÅĤo": 4932,
      "prz": 4933,
      "Ġinnej": 4934,
      "Ġgnie": 4935,
      "sc": 4936,
      "ĠszczÄĻÅĽli": 4937,
      "ako": 4938,
      "Ġpomaga": 4939,
      "Ġzorganiz": 4940,
      "Ġmatki": 4941,
      "waÅ¼a": 4942,
      "bia": 4943,
      "ĠRP": 4944,
      "ĠsytuacjÄĻ": 4945,
      "Ġjednostki": 4946,
      "turze": 4947,
      "ĠwolnoÅĽci": 4948,
      "ĠThe": 4949,
      "Ġczwar": 4950,
      "ĠobjÄĻ": 4951,
      "czar": 4952,
      "Ġponi": 4953,
      "ĠostroÅ¼": 4954,
      "Ġzwyczaj": 4955,
      "nnej": 4956,
      "Podczas": 4957,
      "Äħcym": 4958,
      "Ġosiem": 4959,
      "puszcza": 4960,
      "owaÅĤam": 4961,
      "ĠmaÅĤe": 4962,
      "liÅĤa": 4963,
      "ĠproblemÃ³w": 4964,
      "Ġdziewczyna": 4965,
      "ĠIII": 4966,
      "Ġrej": 4967,
      "Å¼yÅĤem": 4968,
      "DZIA": 4969,
      "Ġpogo": 4970,
      "Ġ2010": 4971,
      "Ludzie": 4972,
      "ĠciÄħg": 4973,
      "Pat": 4974,
      "Ġprzepisy": 4975,
      "Pow": 4976,
      "ÅĦce": 4977,
      "Ġkultury": 4978,
      "spie": 4979,
      "cyjna": 4980,
      "ĠzastÄĻp": 4981,
      "Ġkatego": 4982,
      "piÅĤ": 4983,
      "nÃ³": 4984,
      "Ġdawno": 4985,
      "Ġserca": 4986,
      "Ġuspo": 4987,
      "Ġpozycji": 4988,
      "Ġ90": 4989,
      "lnych": 4990,
      "ang": 4991,
      "szÄĻdzie": 4992,
      "ĠBoga": 4993,
      "Ġmusieli": 4994,
      "Ġstopniu": 4995,
      "Ġstrasz": 4996,
      "Ġoczu": 4997,
      "Ġinternet": 4998,
      "Ġdziennika": 4999,
      "ĠpomyÅĽlaÅĤ": 5000,
      "ham": 5001,
      "Ġwybiera": 5002,
      "ĠkÅĤam": 5003,
      "Ġlitera": 5004,
      "Ġkaz": 5005,
      "Ġand": 5006,
      "Ġzat": 5007,
      "ĠKom": 5008,
      "gÃ³": 5009,
      "dzona": 5010,
      "doby": 5011,
      "Ġreje": 5012,
      "iÅĤ": 5013,
      "Ġkwestia": 5014,
      "Ġ+": 5015,
      "kimi": 5016,
      "rych": 5017,
      "Ġzbi": 5018,
      "Ġzb": 5019,
      "ĠdziaÅĤalnoÅĽÄĩ": 5020,
      "Ġpublicznych": 5021,
      "ĠrzeczywistoÅĽci": 5022,
      "ĠwystÄħpi": 5023,
      "Ġstandar": 5024,
      "ill": 5025,
      "Ġporozumie": 5026,
      "Ġbraku": 5027,
      "ĠzÅĤotych": 5028,
      "Ġprof": 5029,
      "ĠFrancji": 5030,
      "scho": 5031,
      "Ġkontynu": 5032,
      "Ġmieszkania": 5033,
      "ĠbadaÅĦ": 5034,
      "Åºnie": 5035,
      "ĠtobÄħ": 5036,
      "War": 5037,
      "Ġwiemy": 5038,
      "ĠÅĽwiatÅĤa": 5039,
      "Obec": 5040,
      "Ci": 5041,
      "czyk": 5042,
      "dÅĤuÅ¼": 5043,
      "ĠAd": 5044,
      "ĠOl": 5045,
      "log": 5046,
      "lnie": 5047,
      "Czu": 5048,
      "ĠrozwiÄħzania": 5049,
      "Äħb": 5050,
      "ĠrolÄĻ": 5051,
      "ĠskÅĤada": 5052,
      "Ġspoko": 5053,
      "Ġnowej": 5054,
      "Praw": 5055,
      "ĠkoÅĤo": 5056,
      "Niech": 5057,
      "Ġkoro": 5058,
      "ĠjakoÅĽci": 5059,
      "ĠwÅĤasnej": 5060,
      "Ġuprzej": 5061,
      "ance": 5062,
      "ĠRegional": 5063,
      "Ġsamochodu": 5064,
      "stym": 5065,
      "ĠdÅĤuÅ¼ej": 5066,
      "ĠgÃ³w": 5067,
      "Ġenergii": 5068,
      "rzeniu": 5069,
      "BÄĻdzie": 5070,
      "Ġher": 5071,
      "dnych": 5072,
      "owca": 5073,
      "ĠsÅĤow": 5074,
      "Ġatak": 5075,
      "Ġsiedem": 5076,
      "Ġbudynku": 5077,
      "kor": 5078,
      "ÅĤowa": 5079,
      "Ġkonstru": 5080,
      "Ġdokona": 5081,
      "ĠwiedzÄħ": 5082,
      "ĠCho": 5083,
      "ĠczasÃ³w": 5084,
      "Ġczuje": 5085,
      "fikacji": 5086,
      "ĠrÄĻki": 5087,
      "Ġtwar": 5088,
      "Ku": 5089,
      "Op": 5090,
      "Ġkr": 5091,
      "Ġjuz": 5092,
      "lozo": 5093,
      "gij": 5094,
      "ĠziemiÄĻ": 5095,
      "kÅĤadu": 5096,
      "ĠmaÅĤÅ¼e": 5097,
      "Ġzdanie": 5098,
      "Takie": 5099,
      "KaÅ¼dy": 5100,
      "Ġdrzew": 5101,
      "Ġfoto": 5102,
      "Sie": 5103,
      "Jedno": 5104,
      "ĠWÅĤa": 5105,
      "pki": 5106,
      "Ġznam": 5107,
      "Ġuczestni": 5108,
      "ag": 5109,
      "ĠkupiÄĩ": 5110,
      "stry": 5111,
      "ĠÅĽrodowiska": 5112,
      "Ġspotkanie": 5113,
      "sami": 5114,
      "lubi": 5115,
      "ĠpoÅĤudni": 5116,
      "Ġczter": 5117,
      "ĠÅļwiÄĻ": 5118,
      "lum": 5119,
      "ĠwyjaÅĽnie": 5120,
      "Ġzare": 5121,
      "Ġprzekaz": 5122,
      "Gdzie": 5123,
      "ĠPie": 5124,
      "ĠktÃ³rymi": 5125,
      "ĠNA": 5126,
      "ĠFe": 5127,
      "ĠÅ¼yje": 5128,
      "Ġodde": 5129,
      "Ġzadania": 5130,
      "taÅĤa": 5131,
      "Ġwynagro": 5132,
      "Ġpowierzchni": 5133,
      "Ġpatrzy": 5134,
      "rie": 5135,
      "Ġzmianie": 5136,
      "owicz": 5137,
      "ĠzewnÄħtrz": 5138,
      "kowym": 5139,
      "Ġinicj": 5140,
      "Ġwarunki": 5141,
      "dzÄħcych": 5142,
      "Ġsyna": 5143,
      "laÄĩ": 5144,
      "Ġserce": 5145,
      "ĠPolskiej": 5146,
      "Ra": 5147,
      "Ġpolicjan": 5148,
      "dacji": 5149,
      "Ostat": 5150,
      "Kolej": 5151,
      "owal": 5152,
      "lomet": 5153,
      "Ġwybo": 5154,
      "ĠoÅĽrod": 5155,
      "Ġramiona": 5156,
      "Albo": 5157,
      "mieni": 5158,
      "ct": 5159,
      "ote": 5160,
      "Ġkoszu": 5161,
      "ĠdecyzjÄĻ": 5162,
      "Ġstary": 5163,
      "Ġmechani": 5164,
      "Ġmon": 5165,
      "ĠrobiÄħ": 5166,
      "Ġtrzydzie": 5167,
      "ĠÅĽwiatÅĤo": 5168,
      "pier": 5169,
      "Ġdefi": 5170,
      "ĠprzewodniczÄħcy": 5171,
      "Kt": 5172,
      "stego": 5173,
      "ator": 5174,
      "Ġwprost": 5175,
      "Ġniedaw": 5176,
      "ĠzmieniÄĩ": 5177,
      "Ġutra": 5178,
      "ĠBoÅ¼e": 5179,
      "CzÄĻ": 5180,
      "Ġbab": 5181,
      "ĠStra": 5182,
      "ĠCa": 5183,
      "Ġzwraca": 5184,
      "ĠMam": 5185,
      "astro": 5186,
      "PS": 5187,
      "lacje": 5188,
      "Ġzazna": 5189,
      "ĠzostanÄħ": 5190,
      "stwem": 5191,
      "anna": 5192,
      "ĠWro": 5193,
      "glÄħdaÅĤ": 5194,
      "Ġpkt": 5195,
      "cÄħc": 5196,
      "Ġwiedzy": 5197,
      "telu": 5198,
      "Wszystkie": 5199,
      "Ġostatnio": 5200,
      "Ġfrag": 5201,
      "Sko": 5202,
      "Ãĵ": 5203,
      "Ġzagrani": 5204,
      "ena": 5205,
      "Ġpy": 5206,
      "Ġznaczenia": 5207,
      "dziemy": 5208,
      "ĠSÄħ": 5209,
      "Chodzi": 5210,
      "Ġupo": 5211,
      "Ġwchodzi": 5212,
      "ĠpowyÅ¼": 5213,
      "ĠGdy": 5214,
      "Ġdoskonale": 5215,
      "Ġzdrowo": 5216,
      "ĠbÃ³": 5217,
      "lnej": 5218,
      "Ġ2011": 5219,
      "Ġgat": 5220,
      "ÅĦcÃ³w": 5221,
      "Ġczasach": 5222,
      "widu": 5223,
      "TA": 5224,
      "Ġpodoba": 5225,
      "ĠÅ¼yÄĩ": 5226,
      "Ġzmar": 5227,
      "Ġkolejnych": 5228,
      "czyÅĤy": 5229,
      "ĠzmÄĻ": 5230,
      "dzaÅĤ": 5231,
      "Ġsensu": 5232,
      "ĠmÃ³wiÅĤa": 5233,
      "ejm": 5234,
      "Ġautom": 5235,
      "Ġgaze": 5236,
      "tali": 5237,
      "piec": 5238,
      "bili": 5239,
      "Ġszan": 5240,
      "Jakie": 5241,
      "ĠroÅĽli": 5242,
      "rac": 5243,
      "ĠwiÄĻksze": 5244,
      "PamiÄĻ": 5245,
      "ĠDi": 5246,
      "ĠprzeÅĤo": 5247,
      "ĠnapisaÅĤ": 5248,
      "ĠsamÄħ": 5249,
      "Ġ70": 5250,
      "Ġzadzwo": 5251,
      "ĠkrÄħ": 5252,
      "rzÄħs": 5253,
      "fo": 5254,
      "rzÄħdu": 5255,
      "dziale": 5256,
      "ya": 5257,
      "ĠCar": 5258,
      "ĠKraj": 5259,
      "pospolitej": 5260,
      "ĠrzuciÅĤ": 5261,
      "Ġski": 5262,
      "stki": 5263,
      "sen": 5264,
      "Ġzaledwie": 5265,
      "jekt": 5266,
      "ĠplacÃ³w": 5267,
      "ĠrÄĻka": 5268,
      "odu": 5269,
      "szone": 5270,
      "Ġszkole": 5271,
      "Ġprocent": 5272,
      "ĠUniwersyte": 5273,
      "ĠuwaÅ¼am": 5274,
      "Ġpodejm": 5275,
      "Ġwyposa": 5276,
      "Ġpodatku": 5277,
      "Ġimieniu": 5278,
      "Ġkatoli": 5279,
      "dzajÄħ": 5280,
      "ĠtysiÄħ": 5281,
      "Ġdokon": 5282,
      "szto": 5283,
      "Ġgospodarki": 5284,
      "Ġodebra": 5285,
      "ujÄħc": 5286,
      "ĠHen": 5287,
      "tycznych": 5288,
      "Ġautob": 5289,
      "Pos": 5290,
      "Ġabsolu": 5291,
      "Ġzwo": 5292,
      "cyjnÄħ": 5293,
      "dale": 5294,
      "Ġperspek": 5295,
      "lni": 5296,
      "prawa": 5297,
      "Ġbudyn": 5298,
      "NA": 5299,
      "ĠWyso": 5300,
      "pienie": 5301,
      "ĠEuropie": 5302,
      "Ġwraca": 5303,
      "ĠAmery": 5304,
      "rÃ³ciÅĤa": 5305,
      "ĠdrogÄħ": 5306,
      "Ġludziom": 5307,
      "au": 5308,
      "Ġpoten": 5309,
      "Ġkonkur": 5310,
      "Ġsprowa": 5311,
      "Ġspotkania": 5312,
      "Ġpopar": 5313,
      "ĠwÅĤaÅĽcicie": 5314,
      "Ġzwro": 5315,
      "Ġposiad": 5316,
      "stanowie": 5317,
      "ĠwysiÅĤ": 5318,
      "ĠprzeÅ¼y": 5319,
      "ĠpaniÄħ": 5320,
      "Sp": 5321,
      "Ġowo": 5322,
      "ĠPaÅĦstwa": 5323,
      "Ġ2017": 5324,
      "unki": 5325,
      "ĠzadaÅĦ": 5326,
      "rab": 5327,
      "Ġhandl": 5328,
      "Ġwrzu": 5329,
      "pla": 5330,
      "Ġwnio": 5331,
      "Ġkocha": 5332,
      "Ġgminy": 5333,
      "ÅĽwiet": 5334,
      "Ġmro": 5335,
      "ĠwidziaÅĤem": 5336,
      "Rze": 5337,
      "ĠwojewÃ³dztwa": 5338,
      "Ġpraca": 5339,
      "Ġdomy": 5340,
      "Ġdzwo": 5341,
      "Ġdek": 5342,
      "guje": 5343,
      "Ġdach": 5344,
      "czymy": 5345,
      "Ġkuchni": 5346,
      "stka": 5347,
      "Ġpopular": 5348,
      "menty": 5349,
      "zujÄħ": 5350,
      "Ġelement": 5351,
      "Ġwina": 5352,
      "ÅĤania": 5353,
      "Ġnies": 5354,
      "ĠramiÄĻ": 5355,
      "Jako": 5356,
      "Å¼onych": 5357,
      "kli": 5358,
      "stycznych": 5359,
      "try": 5360,
      "ĠÅ¼ona": 5361,
      "Ġdyrek": 5362,
      "Szanow": 5363,
      "Ġdwudzie": 5364,
      "Ġzle": 5365,
      "ĠJeÅĽli": 5366,
      "ĠOb": 5367,
      "ĠSto": 5368,
      "Ġzajmu": 5369,
      "kana": 5370,
      "Ġczterech": 5371,
      "ĠchrzeÅĽci": 5372,
      "sÄħd": 5373,
      "Sto": 5374,
      "bine": 5375,
      "Ġuzysk": 5376,
      "para": 5377,
      "199": 5378,
      "Ġaktualnie": 5379,
      "Wiem": 5380,
      "ĠgÅĤosowania": 5381,
      "Ġpremier": 5382,
      "nera": 5383,
      "ĠwiedziaÅĤa": 5384,
      "nnym": 5385,
      "ĠwspÃ³lnego": 5386,
      "Ġprzer": 5387,
      "ĠpamiÄĻtam": 5388,
      "Ġ2014": 5389,
      "Ġnagra": 5390,
      "ChciaÅĤbym": 5391,
      "Ġdroga": 5392,
      "ĠAngli": 5393,
      "Ġswych": 5394,
      "Ġwzrokiem": 5395,
      "ĠGu": 5396,
      "Ġdra": 5397,
      "Ġ2008": 5398,
      "Ġkoszty": 5399,
      "ĠniezbÄĻ": 5400,
      "ĠrÄħ": 5401,
      "ĠpowiedziaÅĤem": 5402,
      "ĠjakiejÅĽ": 5403,
      "Ġobywatel": 5404,
      "26": 5405,
      "brzym": 5406,
      "Ġ2016": 5407,
      "Jeden": 5408,
      "Ġobni": 5409,
      "Ġsre": 5410,
      "Ġwybuch": 5411,
      "Ġmorder": 5412,
      "Ġmian": 5413,
      "ĠmÄħd": 5414,
      "alnÄħ": 5415,
      "Ġsoli": 5416,
      "40": 5417,
      "Kil": 5418,
      "kowane": 5419,
      "Ġpraktycznie": 5420,
      "ĠoszczÄĻ": 5421,
      "Ġkana": 5422,
      "ĠspoÅĤeczeÅĦstwa": 5423,
      "Ġpali": 5424,
      "ĠPK": 5425,
      "dera": 5426,
      "ĠTry": 5427,
      "ll": 5428,
      "dnoÅĽci": 5429,
      "wanych": 5430,
      "ĠczÅĤowiekiem": 5431,
      "Ġrezer": 5432,
      "ĠMos": 5433,
      "Ġrem": 5434,
      "Ġ500": 5435,
      "mat": 5436,
      "Ġport": 5437,
      "ĠJest": 5438,
      "ĠJez": 5439,
      "ĠtyÅĤu": 5440,
      "RZ": 5441,
      "Ġramionami": 5442,
      "daj": 5443,
      "ĠSh": 5444,
      "ft": 5445,
      "Ġpopat": 5446,
      "Powi": 5447,
      "ĠÅĽre": 5448,
      "raÅºniej": 5449,
      "28": 5450,
      "27": 5451,
      "Ġuzu": 5452,
      "ariu": 5453,
      "Ġmani": 5454,
      "Ġpoprzednim": 5455,
      "Ġinteli": 5456,
      "ĠdÅĤoni": 5457,
      "owni": 5458,
      "Ġdie": 5459,
      "sunÄħÅĤ": 5460,
      "legÅĤych": 5461,
      "waty": 5462,
      "ĠnapiÄĻ": 5463,
      "ĠwiadomoÅĽci": 5464,
      "zÄĻ": 5465,
      "Ġporoz": 5466,
      "Ġzje": 5467,
      "ĠwypÅĤa": 5468,
      "Ġman": 5469,
      "dzÄħcy": 5470,
      "ĠiloÅĽci": 5471,
      "Ġ2013": 5472,
      "sli": 5473,
      "Ġwytrzym": 5474,
      "Ġkonkuren": 5475,
      "Ġ2015": 5476,
      "Ġtrzeci": 5477,
      "Ġ2009": 5478,
      "Ġlegi": 5479,
      "ĠpoÅĤowie": 5480,
      "Ġpowiem": 5481,
      "Ġbrzmi": 5482,
      "Ġkap": 5483,
      "szedÅĤem": 5484,
      "ĠnarzÄĻ": 5485,
      "Ġprzypomin": 5486,
      "atru": 5487,
      "ĠmaÅĤy": 5488,
      "Ġceny": 5489,
      "Ġ:).": 5490,
      "kÅĤy": 5491,
      "ĠÄĩwi": 5492,
      "Ġfaktycznie": 5493,
      "Ġskom": 5494,
      "Ġzastrze": 5495,
      "Ġswobo": 5496,
      "Ġzawart": 5497,
      "ĠwrÃ³ciÅĤ": 5498,
      "czÄħÅĤ": 5499,
      "torowi": 5500,
      "Ġwzrost": 5501,
      "ĠwziÄħÅĤ": 5502,
      "Ġkilomet": 5503,
      "Ġmacie": 5504,
      "bija": 5505,
      "struktury": 5506,
      "Ġ2007": 5507,
      "Ġono": 5508,
      "Â·": 5509,
      "ĠZe": 5510,
      "Ġziem": 5511,
      "ĠsÅĤab": 5512,
      "Ġlam": 5513,
      "ĠSp": 5514,
      "biÅĤ": 5515,
      "ostÄĻp": 5516,
      "ĠÅĽwiÄħ": 5517,
      "ĠSkar": 5518,
      "jmi": 5519,
      "ĠwÅĤasnych": 5520,
      "Ġpochy": 5521,
      "Ġnauki": 5522,
      "ĠwÅĽcie": 5523,
      "Ġpocz": 5524,
      "ĠdziewiÄĻ": 5525,
      "ĠwyszedÅĤ": 5526,
      "Ġpierwszych": 5527,
      "rasta": 5528,
      "ĠÅ¼Ã³ÅĤ": 5529,
      "ore": 5530,
      "Ġbohater": 5531,
      "Ġwest": 5532,
      "pij": 5533,
      "Ġpodzie": 5534,
      "kowania": 5535,
      "Ġloka": 5536,
      "niejsza": 5537,
      "sj": 5538,
      "Ġgl": 5539,
      "Ġstrate": 5540,
      "dÅºmi": 5541,
      "ĠwspÃ³ÅĤpracy": 5542,
      "ĠZd": 5543,
      "Ponadto": 5544,
      "Ġrezy": 5545,
      "Ġwzru": 5546,
      "ĠGru": 5547,
      "stych": 5548,
      "win": 5549,
      "Ġoczywi": 5550,
      "ĠumiejÄĻ": 5551,
      "Ġneg": 5552,
      "ĠtwÃ³j": 5553,
      "Ġlisty": 5554,
      "ĠStani": 5555,
      "Ġpewnego": 5556,
      "Ġrower": 5557,
      "Jedy": 5558,
      "niÄĻta": 5559,
      "Ġwarunkach": 5560,
      "Ġelektry": 5561,
      "ĠukÅĤad": 5562,
      "Ġsprawach": 5563,
      "dom": 5564,
      "ĠrozwiÄħzanie": 5565,
      "ĠRzeczy": 5566,
      "Nagle": 5567,
      "ariusz": 5568,
      "zumiem": 5569,
      "Ġfirm": 5570,
      "tyk": 5571,
      "unkÃ³w": 5572,
      "Ġy": 5573,
      "Ġkryzy": 5574,
      "pem": 5575,
      "gencji": 5576,
      "czaÄĩ": 5577,
      "ĠuÅĽmiechnÄħÅĤ": 5578,
      "EN": 5579,
      "Ġplane": 5580,
      "ĠwziÄħÄĩ": 5581,
      "ĠzasÅĤu": 5582,
      "pel": 5583,
      "Ġformie": 5584,
      "Ġpewna": 5585,
      "Ġskry": 5586,
      "ĠpracowaÄĩ": 5587,
      "gru": 5588,
      "ĠzwiÄħzanych": 5589,
      "ĠToma": 5590,
      "ĠPani": 5591,
      "Ġsuper": 5592,
      "ĠokolicznoÅĽci": 5593,
      "Ġinwestycji": 5594,
      "ChoÄĩ": 5595,
      "ĠszkÃ³ÅĤ": 5596,
      "nionych": 5597,
      "ĠwielkÄħ": 5598,
      "Ġrozpozna": 5599,
      "ĠWal": 5600,
      "ĠpuÅĤ": 5601,
      "ĠgorÄħ": 5602,
      "ĠDy": 5603,
      "ĠchciaÅĤem": 5604,
      "Ġczasami": 5605,
      "Ġstaje": 5606,
      "kÅĤadzie": 5607,
      "wne": 5608,
      "dzieÅĽcia": 5609,
      "Ġpolskie": 5610,
      "dali": 5611,
      "Ġwierzy": 5612,
      "ĠKomisja": 5613,
      "ÅĽciem": 5614,
      "weÅĤ": 5615,
      "Ich": 5616,
      "ĠNiemiec": 5617,
      "ospo": 5618,
      "liwy": 5619,
      "anymi": 5620,
      "ĠWarszawy": 5621,
      "Ġklucz": 5622,
      "cal": 5623,
      "Ġspojrzenie": 5624,
      "ownikÃ³w": 5625,
      "Zawsze": 5626,
      "twiej": 5627,
      "Ġwieczorem": 5628,
      "Ġzawodni": 5629,
      "].": 5630,
      "Ġfilozo": 5631,
      "gazy": 5632,
      "ĠbezpoÅĽrednio": 5633,
      "Ġgrupa": 5634,
      "ĠusÅĤug": 5635,
      "ĠKor": 5636,
      "ĠzgÅĤa": 5637,
      "Ġstatu": 5638,
      "rzone": 5639,
      "ĠÅĽmi": 5640,
      "kin": 5641,
      "Ġzadowo": 5642,
      "ĠzrozumieÄĩ": 5643,
      "rzony": 5644,
      "Ġlos": 5645,
      "Dopiero": 5646,
      "tion": 5647,
      "Ã³wki": 5648,
      "Ġskon": 5649,
      "wiony": 5650,
      "Ġbran": 5651,
      "ĠkomÃ³r": 5652,
      "Ġindywidu": 5653,
      "ÅĽliÅĤ": 5654,
      "ĠkrajÃ³w": 5655,
      "Ġbudowy": 5656,
      "ĠskrÄĻ": 5657,
      "ĠkrÃ³la": 5658,
      "Ġtempera": 5659,
      "Ġdruga": 5660,
      "ĠczuÅĤ": 5661,
      "Ġadres": 5662,
      "Ġbok": 5663,
      "Ġstopni": 5664,
      "Ġrozgry": 5665,
      "ĠSzcze": 5666,
      "ĠspoÅĤecznej": 5667,
      "oÅĤo": 5668,
      "ĠnieszczÄĻ": 5669,
      "Ġprezes": 5670,
      "Ġopiera": 5671,
      "ĠbÅĤo": 5672,
      "Ġwsta": 5673,
      "hu": 5674,
      "Ġopieki": 5675,
      "Ġstad": 5676,
      "Ġkorzy": 5677,
      "Ġszlach": 5678,
      "Ġkolor": 5679,
      "Tymczasem": 5680,
      "ĠdopÃ³ki": 5681,
      "rop": 5682,
      "czÄĻÅĽciej": 5683,
      "Ġmaj": 5684,
      "ĠSÅĤu": 5685,
      "ĠproÅĽ": 5686,
      "Ġpop": 5687,
      "Ġwyboru": 5688,
      "gdzie": 5689,
      "Mamy": 5690,
      "60": 5691,
      "Ġwiary": 5692,
      "ĠbÃ³l": 5693,
      "Ġow": 5694,
      "Ġodej": 5695,
      "Ġdziewczyny": 5696,
      "ĠdotyczÄħcych": 5697,
      "Ġwpis": 5698,
      "blem": 5699,
      "ĠRi": 5700,
      "sf": 5701,
      "ĠokreÅĽ": 5702,
      "ĠQ": 5703,
      "Niekt": 5704,
      "aÅĤÄĻ": 5705,
      "Ġzaczyn": 5706,
      "Ġmowa": 5707,
      "ĠZwiÄħz": 5708,
      "dawcy": 5709,
      "Ġniepoko": 5710,
      "ZresztÄħ": 5711,
      "muÅĤ": 5712,
      "ĠWrocÅĤa": 5713,
      "Ġunik": 5714,
      "pres": 5715,
      "ĠwkrÃ³tce": 5716,
      "Ġsklep": 5717,
      "ĠÅļlÄħ": 5718,
      "Ġ2000": 5719,
      "Ġet": 5720,
      "ou": 5721,
      "Ġtrw": 5722,
      "sci": 5723,
      "Ġcelem": 5724,
      "Ġwszelkie": 5725,
      "ĠspeÅĤni": 5726,
      "Ġzech": 5727,
      "Ġ31": 5728,
      "maty": 5729,
      "Ġcharaktery": 5730,
      "ine": 5731,
      "LI": 5732,
      "ĠludÅºmi": 5733,
      "ĠRzeczypospolitej": 5734,
      "Å»y": 5735,
      "ĠzdjÄĻcia": 5736,
      "Ġjakiego": 5737,
      "owiadaÅĤ": 5738,
      "Ġtygodniu": 5739,
      "Ġnaru": 5740,
      "ĠbyÅĤby": 5741,
      "ĠprÃ³bowaÅĤ": 5742,
      "Ġ=": 5743,
      "wek": 5744,
      "ĠAleks": 5745,
      "Ã³ze": 5746,
      "Ġobywateli": 5747,
      "III": 5748,
      "ĠniepeÅĤ": 5749,
      "ĠHu": 5750,
      "dle": 5751,
      "ĠpobliÅ¼u": 5752,
      "Ġoch": 5753,
      "szty": 5754,
      "Ġoszu": 5755,
      "finans": 5756,
      "Ġkieszeni": 5757,
      "Ġopozy": 5758,
      "ycha": 5759,
      "Ġdrog": 5760,
      "pieÅĦ": 5761,
      "cina": 5762,
      "ÅĤÄħd": 5763,
      "ĠwysÅĤ": 5764,
      "gÅĤy": 5765,
      "Ġwst": 5766,
      "cel": 5767,
      "ĠtydzieÅĦ": 5768,
      "tkÃ³w": 5769,
      "Ġpoma": 5770,
      "Ġoczami": 5771,
      "ieÅĦ": 5772,
      "stawy": 5773,
      "Ġbom": 5774,
      "Ġstruktu": 5775,
      "ĠÅ¼ebym": 5776,
      "Ġkryteria": 5777,
      "ĠzewnÄĻtrz": 5778,
      "aksym": 5779,
      "torze": 5780,
      "ĠfaÅĤ": 5781,
      "Ġsamych": 5782,
      "Ġwyz": 5783,
      "fiÄĻ": 5784,
      "jac": 5785,
      "ĠpojawiÅĤ": 5786,
      "Ġut": 5787,
      "Ġur": 5788,
      "ĠFundu": 5789,
      "dnienia": 5790,
      "ĠmyÅĽleÄĩ": 5791,
      "Ġogranicz": 5792,
      "aÅĤe": 5793,
      "ĠpamiÄĻci": 5794,
      "ÅĦskÄħ": 5795,
      "Ġreklam": 5796,
      "Ġdziad": 5797,
      "Ġtur": 5798,
      "PoniewaÅ¼": 5799,
      "ĠprzyszÅĤ": 5800,
      "Ġotwart": 5801,
      "ĠpiÄĻciu": 5802,
      "dla": 5803,
      "ĠwrÃ³ciÄĩ": 5804,
      "ĠmajÄħc": 5805,
      "ĠsÅĤuÅ¼b": 5806,
      "partam": 5807,
      "ÄħcÄħ": 5808,
      "zeum": 5809,
      "Ġstaty": 5810,
      "Ġsprawi": 5811,
      "ĠXV": 5812,
      "ĠCy": 5813,
      "Ġkrok": 5814,
      "Czyli": 5815,
      "Ġprzywi": 5816,
      "ĠczoÅĤ": 5817,
      "ĠgÅĤÄĻboko": 5818,
      "ĠniektÃ³re": 5819,
      "ĠÅ¼yw": 5820,
      "wans": 5821,
      "Zna": 5822,
      "29": 5823,
      "ĠdziesiÄĻÄĩ": 5824,
      "ĠHol": 5825,
      "Ġmagi": 5826,
      "Ġkonfli": 5827,
      "Ġkara": 5828,
      "ĠzabraÄĩ": 5829,
      "OR": 5830,
      "kowÄħ": 5831,
      "Ġprzeszka": 5832,
      "Ġrozmawi": 5833,
      "Ġznalezi": 5834,
      "Å¡": 5835,
      "Spoj": 5836,
      "fu": 5837,
      "Ġszpitala": 5838,
      "ĠstaÅĤy": 5839,
      "Ġbibli": 5840,
      "Ġpozost": 5841,
      "ĠgÅĤoÅĽno": 5842,
      "ĠPana": 5843,
      "ĠwÅĤadz": 5844,
      "Ġwin": 5845,
      "bach": 5846,
      "ĠwszÄĻdzie": 5847,
      "Ġpracuje": 5848,
      "Ġniezwykle": 5849,
      "ĠzwierzÄħt": 5850,
      "Ġmistrzost": 5851,
      "Ġcm": 5852,
      "lacy": 5853,
      "Ġmikro": 5854,
      "Tego": 5855,
      "ĠBÃ³g": 5856,
      "ĠkosztÃ³w": 5857,
      "owicie": 5858,
      "ciÄħgnÄħÅĤ": 5859,
      "ralnego": 5860,
      "ĠcÃ³Å¼": 5861,
      "Ġprowi": 5862,
      "Ġinna": 5863,
      "ĠDlaczego": 5864,
      "ĠprawdÄĻ": 5865,
      "Ġataku": 5866,
      "ÅĤat": 5867,
      "Ġkomputer": 5868,
      "ktyw": 5869,
      "ĠBan": 5870,
      "Ġstylu": 5871,
      "tyki": 5872,
      "ĠXX": 5873,
      "szczu": 5874,
      "ĠpielÄĻ": 5875,
      "uka": 5876,
      "Ġpierwsza": 5877,
      "ĠrzÄĻ": 5878,
      "ĠkrÃ³tko": 5879,
      "ĠÅ¼Äħ": 5880,
      "Ġujaw": 5881,
      "Ġdyp": 5882,
      "mer": 5883,
      "grzy": 5884,
      "Ġprzecho": 5885,
      "kcja": 5886,
      "ĠdotÄħd": 5887,
      "chnÄĻÅĤa": 5888,
      "ĠmiÅĤoÅĽci": 5889,
      "Ġdawna": 5890,
      "ĠodezwaÅĤ": 5891,
      "ĠzwrÃ³ciÄĩ": 5892,
      "ĠzmarÅĤ": 5893,
      "Ġwysp": 5894,
      "formy": 5895,
      "ĠmÄĻÅ¼czyz": 5896,
      "ÄĦ": 5897,
      "UwaÅ¼": 5898,
      "ĠMari": 5899,
      "ĠzabÃ³j": 5900,
      "ĠVi": 5901,
      "ĠposzczegÃ³lnych": 5902,
      "Ġbrzu": 5903,
      "Ġwykorzysty": 5904,
      "liny": 5905,
      "KA": 5906,
      "Ġzgroma": 5907,
      "Ġjazdy": 5908,
      "lak": 5909,
      "Ġtle": 5910,
      "Ġodwa": 5911,
      "osen": 5912,
      "ĠpatrzÄħc": 5913,
      "Ġdum": 5914,
      "Ġspu": 5915,
      "ĠsÄħdu": 5916,
      "Ġzapewnia": 5917,
      "ban": 5918,
      "denty": 5919,
      "ret": 5920,
      "Ġzostali": 5921,
      "ĠEd": 5922,
      "ĠmogÅĤem": 5923,
      "przeciw": 5924,
      "nospraw": 5925,
      "ĠdostaÅĤ": 5926,
      "ĠsprawdziÄĩ": 5927,
      "czania": 5928,
      "Ġrodzice": 5929,
      "ĠspokÃ³j": 5930,
      "Stra": 5931,
      "Ġnerw": 5932,
      "arem": 5933,
      "ĠlÄĻ": 5934,
      "Ġprzodu": 5935,
      "wodni": 5936,
      "ĠmiaÅĤam": 5937,
      "Ġprzekazania": 5938,
      "ĠTur": 5939,
      "Ġlepsze": 5940,
      "Ġbisku": 5941,
      "ĠsiedziaÅĤ": 5942,
      "ĠzespoÅĤu": 5943,
      "ĠdoÅĤÄħ": 5944,
      "ĠbliÅ¼ej": 5945,
      "nili": 5946,
      "Ġzdecydowanie": 5947,
      "Ã³Åºniej": 5948,
      "ĠzwykÅĤ": 5949,
      "Me": 5950,
      "iÄĻk": 5951,
      "Ġlikwi": 5952,
      "gaÄĩ": 5953,
      "Ġprzekro": 5954,
      "ert": 5955,
      "Ġboi": 5956,
      "ĠwiadomoÅĽÄĩ": 5957,
      "noszÄħc": 5958,
      "Ġmodli": 5959,
      "ĠstanowiÄħ": 5960,
      "chÃ³w": 5961,
      "Dobrze": 5962,
      "ĠzobaczyÅĤ": 5963,
      "land": 5964,
      "ĠdostaÄĩ": 5965,
      "ĠDziÄĻkujÄĻ": 5966,
      "ple": 5967,
      "ĠMinistrÃ³w": 5968,
      "mieniem": 5969,
      "rego": 5970,
      "ĠwystÄħ": 5971,
      "rus": 5972,
      "Ġmoze": 5973,
      "Ġjutro": 5974,
      "Ġroze": 5975,
      "Ġwspomni": 5976,
      "tacja": 5977,
      "owuje": 5978,
      "ĠmnÃ³": 5979,
      "Ġalkoho": 5980,
      "Ġwielkim": 5981,
      "Ġepi": 5982,
      "Ġswe": 5983,
      "ĠmÄħÅ¼": 5984,
      "Ġset": 5985,
      "demii": 5986,
      "czono": 5987,
      "Ġpublicznej": 5988,
      "Ġoznajmi": 5989,
      "ĠZacho": 5990,
      "rzyÅĤy": 5991,
      "Ġ35": 5992,
      "waniem": 5993,
      "Ġgranicy": 5994,
      "Ġpras": 5995,
      "ĠoprÃ³cz": 5996,
      "ĠczynnoÅĽci": 5997,
      "ĠStar": 5998,
      "ps": 5999,
      "ĠtreÅĽci": 6000,
      "Ġidio": 6001,
      "mujÄĻ": 6002,
      "Ba": 6003,
      "red": 6004,
      "ĠponiedziaÅĤ": 6005,
      "suje": 6006,
      "ĠpasaÅ¼e": 6007,
      "ĠnaszÄħ": 6008,
      "Ġnu": 6009,
      "ĠobowiÄħzu": 6010,
      "biÄĩ": 6011,
      "ĠumysÅĤ": 6012,
      "ctwa": 6013,
      "Au": 6014,
      "fii": 6015,
      "ĠnowÄħ": 6016,
      "Ġucho": 6017,
      "rzego": 6018,
      "Ġformal": 6019,
      "Szcze": 6020,
      "ĠwszedÅĤ": 6021,
      "Ġredak": 6022,
      "ĠBra": 6023,
      "Ġwojnie": 6024,
      "ĠrozwÃ³j": 6025,
      "Ġros": 6026,
      "tycznej": 6027,
      "ĠSpraw": 6028,
      "robo": 6029,
      "ĠJana": 6030,
      "pow": 6031,
      "ĠpytaÅĦ": 6032,
      "Ġprzygotowa": 6033,
      "80": 6034,
      "ĠzapytaÅĤa": 6035,
      "Ġklubu": 6036,
      "Ġnasza": 6037,
      "dziesz": 6038,
      "Ġgmin": 6039,
      "rÃ³bu": 6040,
      "ĠMinisterstwa": 6041,
      "jechaÄĩ": 6042,
      "Ġpodobne": 6043,
      "Pre": 6044,
      "ĠwnÄĻ": 6045,
      "ĠKonstytu": 6046,
      "kop": 6047,
      "ĠProszÄĻ": 6048,
      "Zgodnie": 6049,
      "OP": 6050,
      "Ġorganizacyjnych": 6051,
      "ĠDzi": 6052,
      "ĠAleksand": 6053,
      "ĠszukaÄĩ": 6054,
      "rÃ³Å¼y": 6055,
      "ĠokreÅĽla": 6056,
      "ĠduÅ¼y": 6057,
      "jo": 6058,
      "ĠMor": 6059,
      "Ġolbrzym": 6060,
      "arka": 6061,
      "ĠmiarÄĻ": 6062,
      "Ġreligij": 6063,
      "Ġzakaz": 6064,
      "Ġdniach": 6065,
      "Ġjasne": 6066,
      "ĠzachÄĻ": 6067,
      "ÅĤaÅĤa": 6068,
      "ĠwÅĤasnego": 6069,
      "ĠzespÃ³ÅĤ": 6070,
      "jan": 6071,
      "dÅĤa": 6072,
      "Ġczerwo": 6073,
      "ĠksztaÅĤt": 6074,
      "ownik": 6075,
      "dziesiÄĻ": 6076,
      "Ġpopra": 6077,
      "Ġpochodzi": 6078,
      "luje": 6079,
      "kszoÅĽÄĩ": 6080,
      "ĠdotyczÄħcym": 6081,
      "ychaÄĩ": 6082,
      "angaÅ¼": 6083,
      "ĠdoÅĽwiadczenia": 6084,
      "Ġsprzed": 6085,
      "unek": 6086,
      "ĠwyjaÅĽni": 6087,
      "lony": 6088,
      "ĠXI": 6089,
      "ĠmilionÃ³w": 6090,
      "ĠWol": 6091,
      "ĠskÃ³ry": 6092,
      "ĠPolskiego": 6093,
      "ĠokreÅĽle": 6094,
      "mawiaÄĩ": 6095,
      "ĠwdziÄĻ": 6096,
      "Ġbierze": 6097,
      "ĠoddziaÅĤ": 6098,
      "Ġnarze": 6099,
      "szymi": 6100,
      "Ġszpi": 6101,
      "Ġzwi": 6102,
      "id": 6103,
      "ciska": 6104,
      "Ġrozwija": 6105,
      "chaj": 6106,
      "Ġogo": 6107,
      "ĠspÃ³ÅĤki": 6108,
      "Ġwskazane": 6109,
      "Ġszale": 6110,
      "jazd": 6111,
      "arki": 6112,
      "czÄħce": 6113,
      "Ġsmo": 6114,
      "ĠiloÅĽÄĩ": 6115,
      "pan": 6116,
      "Ġjednostek": 6117,
      "dra": 6118,
      "Obecnie": 6119,
      "ĠwydawaÅĤo": 6120,
      "Ġstole": 6121,
      "ĠNor": 6122,
      "Ġfirma": 6123,
      "ĠmÅĤodych": 6124,
      "pytanie": 6125,
      "miu": 6126,
      "ĠCon": 6127,
      "Ġzobaczy": 6128,
      "ĠÅģo": 6129,
      "Ġwyniki": 6130,
      "Ġroli": 6131,
      "Ġ2018": 6132,
      "Ġkonsul": 6133,
      "Ġmld": 6134,
      "Ġrozpa": 6135,
      "ĠmiesiÄħce": 6136,
      "ĠSprawie": 6137,
      "Ġpolicja": 6138,
      "ĠMary": 6139,
      "torzy": 6140,
      "Ġzmiana": 6141,
      "ĠpotÄĻ": 6142,
      "ĠdwadzieÅĽcia": 6143,
      "Ġdym": 6144,
      "Ġjednostkach": 6145,
      "ĠgodzinÄĻ": 6146,
      "Ġcokolwiek": 6147,
      "czno": 6148,
      "Ġnegatyw": 6149,
      "ĠNiemcy": 6150,
      "ĠdÅĤonie": 6151,
      "wicza": 6152,
      "rygi": 6153,
      "ĠWszy": 6154,
      "ĠpowaÅ¼nie": 6155,
      "Ġchcemy": 6156,
      "Ġnazywa": 6157,
      "rudno": 6158,
      "ĠotrzymaÅĤ": 6159,
      "ĠwartoÅĽÄĩ": 6160,
      "ĠRol": 6161,
      "Ġgenera": 6162,
      "Ġwierz": 6163,
      "asy": 6164,
      "Ġmoni": 6165,
      "Ġzaprze": 6166,
      "Poli": 6167,
      "ĠdÅºwiÄĻ": 6168,
      "Ġkomuni": 6169,
      "ĠleÅ¼y": 6170,
      "ĠwarunkÃ³w": 6171,
      "ĠuzupeÅĤ": 6172,
      "twy": 6173,
      "Ġmagazy": 6174,
      "cyjnie": 6175,
      "RÃ³w": 6176,
      "regu": 6177,
      "Ġdobro": 6178,
      "Ġkrajach": 6179,
      "ChcÄĻ": 6180,
      "ÅĤoÅĽci": 6181,
      "rÄħz": 6182,
      "Ġcof": 6183,
      "Zw": 6184,
      "Ġbal": 6185,
      "kien": 6186,
      "Ġmle": 6187,
      "ĠÅĽw": 6188,
      "ĠcaÅĤoÅĽci": 6189,
      "Ġzamierza": 6190,
      "ĠwzdÅĤuÅ¼": 6191,
      "Ġpode": 6192,
      "ĠdziesiÄħ": 6193,
      "Stwier": 6194,
      "zach": 6195,
      "nastu": 6196,
      "AK": 6197,
      "ĠmiÅĤoÅĽÄĩ": 6198,
      "rej": 6199,
      "ĠtytuÅĤu": 6200,
      "dzÄħce": 6201,
      "ĠSan": 6202,
      "ĠpodniÃ³sÅĤ": 6203,
      "liÅĽcie": 6204,
      "hy": 6205,
      "Ġinstytucji": 6206,
      "Ġhas": 6207,
      "ĠPU": 6208,
      "taÅĤem": 6209,
      "Ġnada": 6210,
      "wkÄĻ": 6211,
      "Ġgrani": 6212,
      "ĠÅĽciany": 6213,
      "NastÄĻpnie": 6214,
      "Ġczynienia": 6215,
      "Ġzadanie": 6216,
      "ĠbÄĻd": 6217,
      "Ġobrony": 6218,
      "Ġprzestrzeni": 6219,
      "Ġcia": 6220,
      "ÅĤaÄĩ": 6221,
      "Ġroboty": 6222,
      "Ġchro": 6223,
      "ĠkaÅ¼da": 6224,
      "owcy": 6225,
      "zul": 6226,
      "Ġsymbo": 6227,
      "Ġzali": 6228,
      "gier": 6229,
      "Ġperspekty": 6230,
      "ĠjÄĻzyka": 6231,
      "Ġref": 6232,
      "Ġran": 6233,
      "Ġsztuki": 6234,
      "ĠwÅĤasnÄħ": 6235,
      "wka": 6236,
      "Dy": 6237,
      "Ġwsty": 6238,
      "ĠPowie": 6239,
      "ĠtytuÅĤ": 6240,
      "Ġwysoko": 6241,
      "owne": 6242,
      "ĠoglÄħda": 6243,
      "ĠwspÃ³ÅĤczes": 6244,
      "larÃ³w": 6245,
      "Ġzbo": 6246,
      "????": 6247,
      "Ġpowietrza": 6248,
      "ĠgroÅº": 6249,
      "all": 6250,
      "nom": 6251,
      "Ġmode": 6252,
      "Ġokna": 6253,
      "Ġwycof": 6254,
      "ÅĦcy": 6255,
      "Ġwychodzi": 6256,
      "niona": 6257,
      "ĠmÄĻÅ¼a": 6258,
      "ĠliÅĽcie": 6259,
      "czaÅĤa": 6260,
      "ĠÅĽcieÅ¼": 6261,
      "ĠÅĤatwiej": 6262,
      "ĠchrzeÅĽcija": 6263,
      "gam": 6264,
      "Ġgrozi": 6265,
      "LE": 6266,
      "woÅĽci": 6267,
      "Ġ2004": 6268,
      "ĠtrÃ³j": 6269,
      "ĠJÃ³ze": 6270,
      "Ġpraco": 6271,
      "Ġtr": 6272,
      "nieniu": 6273,
      "Ġnowoczes": 6274,
      "ĠliczyÄĩ": 6275,
      "Ġkonferen": 6276,
      "Ġszeroko": 6277,
      "ĠSer": 6278,
      "ciÅĤem": 6279,
      "niesienia": 6280,
      "Ġpokaz": 6281,
      "nieniem": 6282,
      "ĠzÅĤam": 6283,
      "ĠwyjÅĽÄĩ": 6284,
      "Ġrewolu": 6285,
      "ĠAndrzej": 6286,
      "pali": 6287,
      "Ġpropa": 6288,
      "Ġptak": 6289,
      "Ġnajgor": 6290,
      "ĠbÅĤÄħd": 6291,
      "WÅĤaÅĽnie": 6292,
      "Ġostatnim": 6293,
      "Ġopan": 6294,
      "ĠwÅĤasnym": 6295,
      "ĠPÃ³ÅĤ": 6296,
      "ĠniemoÅ¼": 6297,
      "atÃ³w": 6298,
      "Ġrozstrzy": 6299,
      "AM": 6300,
      "Ġinterne": 6301,
      "ÅĤod": 6302,
      "ĠrozmÃ³w": 6303,
      "Ġkoncep": 6304,
      "szkod": 6305,
      "cier": 6306,
      "Ġboga": 6307,
      "Ġratu": 6308,
      "Ġzwal": 6309,
      "ĠPary": 6310,
      "ĠzasiÄĻ": 6311,
      "Ġunie": 6312,
      "ĠpoÅĽredni": 6313,
      "Ġkurwa": 6314,
      "ĠpeÅĤne": 6315,
      "DziÅĽ": 6316,
      "zmem": 6317,
      "Ġpowierzch": 6318,
      "Ġadministracji": 6319,
      "ĠBie": 6320,
      "ByÄĩ": 6321,
      "Ġprzew": 6322,
      "car": 6323,
      "Å»ad": 6324,
      "Ġostatniej": 6325,
      "Ġkontakt": 6326,
      "ĠgÅĤupi": 6327,
      "Ġzabiera": 6328,
      "Ġpowiedz": 6329,
      "dyna": 6330,
      "oli": 6331,
      "Ġniem": 6332,
      "ĠÅĤÃ³Å¼ka": 6333,
      "ĠwÅĤadze": 6334,
      "ĠProkuratorowi": 6335,
      "ental": 6336,
      "ala": 6337,
      "ĠzwrÃ³ciÅĤ": 6338,
      "ĠodwrÃ³ciÅĤ": 6339,
      "Ġprzedmiot": 6340,
      "Ġobsza": 6341,
      "KtoÅĽ": 6342,
      "akcep": 6343,
      "Kobie": 6344,
      "Ġanali": 6345,
      "ed": 6346,
      "Ġkatastro": 6347,
      "onem": 6348,
      "Ġdochodzi": 6349,
      "ĠpowstaÅĤ": 6350,
      "mawia": 6351,
      "ĠRegionalnemu": 6352,
      "Ġ2006": 6353,
      "Ġwt": 6354,
      "aniaÅĤ": 6355,
      "ĠrobiÅĤ": 6356,
      "tari": 6357,
      "ĠmiejscowoÅĽci": 6358,
      "staura": 6359,
      "entar": 6360,
      "obra": 6361,
      "terna": 6362,
      "Â»": 6363,
      "ĠwodÄĻ": 6364,
      "Wysoka": 6365,
      "tacjÄĻ": 6366,
      "Ġzazwyczaj": 6367,
      "sÄħ": 6368,
      "Ġhistoria": 6369,
      "bywat": 6370,
      "ĠsÄħsiad": 6371,
      "styczny": 6372,
      "ĠpaÅĤa": 6373,
      "Ġpojawia": 6374,
      "ĠuÅĽmiechem": 6375,
      "ĠÅĽledz": 6376,
      "wit": 6377,
      "Ġgim": 6378,
      "wione": 6379,
      "tacza": 6380,
      "NI": 6381,
      "Ġimi": 6382,
      "tkÄĻ": 6383,
      "Ġuprzejmie": 6384,
      "ĠPiotr": 6385,
      "Ġnapa": 6386,
      "ĠJas": 6387,
      "dol": 6388,
      "ĠzaangaÅ¼": 6389,
      "ĠzrobiÅĤa": 6390,
      "ĠwiÄĻkszÄħ": 6391,
      "Ġtermin": 6392,
      "Ġpotrzebne": 6393,
      "ĠodparÅĤa": 6394,
      "dawca": 6395,
      "obÃ³j": 6396,
      "ospodar": 6397,
      "ĠuÅĽwiad": 6398,
      "ÄĨ": 6399,
      "www": 6400,
      "Ġklub": 6401,
      "Ġilu": 6402,
      "Ġnowym": 6403,
      "ĠposzedÅĤ": 6404,
      "Ġpapiero": 6405,
      "%.": 6406,
      "ĠpowinniÅĽmy": 6407,
      "Ġtobie": 6408,
      "ĠKiedy": 6409,
      "Ġrozsze": 6410,
      "ÅĽciÅĤa": 6411,
      "Ġwywiad": 6412,
      "Dodat": 6413,
      "lnym": 6414,
      "gne": 6415,
      "lis": 6416,
      "MÄĻÅ¼czy": 6417,
      "ĠWÄĻ": 6418,
      "Ġkompe": 6419,
      "ĠbyÅĤam": 6420,
      "Ġpodejrz": 6421,
      "ĠBel": 6422,
      "Ġhar": 6423,
      "Ġklim": 6424,
      "Ġbrytyj": 6425,
      "Dz": 6426,
      "Ġpotrzeba": 6427,
      "Ġmiejscach": 6428,
      "ĠgÅĤosÃ³w": 6429,
      "ĠÅĽwiatowej": 6430,
      "Ġniedzie": 6431,
      "Ġwyczu": 6432,
      "ĠsprawÄħ": 6433,
      "leb": 6434,
      "Ġatmos": 6435,
      "ĠzwiÄħzek": 6436,
      "aÅĤeÅĽ": 6437,
      "Ġdrewni": 6438,
      "Ġmary": 6439,
      "Ġszybciej": 6440,
      "RR": 6441,
      "iego": 6442,
      "ĠniepeÅĤnospraw": 6443,
      "Ġdysk": 6444,
      "gania": 6445,
      "ĠLondy": 6446,
      "ÅĤka": 6447,
      "Wa": 6448,
      "lonej": 6449,
      "ĠpodlegÅĤych": 6450,
      "Ġgard": 6451,
      "Ġkupu": 6452,
      "Zda": 6453,
      "ĠjÄĻzyk": 6454,
      "Ġstudia": 6455,
      "cko": 6456,
      "ĠruszyÅĤ": 6457,
      "Ġbutel": 6458,
      "czÄħcego": 6459,
      "cona": 6460,
      "Ġuszko": 6461,
      "rÃ³ciÄĩ": 6462,
      "................": 6463,
      "Ġnowa": 6464,
      "tet": 6465,
      "Ġdobrym": 6466,
      "ruch": 6467,
      "Ġdok": 6468,
      "nerw": 6469,
      "ĠmÅĤody": 6470,
      "Ġinicjaty": 6471,
      "szne": 6472,
      "ĠsÄħsie": 6473,
      "ĠuÅĤo": 6474,
      "ĠJeste": 6475,
      "Pierw": 6476,
      "ĠHenry": 6477,
      "ĠsprzedaÅ¼y": 6478,
      "Ġogro": 6479,
      "Ġwydoby": 6480,
      "hol": 6481,
      "ÅĤowi": 6482,
      "ĠChar": 6483,
      "ĠrozsÄħd": 6484,
      "ĠobowiÄħzek": 6485,
      "wiaty": 6486,
      "Ġsamodziel": 6487,
      "ĠsÄħdzÄĻ": 6488,
      "jeÅ¼dÅ¼": 6489,
      "Ġtacy": 6490,
      "ĠZak": 6491,
      "OtÃ³Å¼": 6492,
      "ÅºÄĩ": 6493,
      "Ġtrzecie": 6494,
      "cieka": 6495,
      "Ġreprezent": 6496,
      "Äħco": 6497,
      "szyb": 6498,
      "Ġkore": 6499,
      "ĠInstytu": 6500,
      "ĠCzar": 6501,
      "45": 6502,
      "Ġwyklu": 6503,
      "ĠmnÃ³stwo": 6504,
      "Ġarmii": 6505,
      "lanie": 6506,
      "Ġkary": 6507,
      "Ġproducen": 6508,
      "Ġsobo": 6509,
      "kiewicz": 6510,
      "Ġofice": 6511,
      "ĠspytaÅĤa": 6512,
      "ĠGmi": 6513,
      "Ġdodaje": 6514,
      "mian": 6515,
      "Ġzabie": 6516,
      "Ġwielkiego": 6517,
      "Ona": 6518,
      "Ġstacji": 6519,
      "ĠpoczuÅĤ": 6520,
      "pt": 6521,
      "Ġosobist": 6522,
      "Ġnieza": 6523,
      "Ġgada": 6524,
      "zje": 6525,
      "ros": 6526,
      "ele": 6527,
      "uj": 6528,
      "Ġ45": 6529,
      "ĠnaleÅ¼Äħ": 6530,
      "ĠZjednoczonych": 6531,
      "Ġpopiera": 6532,
      "Ġoddech": 6533,
      "ĠTwo": 6534,
      "ĠprawidÅĤowoÅĽci": 6535,
      "ĠwyksztaÅĤ": 6536,
      "WiÄĻkszoÅĽÄĩ": 6537,
      "stycznej": 6538,
      "stawa": 6539,
      "Ġsekun": 6540,
      ".).": 6541,
      "rzaÅĤem": 6542,
      "Ġrodzina": 6543,
      "Ġpowinie": 6544,
      "Ġdemokra": 6545,
      "Ġnieba": 6546,
      "Ġdostos": 6547,
      "ĠmiÄĻk": 6548,
      "70": 6549,
      "ĠSie": 6550,
      "ĠPaÅĦstw": 6551,
      "gaÅĤa": 6552,
      "wiÄĻcej": 6553,
      "ĠMinisterstwo": 6554,
      "Ġnasi": 6555,
      "Ġrynek": 6556,
      "Ġkorzyst": 6557,
      "Ga": 6558,
      "Ġfabry": 6559,
      "Ju": 6560,
      "ruk": 6561,
      "Ġprzyw": 6562,
      "Ġogni": 6563,
      "Ġposiedzeniu": 6564,
      "ĠrozmawiaÄĩ": 6565,
      "kujÄħ": 6566,
      "Ġniebo": 6567,
      "Nad": 6568,
      "Ġstali": 6569,
      "CoÅĽ": 6570,
      "Ġzrezy": 6571,
      "szoÅĽci": 6572,
      "Ġfacet": 6573,
      "Ġplanu": 6574,
      "ĠzobowiÄħza": 6575,
      "Ġapli": 6576,
      "Ġkonser": 6577,
      "alni": 6578,
      "ĠpostaÄĩ": 6579,
      "Ġzacznie": 6580,
      "ĠWin": 6581,
      "Ġzamach": 6582,
      "Ġzostaje": 6583,
      "Ġgaz": 6584,
      "Ġdoktor": 6585,
      "anÃ³w": 6586,
      "Ġzapad": 6587,
      "Mat": 6588,
      "ĠÅ¼ar": 6589,
      "Ġinterpre": 6590,
      "Su": 6591,
      "Ġdosy": 6592,
      "Ġgabine": 6593,
      "sum": 6594,
      "Ġterytori": 6595,
      "ĠponiÅ¼ej": 6596,
      "Ġpojedyn": 6597,
      "Ġdobrego": 6598,
      "ciach": 6599,
      "rki": 6600,
      "ĠpozostaÅĤych": 6601,
      "owac": 6602,
      "Ġnaby": 6603,
      "stos": 6604,
      "Ġhttps": 6605,
      "Stan": 6606,
      "Ġklat": 6607,
      "ndu": 6608,
      "nosiÅĤ": 6609,
      "Ġpoziomu": 6610,
      "Ġpoczucie": 6611,
      "ĠzaczÄĻli": 6612,
      "ĠIzbo": 6613,
      "Ġnieprze": 6614,
      "spozy": 6615,
      "Ġwarsza": 6616,
      "Ġpolskim": 6617,
      "np": 6618,
      "Wydaje": 6619,
      "Ġwzbu": 6620,
      "ĠprzyjÄĻcie": 6621,
      "bienia": 6622,
      "wyczaj": 6623,
      "ĠzaczÄĻÅĤy": 6624,
      "ĠosobiÅĽcie": 6625,
      "nicze": 6626,
      "Ġlekarz": 6627,
      "ĠsprawiedliwoÅĽci": 6628,
      "Ġkwali": 6629,
      "ĠzamkniÄĻ": 6630,
      "Ġskarb": 6631,
      "ĠwyjÄħtk": 6632,
      "ĠchodziÅĤo": 6633,
      "ĠGi": 6634,
      "Ġbrat": 6635,
      "Ġprawem": 6636,
      "tyczny": 6637,
      "Ġegzami": 6638,
      "ĠKrzyszto": 6639,
      "ĠMosk": 6640,
      "ld": 6641,
      "Ġsenator": 6642,
      "ĠusÅĤyszaÅĤ": 6643,
      "ĠpierwszÄħ": 6644,
      "ĠmieliÅĽmy": 6645,
      "ces": 6646,
      "ĠmaÅĤych": 6647,
      "Ġwice": 6648,
      "ĠduÅ¼ej": 6649,
      "ĠduÅ¼Äħ": 6650,
      "ĠKaczy": 6651,
      "Ġmecz": 6652,
      "Ġzaplan": 6653,
      "Ġprzech": 6654,
      "Ġprzegra": 6655,
      "Ġkontek": 6656,
      "ĠWY": 6657,
      "dyj": 6658,
      "ĠswÄħ": 6659,
      "Ġnego": 6660,
      "Ġpodmiotom": 6661,
      "ĠubiegÅĤ": 6662,
      "Ru": 6663,
      "dujÄħ": 6664,
      "ĠpokÃ³j": 6665,
      "ĠpodwyÅ¼": 6666,
      "Ġprzedstawie": 6667,
      "Ġmaksym": 6668,
      "niaÅĤy": 6669,
      "Ġareszt": 6670,
      "ath": 6671,
      "ĠCiebie": 6672,
      "szeÄĩ": 6673,
      "Ġwypadek": 6674,
      "Ġeksplo": 6675,
      "ĠpracowaÅĤ": 6676,
      "lonego": 6677,
      "ciwie": 6678,
      "ĠTrybun": 6679,
      "35": 6680,
      "Ġboku": 6681,
      "ĠwspaniaÅĤ": 6682,
      "liwych": 6683,
      "ĠdziÄĻkujÄĻ": 6684,
      "Ġchmu": 6685,
      "skimi": 6686,
      "Ġzegar": 6687,
      "ĠNajwyÅ¼": 6688,
      "Ġmieszkanie": 6689,
      "Ġnag": 6690,
      "ĠWiÄĻ": 6691,
      "sch": 6692,
      "Ġdram": 6693,
      "Ġtabli": 6694,
      "ĠÅ¼a": 6695,
      "Ġprzerw": 6696,
      "met": 6697,
      "Ġpyt": 6698,
      "ĠczekaÄĩ": 6699,
      ".:": 6700,
      "ĠwieÅĽ": 6701,
      "Ġbieg": 6702,
      "Ġdziwne": 6703,
      "Ġsystemie": 6704,
      "zon": 6705,
      "ĠnajczÄĻÅĽciej": 6706,
      "ĠpatrzyÅĤ": 6707,
      "rzyli": 6708,
      "Ġdrzewa": 6709,
      "ĠszansÄĻ": 6710,
      "encji": 6711,
      "Kilka": 6712,
      "Ġodbiera": 6713,
      "Ġzatrudni": 6714,
      "Ġrestaura": 6715,
      "Ġproste": 6716,
      "Ġuroczy": 6717,
      "szona": 6718,
      "ĠJestem": 6719,
      "Ġpowietrzu": 6720,
      "gent": 6721,
      "scypli": 6722,
      "szpa": 6723,
      "ĠzrozumiaÅĤ": 6724,
      "ĠwÅĤaÅĽcicielom": 6725,
      "ĠÅĽwietle": 6726,
      "ĠzÅĤe": 6727,
      "karz": 6728,
      "ÅĤek": 6729,
      "tujÄħ": 6730,
      "ame": 6731,
      "Lecz": 6732,
      "ĠznalazÅĤa": 6733,
      "Ġhipo": 6734,
      "Ġ000": 6735,
      "Ġpodko": 6736,
      "Ġsprzeciw": 6737,
      "ĠsprÃ³b": 6738,
      "Ġwybi": 6739,
      "Ġzajmuje": 6740,
      "ĠSzko": 6741,
      "Ġautomaty": 6742,
      "ĠKul": 6743,
      "Ġobja": 6744,
      "ĠwÅĤaÅĽciciel": 6745,
      "Ġurucho": 6746,
      "pina": 6747,
      "Ġbrata": 6748,
      "ĠkoÅĦczy": 6749,
      "usa": 6750,
      "Ġfilmu": 6751,
      "ĠprzesÅĤu": 6752,
      "ĠJaro": 6753,
      "Ġokno": 6754,
      "ĠCentrum": 6755,
      "Ġwojska": 6756,
      "ĠprzeciÄĻ": 6757,
      "Ġprzedstawia": 6758,
      "ury": 6759,
      "Ġtygodnie": 6760,
      "ĠkaÅ¼dÄħ": 6761,
      "godne": 6762,
      "Ġmama": 6763,
      "Ġnapo": 6764,
      "Ġzachwy": 6765,
      "Ġnagro": 6766,
      "ralnej": 6767,
      "Ġ...": 6768,
      "ĠkoÅĽcioÅĤa": 6769,
      "anek": 6770,
      "ĠksiÄĻÅ¼y": 6771,
      "owska": 6772,
      "ĠwysÅĤa": 6773,
      "ĠrÄħk": 6774,
      "Ġchoroby": 6775,
      "ĠdziaÅĤanie": 6776,
      "Sze": 6777,
      "ĠpotrafiÅĤ": 6778,
      "Ġprzygotowawcze": 6779,
      "Ġwycie": 6780,
      "MÃ³j": 6781,
      "Ġostatecznie": 6782,
      "Ġuko": 6783,
      "Ġudzie": 6784,
      "ralny": 6785,
      "stÄħpiÅĤ": 6786,
      "zda": 6787,
      "Ġpost": 6788,
      "kanaÅĽcie": 6789,
      "Ġwspomina": 6790,
      "onor": 6791,
      "Ġutrzymy": 6792,
      "ĠÅĤÃ³Å¼ku": 6793,
      "Ġkli": 6794,
      "Si": 6795,
      "Ġorygi": 6796,
      "ĠÅĽmiertel": 6797,
      "ĠzmianÄĻ": 6798,
      "ĠmyÅĽlÄħ": 6799,
      "ĠinnÄħ": 6800,
      "Ġniezn": 6801,
      "ĠznajdujÄħ": 6802,
      "ĠWscho": 6803,
      "Ġobi": 6804,
      "Ġrzeki": 6805,
      "ĠktÃ³remu": 6806,
      "ĠdolarÃ³w": 6807,
      "owaÅ¼": 6808,
      "ĠwyjÅĽcia": 6809,
      "Ġpostu": 6810,
      "Ġrozkaz": 6811,
      "Ġ300": 6812,
      "peri": 6813,
      "Ġforma": 6814,
      "ĠchwilÄħ": 6815,
      "Skoro": 6816,
      "Rz": 6817,
      "Ġjezi": 6818,
      "Ġtest": 6819,
      "Ġwskazanej": 6820,
      "Ġ2005": 6821,
      "Ġzabija": 6822,
      "gÃ³lnie": 6823,
      "Ġniewol": 6824,
      "ĠSenatu": 6825,
      "sarz": 6826,
      "ĠzÄĻby": 6827,
      "Ġtwoja": 6828,
      "Ġintensyw": 6829,
      "Ġrodzinie": 6830,
      "Ġniepraw": 6831,
      "ĠkrÃ³lew": 6832,
      "ĠBez": 6833,
      "Ġpodzi": 6834,
      "ĠspojrzaÅĤa": 6835,
      "mani": 6836,
      "Å¼ynie": 6837,
      "Ġnieko": 6838,
      "Ġkrzyw": 6839,
      "ĠHer": 6840,
      "czÄħcych": 6841,
      "ctwo": 6842,
      "olo": 6843,
      "pen": 6844,
      "ĠGÃ³r": 6845,
      "ĠoddziaÅĤy": 6846,
      "ĠkoÅĽ": 6847,
      "Äĩmi": 6848,
      "ChociaÅ¼": 6849,
      "ĠpodrÃ³Å¼y": 6850,
      "Ġzba": 6851,
      "rÄĻb": 6852,
      "Ġodczy": 6853,
      "ĠudziaÅĤu": 6854,
      "Ġpierwo": 6855,
      "Ġwszech": 6856,
      "zujÄħc": 6857,
      "Ġrezul": 6858,
      "Ġdoda": 6859,
      "encie": 6860,
      "ĠRosja": 6861,
      "ĠzapytaÄĩ": 6862,
      "Ġparu": 6863,
      "Ġzapytaniu": 6864,
      "Ġgroma": 6865,
      "ĠMon": 6866,
      "Ġliczy": 6867,
      "ĠstanÄĻ": 6868,
      "Ġzachowania": 6869,
      "cielem": 6870,
      "ĠchÅĤopak": 6871,
      "ralne": 6872,
      "ĠwodÄħ": 6873,
      "Ã³p": 6874,
      "rotnie": 6875,
      "Ġzapowie": 6876,
      "ĠPraw": 6877,
      "ĠhistoriÄĻ": 6878,
      "Ġbrzegu": 6879,
      "ĠpiÄħtek": 6880,
      "ĠÅ¼ony": 6881,
      "ĠTwoje": 6882,
      "ĠklÄĻ": 6883,
      "ĠdÅºwiÄĻk": 6884,
      "Ġkasy": 6885,
      "twarza": 6886,
      "ĠczujÄĻ": 6887,
      "ĠTra": 6888,
      "ĠkaÅ¼de": 6889,
      "Ġspowod": 6890,
      "oku": 6891,
      "Ġbrwi": 6892,
      "ĠotworzyÅĤ": 6893,
      "Zoba": 6894,
      "Ġzdania": 6895,
      "Ġtamtej": 6896,
      "ĠMiejskÄħ": 6897,
      "dnego": 6898,
      "ĠtysiÄħce": 6899,
      "ĠSch": 6900,
      "ĠMusi": 6901,
      "dnym": 6902,
      "Ġsensie": 6903,
      "Ġgorzej": 6904,
      "Ġtwierdzi": 6905,
      "kowaÅĤo": 6906,
      "ÅĤki": 6907,
      "ĠcenÄĻ": 6908,
      "Ġnieod": 6909,
      "ĠKomis": 6910,
      "zjÄĻ": 6911,
      "ĠwyglÄħdaÅĤ": 6912,
      "ĠPUDZIA": 6913,
      "kowanie": 6914,
      "Ġbrakuje": 6915,
      "ĠspoÅĤecznych": 6916,
      "Ġopad": 6917,
      "Ġprzyjm": 6918,
      "Zam": 6919,
      "Ġenerge": 6920,
      "ĠludnoÅĽci": 6921,
      "ĠpoglÄħd": 6922,
      "ĠpeÅĤno": 6923,
      "ĠzÅĤego": 6924,
      "----": 6925,
      "ĠZiemi": 6926,
      "Ġwzajem": 6927,
      "prawdzie": 6928,
      "niejszym": 6929,
      "nta": 6930,
      "Ġprzyro": 6931,
      "ĠZdrowia": 6932,
      "olat": 6933,
      "Ġprzyzn": 6934,
      "Ġwnioski": 6935,
      "Ġswoimi": 6936,
      "dnÄħ": 6937,
      "Podobnie": 6938,
      "Ġokolicy": 6939,
      "brew": 6940,
      "Pewnie": 6941,
      "ĠdosyÄĩ": 6942,
      "ĠsÅĤyszÄĻ": 6943,
      "Ġwzrostu": 6944,
      "cesz": 6945,
      "wicy": 6946,
      "Ġopubli": 6947,
      "Ġunika": 6948,
      "ĠprÄĻdkoÅĽci": 6949,
      "ĠprzyjÄħÄĩ": 6950,
      "Ġwyobraz": 6951,
      "Ġwyborach": 6952,
      "ĠodpowiedzieÄĩ": 6953,
      "ĠwytÅĤuma": 6954,
      "Ġprojekcie": 6955,
      "lety": 6956,
      "Ġpodlega": 6957,
      "Ġskompli": 6958,
      "Ġumiera": 6959,
      "ĠwstÄĻp": 6960,
      "ĠGospodar": 6961,
      "ĠdziaÅĤaÄĩ": 6962,
      "niom": 6963,
      "ĠmÄĻÅ¼czyzny": 6964,
      "Ġboj": 6965,
      "ĠNau": 6966,
      "GÅĤos": 6967,
      "ĠÅĽwiadomoÅĽÄĩ": 6968,
      "Ġnazwisko": 6969,
      "kaj": 6970,
      "linie": 6971,
      "ĠGminÄĻ": 6972,
      "Ġinfra": 6973,
      "ĠzawoÅĤaÅĤ": 6974,
      "Ġis": 6975,
      "kur": 6976,
      "ĠÅ¼adne": 6977,
      "Ġniepew": 6978,
      "kÅĤady": 6979,
      "Ġimpre": 6980,
      "rator": 6981,
      "pka": 6982,
      "Ġradi": 6983,
      "Ġprezesa": 6984,
      "Ġgen": 6985,
      "szeniu": 6986,
      "Ġkwoty": 6987,
      "ĠpowodÃ³w": 6988,
      "Ġzachodni": 6989,
      "soby": 6990,
      "Ġodz": 6991,
      "Ġgrub": 6992,
      "laÅĤ": 6993,
      "Ġwiatr": 6994,
      "ĠCiÄĻ": 6995,
      "ĠukoÅĦ": 6996,
      "ĠkomuÅĽ": 6997,
      "ĠPlat": 6998,
      "ĠstanÄħÅĤ": 6999,
      "rodÄĻ": 7000,
      "dro": 7001,
      "Ġpowoduje": 7002,
      "ĠmÄĻÅ¼czyÅºni": 7003,
      "tetu": 7004,
      "ĠpokazaÄĩ": 7005,
      "Oba": 7006,
      "niajÄħc": 7007,
      "Ġbezrobo": 7008,
      "Ġrzuca": 7009,
      "Or": 7010,
      "Ġsypi": 7011,
      "Ġrzadko": 7012,
      "Ġmodel": 7013,
      "Ġkontrol": 7014,
      "kowskiego": 7015,
      "ĠpoznaÄĩ": 7016,
      "Ã¼": 7017,
      "Ġpowiecie": 7018,
      "Ġwersji": 7019,
      "Ġprzywo": 7020,
      "Ġrodzin": 7021,
      "noty": 7022,
      "czkÄħ": 7023,
      "ĠPUDZIAN": 7024,
      "ell": 7025,
      "eth": 7026,
      "nina": 7027,
      "Ġbylo": 7028,
      "Ġkiedykolwiek": 7029,
      "ĠÅĤam": 7030,
      "czech": 7031,
      "ografi": 7032,
      "zaÄĩ": 7033,
      "An": 7034,
      "Ġregular": 7035,
      "Ġreszta": 7036,
      "ĠbÃ³lu": 7037,
      "ĠÅºrÃ³": 7038,
      "jad": 7039,
      "ĠÅ¼ydow": 7040,
      "Ġlot": 7041,
      "ĠwejÅĽÄĩ": 7042,
      "ÅĤoÅ¼yÅĤ": 7043,
      "ĠodmÃ³wi": 7044,
      "ĠksiÄħÅ¼ÄĻ": 7045,
      "ĠodlegÅĤoÅĽci": 7046,
      "ĠbyÅĤaby": 7047,
      "Ġpers": 7048,
      "czonego": 7049,
      "ĠFinans": 7050,
      "ĠMan": 7051,
      "ĠgotÃ³w": 7052,
      "Ġpalce": 7053,
      "ĠdowiedzieÄĩ": 7054,
      "ĠniechÄĻ": 7055,
      "ĠstÃ³p": 7056,
      "ĠwiÄĻzienia": 7057,
      "ĠpodszedÅĤ": 7058,
      "ĠNic": 7059,
      "Ġporusza": 7060,
      "Ġkoszt": 7061,
      "Ġrapor": 7062,
      "Ġczytel": 7063,
      "ĠchÄĻtnie": 7064,
      "ĠTom": 7065,
      "ĠRzym": 7066,
      "ĠprzejÅĽÄĩ": 7067,
      "Ġposiedzenia": 7068,
      "Ġdecyzja": 7069,
      "Ġwykrzy": 7070,
      "Ġterro": 7071,
      "atak": 7072,
      "Ġopo": 7073,
      "Ã¡": 7074,
      "ByÅĤy": 7075,
      "Ġnarko": 7076,
      "Ġswym": 7077,
      "Ġwiec": 7078,
      "Wystar": 7079,
      "NaleÅ¼y": 7080,
      "dgo": 7081,
      "Ġnikomu": 7082,
      "ĠOczywiÅĽcie": 7083,
      "Ġpromo": 7084,
      "ĠtrwaÅĤ": 7085,
      "Ġwczes": 7086,
      "ĠuczniÃ³w": 7087,
      "Ġkuch": 7088,
      "ĠPat": 7089,
      "Ġsfor": 7090,
      "rzec": 7091,
      "NE": 7092,
      "Ġczterdzie": 7093,
      "%,": 7094,
      "Ġruszy": 7095,
      "Ġobra": 7096,
      "Ġprezent": 7097,
      "Ġkonsekwen": 7098,
      "ĠâĢ¢": 7099,
      "Ġ190": 7100,
      "ĠprowadziÄĩ": 7101,
      "Ġniedawno": 7102,
      "Ġteat": 7103,
      "ĠtysiÄħc": 7104,
      "tycznego": 7105,
      "pach": 7106,
      "Ġprzekazy": 7107,
      "Tra": 7108,
      "Ġpozostaje": 7109,
      "ĠwÃ³z": 7110,
      "Ġcodziennie": 7111,
      "Ġwielkich": 7112,
      "ĠBryta": 7113,
      "bÅĤa": 7114,
      "SÅĤu": 7115,
      "Ġzachowanie": 7116,
      "rozu": 7117,
      "rin": 7118,
      "Ġwoda": 7119,
      "ĠdobrÄħ": 7120,
      "Ġwyczer": 7121,
      "ĠlÄħd": 7122,
      "ĠpotrafiÄħ": 7123,
      "mujÄħc": 7124,
      "Tutaj": 7125,
      "Ġpokazuje": 7126,
      "Pie": 7127,
      "ÅĦstwem": 7128,
      "Ġzrealiz": 7129,
      "ĠwÅĤad": 7130,
      "Ġzdaje": 7131,
      "bin": 7132,
      "Ġzmy": 7133,
      "pas": 7134,
      "Ġpola": 7135,
      "ĠPrawo": 7136,
      "ĠosobÄĻ": 7137,
      "ĠosobÄħ": 7138,
      "Ġham": 7139,
      "ChÅĤo": 7140,
      "Jo": 7141,
      "ĠsiÅĤÄĻ": 7142,
      "wiata": 7143,
      "ĠSA": 7144,
      "lane": 7145,
      "ĠObywat": 7146,
      "czce": 7147,
      "ĠtÅĤum": 7148,
      "ĠwspÃ³ÅĤprac": 7149,
      "dzajÄħc": 7150,
      "ris": 7151,
      "Ġgrz": 7152,
      "Ġubo": 7153,
      "Ġprzet": 7154,
      "ĠpowyÅ¼ej": 7155,
      "PÃ³Åºniej": 7156,
      "ĠDobrze": 7157,
      "Ġlekarza": 7158,
      "ÅĤudni": 7159,
      "Ġwielkiej": 7160,
      "dowaÅĤy": 7161,
      "ĠpamiÄĻta": 7162,
      "ĠprzyznaÄĩ": 7163,
      "lian": 7164,
      "Gra": 7165,
      "fery": 7166,
      "ĠokrÄħ": 7167,
      "Ġwojewo": 7168,
      "ĠwyjaÅĽnia": 7169,
      "dawaÅĤo": 7170,
      "ĠzabiÄĩ": 7171,
      "Ġpewnych": 7172,
      "fon": 7173,
      "Ġmm": 7174,
      "Ġszklan": 7175,
      "Ġamb": 7176,
      "ĠzaczÄħÄĩ": 7177,
      "mujÄħ": 7178,
      "Ġpodejrze": 7179,
      "Ġnauczyciel": 7180,
      "Ġsuger": 7181,
      "Ġcha": 7182,
      "not": 7183,
      "Ġserwi": 7184,
      "Ġbram": 7185,
      "Ġkwiat": 7186,
      "Ġfanta": 7187,
      "Ġpiosen": 7188,
      "bil": 7189,
      "bek": 7190,
      "rowie": 7191,
      "Ġprzypadkach": 7192,
      "ĠobsÅĤu": 7193,
      "Ġfunkcji": 7194,
      "ĠniektÃ³rzy": 7195,
      "Ġzeby": 7196,
      "Ġudowo": 7197,
      "ĠprzyznaÅĤ": 7198,
      "ĠpodkreÅĽla": 7199,
      "niÅĤy": 7200,
      "rodzi": 7201,
      "Ġspecjalnie": 7202,
      "Ġgrun": 7203,
      "ĠFor": 7204,
      "ĠduÅ¼ym": 7205,
      "skach": 7206,
      "Ġwydarzenia": 7207,
      "ĠzatrzymaÅĤ": 7208,
      "Ġnast": 7209,
      "Ġgrzy": 7210,
      "ĠprzyszedÅĤ": 7211,
      "Ġwyprze": 7212,
      "ĠprzyszÅĤoÅĽÄĩ": 7213,
      "ĠÅĽwiadczeÅĦ": 7214,
      "ĠumiejÄĻtnoÅĽci": 7215,
      "Ġprzeja": 7216,
      "cham": 7217,
      "Ġsprawia": 7218,
      "kracza": 7219,
      "Ġprzetar": 7220,
      "Ġjasno": 7221,
      "ĠdÄħ": 7222,
      "Å¼yÅĤy": 7223,
      "ĠprzywÃ³d": 7224,
      "ĠciemnoÅĽci": 7225,
      "laty": 7226,
      "ĠuznaÅĤ": 7227,
      "Ġreprezenta": 7228,
      "90": 7229,
      "tnoÅĽÄĩ": 7230,
      "ĠpoÅ¼e": 7231,
      "ĠÅ¼ebyÅĽ": 7232,
      "Ġuwol": 7233,
      "Ġtwoim": 7234,
      "Ġzag": 7235,
      "ĠJor": 7236,
      "ĠspeÅĤniaÅĤoby": 7237,
      "pto": 7238,
      "ĠpÃ³Åºno": 7239,
      "pelu": 7240,
      "Ġskali": 7241,
      "Ġscen": 7242,
      "ĠdodaÄĩ": 7243,
      "baty": 7244,
      "ĠmaÅĤa": 7245,
      "dÅĤugo": 7246,
      "dzanie": 7247,
      "DA": 7248,
      "derni": 7249,
      "Ġfal": 7250,
      "Ġbank": 7251,
      "Pierwszy": 7252,
      "mocy": 7253,
      "kÅĤe": 7254,
      "Ġbiura": 7255,
      "ÅĦcz": 7256,
      "pii": 7257,
      "jechaÅĤa": 7258,
      "Ġdostanie": 7259,
      "Ġrozmi": 7260,
      "Ġryn": 7261,
      "Ġukrai": 7262,
      "nen": 7263,
      "km": 7264,
      "Ġ2001": 7265,
      "owskiej": 7266,
      "ĠdaÅĤo": 7267,
      "ĠÅ¼on": 7268,
      "Ġsocjali": 7269,
      "tanie": 7270,
      "ĠUrzÄĻ": 7271,
      "Ġprocesu": 7272,
      "Ġtera": 7273,
      "ĠniedzielÄĻ": 7274,
      "mac": 7275,
      "ĠprzemysÅĤ": 7276,
      "Wz": 7277,
      "die": 7278,
      "Ġpiw": 7279,
      "szczone": 7280,
      "Ġopieku": 7281,
      "MiaÅĤa": 7282,
      "ĠinformacjÄĻ": 7283,
      "Najpierw": 7284,
      "ĠrÃ³wnowa": 7285,
      "Ġpostanowie": 7286,
      "Ġkapitan": 7287,
      "ĠMag": 7288,
      "ĠPier": 7289,
      "ĠJohn": 7290,
      "Ġ36": 7291,
      "Ġcele": 7292,
      "lad": 7293,
      "Ġstopnia": 7294,
      "Ġpremiera": 7295,
      "ĠÅ»e": 7296,
      "owanymi": 7297,
      "lki": 7298,
      "Ġdodatku": 7299,
      "Ġeli": 7300,
      "ĠwÄħt": 7301,
      "oo": 7302,
      "Ġbedzie": 7303,
      "Ġuchy": 7304,
      "jciec": 7305,
      "Ġmono": 7306,
      "Kom": 7307,
      "Ġdodatkowo": 7308,
      "ĠoÅĽwiet": 7309,
      "ĠGene": 7310,
      "ning": 7311,
      "Masz": 7312,
      "Ġdodatkowe": 7313,
      "Ġnajlepsze": 7314,
      "ose": 7315,
      "rzaÅĤy": 7316,
      "Rozumiem": 7317,
      "liwym": 7318,
      "Raz": 7319,
      "Ġkot": 7320,
      "Ġwaka": 7321,
      "Ġkompeten": 7322,
      "BÄĻ": 7323,
      "Ġskra": 7324,
      "ĠTar": 7325,
      "ĠmieszkaÅĦcy": 7326,
      "UR": 7327,
      "nocy": 7328,
      "Ġplecami": 7329,
      "Ġokru": 7330,
      "Ġrzym": 7331,
      "ĠkilkanaÅĽcie": 7332,
      "niak": 7333,
      "ĠupÅĤy": 7334,
      "Ġinsta": 7335,
      "ĠKomi": 7336,
      "Ġlekar": 7337,
      "Ġpowtarza": 7338,
      "ĠkilometrÃ³w": 7339,
      "Ġpomimo": 7340,
      "Ġpog": 7341,
      "rez": 7342,
      "Ġwari": 7343,
      "ĠPR": 7344,
      "Ġkolan": 7345,
      "Ġprzeszko": 7346,
      "cek": 7347,
      "Ġminimal": 7348,
      "Ġtelewizji": 7349,
      "ĠCO": 7350,
      "SÅĤy": 7351,
      "wiaÅĤa": 7352,
      "Ġunij": 7353,
      "Ġszereg": 7354,
      "Ġbiznes": 7355,
      "ĠtaÅĦ": 7356,
      "ĠprzeszedÅĤ": 7357,
      "Ġton": 7358,
      "Ġkredyt": 7359,
      "Å»eby": 7360,
      "ĠsiÅĤÄħ": 7361,
      "Å¼by": 7362,
      "ĠNiemczech": 7363,
      "ven": 7364,
      "Ġtonem": 7365,
      "Ġdecyzje": 7366,
      "niÄĻciem": 7367,
      "ĠMc": 7368,
      "ĠwalczyÄĩ": 7369,
      "dziesiÄĻciu": 7370,
      "Ġzmierza": 7371,
      "ĠGdaÅĦ": 7372,
      "IS": 7373,
      "JednoczeÅĽnie": 7374,
      "ĠwieczÃ³r": 7375,
      "Dwa": 7376,
      "ologii": 7377,
      "ĠMia": 7378,
      "ĠbudowÄĻ": 7379,
      "Ġgimna": 7380,
      "Ġzrezygn": 7381,
      "ĠAnto": 7382,
      "Ġpolu": 7383,
      "Ġagen": 7384,
      "ĠnajwaÅ¼niejsze": 7385,
      "ĠPolacy": 7386,
      "Ġosa": 7387,
      "Ġ2019": 7388,
      "ĠposiÅĤ": 7389,
      "zydent": 7390,
      "ĠsÅĤoÅĦca": 7391,
      "ĠpoÅĽle": 7392,
      "ght": 7393,
      "klaski": 7394,
      "Ġatrak": 7395,
      "Ġtekst": 7396,
      "Ġzapa": 7397,
      "LA": 7398,
      "lÄħd": 7399,
      "pul": 7400,
      "zdÃ³w": 7401,
      "Ġwystawi": 7402,
      "ĠgwaÅĤtownie": 7403,
      "wny": 7404,
      "ĠÅĽli": 7405,
      "sur": 7406,
      "fia": 7407,
      "ĠdomÃ³w": 7408,
      "ĠwybÃ³r": 7409,
      "Ġargument": 7410,
      "Ġbol": 7411,
      "Ġbog": 7412,
      "ĠwyszÅĤa": 7413,
      "dowaÅĤo": 7414,
      "Ġwskazuje": 7415,
      "czoÅĽci": 7416,
      "styki": 7417,
      "rona": 7418,
      "ĠKsiÄĻ": 7419,
      "los": 7420,
      "Ġjedynym": 7421,
      "Ġpisto": 7422,
      "czekaÄĩ": 7423,
      "33": 7424,
      "Ġtraktu": 7425,
      "Wreszcie": 7426,
      "Ġdobrej": 7427,
      "ĠzakÅĤada": 7428,
      "Ġzarabia": 7429,
      "niczej": 7430,
      "rzuca": 7431,
      "Ġszefa": 7432,
      "ĠpowiÄħ": 7433,
      "ĠliczbÄĻ": 7434,
      "Pu": 7435,
      "mierz": 7436,
      "Ġwyprowa": 7437,
      "Ġinspek": 7438,
      "Ġwto": 7439,
      "Ġpusty": 7440,
      ");": 7441,
      "Ġpotrzebuje": 7442,
      "ĠwnioskÃ³w": 7443,
      "ĠskrzyÅ¼": 7444,
      "Szy": 7445,
      "Problem": 7446,
      "ĠsamochodÃ³w": 7447,
      "Ġstart": 7448,
      "ĠwspÃ³lnie": 7449,
      "Ġdrzwiach": 7450,
      "kowany": 7451,
      "ĠRom": 7452,
      "Ġdokument": 7453,
      "Ġefekt": 7454,
      "ĠpozwoliÄĩ": 7455,
      "ckÄħ": 7456,
      "dl": 7457,
      "ĠspÃ³ÅĤdziel": 7458,
      "torem": 7459,
      "Ġ2003": 7460,
      "ĠobciÄħ": 7461,
      "ĠporÃ³wnaniu": 7462,
      "ĠochotÄĻ": 7463,
      "ĠÅĤÄħcznie": 7464,
      "ĠStu": 7465,
      "ĠrÄĻkach": 7466,
      "Ġskraj": 7467,
      "Ry": 7468,
      "Jaki": 7469,
      "ĠÅ¼ywo": 7470,
      "stÄĻpujemy": 7471,
      "ĠpunktÃ³w": 7472,
      "Ġtj": 7473,
      "ĠwielkoÅĽci": 7474,
      "Oklaski": 7475,
      "ĠbieÅ¼": 7476,
      "ĠleÅ¼Äħ": 7477,
      "ĠDem": 7478,
      "dÅĤo": 7479,
      "ĠPer": 7480,
      "lie": 7481,
      "ĠponiedziaÅĤek": 7482,
      "Ġwiek": 7483,
      "Ġmandat": 7484,
      "Ġmedia": 7485,
      "Ġdam": 7486,
      "ĠwewnÄħtrz": 7487,
      "ĠkoÅĤ": 7488,
      "Ġfinansowych": 7489,
      "Ġrozum": 7490,
      "Ġnadzor": 7491,
      "Ġzdarza": 7492,
      "niÅĤo": 7493,
      "Ġpolitycznych": 7494,
      "Ġtrudne": 7495,
      "Tyle": 7496,
      "ryj": 7497,
      "ĠÅļrod": 7498,
      "Ġdefini": 7499,
      "ĠwydaÅĤ": 7500,
      "Ġprowadzenia": 7501,
      "Ġodpo": 7502,
      "niesieniu": 7503,
      "Ġsocjal": 7504,
      "Ġgmina": 7505,
      "ĠzbliÅ¼a": 7506,
      "ÅĤuje": 7507,
      "Ġmundu": 7508,
      "ĠkimÅĽ": 7509,
      "Przypom": 7510,
      "brze": 7511,
      "Ġmeta": 7512,
      "Ġprzechodzi": 7513,
      "Ġciekawe": 7514,
      "Ġwojna": 7515,
      "ĠsprzÄĻt": 7516,
      "kanie": 7517,
      "Ġjesie": 7518,
      "ĠwydatkÃ³w": 7519,
      "Ġnajszyb": 7520,
      "lania": 7521,
      "ĠmiesiÄĻ": 7522,
      "razy": 7523,
      "ĠSpoÅĤe": 7524,
      "Ġakcep": 7525,
      "ĠbÅĤa": 7526,
      "stoÅĽci": 7527,
      "Ġrobot": 7528,
      "mm": 7529,
      "Ġostro": 7530,
      "Ġcharak": 7531,
      "ĠÅ¼aÅĤ": 7532,
      "Ġolej": 7533,
      "atali": 7534,
      "Ġzapra": 7535,
      "Ġwiny": 7536,
      "Ġprecy": 7537,
      "ĠwojewÃ³dztwie": 7538,
      "Ġracji": 7539,
      "jechali": 7540,
      "ĠjakichÅĽ": 7541,
      "gÅĤos": 7542,
      "graf": 7543,
      "Ġwsparcia": 7544,
      "ĠWoje": 7545,
      "ĠWiem": 7546,
      "cow": 7547,
      "ĠsobotÄĻ": 7548,
      "ĠdrÃ³g": 7549,
      "Ġodnale": 7550,
      "Ġwykonaw": 7551,
      "tywa": 7552,
      "Ġusi": 7553,
      "ĠÅģodzi": 7554,
      "Ġprawdy": 7555,
      "ĠzdjÄĻcie": 7556,
      "Ġodpowiednio": 7557,
      "Ġkomis": 7558,
      "omos": 7559,
      "anem": 7560,
      "Ġsnu": 7561,
      "dnej": 7562,
      "ĠAka": 7563,
      "ĠfunkcjÄĻ": 7564,
      "ĠobsÅĤugi": 7565,
      "Ġogromne": 7566,
      "Ġzza": 7567,
      "Ġtale": 7568,
      "Ġproblemem": 7569,
      "Ser": 7570,
      "Ġodrobi": 7571,
      "Ġskorzysta": 7572,
      "Ġoceny": 7573,
      "Ġeduka": 7574,
      "Ġszczerze": 7575,
      "ĠlubiÄĻ": 7576,
      "Ġpary": 7577,
      "dium": 7578,
      "ĠChry": 7579,
      "niam": 7580,
      "jusz": 7581,
      "ĠspoÅ¼y": 7582,
      "szar": 7583,
      "ziem": 7584,
      "ĠbyÅĽ": 7585,
      "ĠrozmowÄĻ": 7586,
      "ematy": 7587,
      "czaÅĤo": 7588,
      "Ġsubstan": 7589,
      "Ġnatury": 7590,
      "ranie": 7591,
      "ĠdziaÅĤo": 7592,
      "ĠMaÅĤ": 7593,
      "Bu": 7594,
      "ĠpokrÄĻ": 7595,
      "Ġzato": 7596,
      "rusa": 7597,
      "ĠCzer": 7598,
      "ĠKoÅĽcioÅĤa": 7599,
      "mit": 7600,
      "ĠzwÅĤo": 7601,
      "ĠczÄĻÅĽciÄħ": 7602,
      "Ġbyle": 7603,
      "Ġprzedstawiciel": 7604,
      "Ġprosi": 7605,
      "Ġtwojej": 7606,
      "DDDD": 7607,
      "Ġwyba": 7608,
      "Ġkoronawi": 7609,
      "Ġweek": 7610,
      "Ġcios": 7611,
      "kl": 7612,
      "Ġuzbro": 7613,
      "ĠNew": 7614,
      "ĠuÅĤat": 7615,
      "ÅĽwie": 7616,
      "Ġskaz": 7617,
      "waÅĤam": 7618,
      "Ġmeczu": 7619,
      "ĠprojektÃ³w": 7620,
      "cisz": 7621,
      "sÅĤych": 7622,
      "niesienie": 7623,
      "ĠrozporzÄħdzenia": 7624,
      "Ġdyplom": 7625,
      "ralnych": 7626,
      "ĠwÄĻd": 7627,
      "ÅĤanie": 7628,
      "bla": 7629,
      "ĠQu": 7630,
      "Am": 7631,
      "bienie": 7632,
      "ĠrzeÅº": 7633,
      "ĠZam": 7634,
      "ĠwidziaÅĤa": 7635,
      "stko": 7636,
      "Ġabsolutnie": 7637,
      "ĠwolnoÅĽÄĩ": 7638,
      "âĢ¢": 7639,
      "cyfi": 7640,
      "skaÄĩ": 7641,
      "Ġstrach": 7642,
      "ĠÅĽwietnie": 7643,
      "ĠwÅĤadzÄĻ": 7644,
      "ĠpoczÄħtek": 7645,
      "ĠpostanowiÅĤ": 7646,
      "kiedy": 7647,
      "fera": 7648,
      "Ġumi": 7649,
      "ĠszczegÃ³lnoÅĽci": 7650,
      "ĠosÅĤa": 7651,
      "knie": 7652,
      "Ġauta": 7653,
      "cjona": 7654,
      "ĠkobietÄĻ": 7655,
      "Ġokresu": 7656,
      "ĠWielkiej": 7657,
      "ĠkapitaÅĤ": 7658,
      "rzona": 7659,
      "ruje": 7660,
      "Ġupra": 7661,
      "BA": 7662,
      "Ġautobus": 7663,
      "Ġnosi": 7664,
      "bij": 7665,
      "ĠsamorzÄħdu": 7666,
      "ĠduÅ¼ych": 7667,
      "ĠprzekonaÄĩ": 7668,
      "dzimy": 7669,
      "Ġbogat": 7670,
      "Ġwysokie": 7671,
      "ĠwyrÃ³Å¼": 7672,
      "zÃ³w": 7673,
      "stÄħpiÄĩ": 7674,
      "glÄħdajÄħc": 7675,
      "Ġpias": 7676,
      "Ġstatku": 7677,
      "Ġprzesy": 7678,
      "Ġstare": 7679,
      "ĠkÃ³ÅĤ": 7680,
      "cisnÄħÅĤ": 7681,
      "baÄĩ": 7682,
      "ĠAnna": 7683,
      "Ġudziela": 7684,
      "ĠÅ»ydÃ³w": 7685,
      "Ġprawej": 7686,
      "Ġzaatak": 7687,
      "Ġwiedzieli": 7688,
      "Dziewczy": 7689,
      "ĠidÄħ": 7690,
      "Ġpogar": 7691,
      "Ġtrudem": 7692,
      "ĠczekaÅĤ": 7693,
      "Ġformy": 7694,
      "dzej": 7695,
      "ciÅĤo": 7696,
      "nau": 7697,
      "ĠobojÄĻ": 7698,
      "Ġstrachu": 7699,
      "Ġprowin": 7700,
      "ĠproduktÃ³w": 7701,
      "rok": 7702,
      "nosiÄĩ": 7703,
      "ĠprzyjÄħÅĤ": 7704,
      "ĠstrzaÅĤ": 7705,
      "ĠwysÅĤu": 7706,
      "Ġprzystan": 7707,
      "Ġwielka": 7708,
      "bol": 7709,
      "ĠurzÄĻdu": 7710,
      "Ġszta": 7711,
      "Ġzamiesz": 7712,
      "bami": 7713,
      "Ġnacze": 7714,
      "ĠzachowaÄĩ": 7715,
      "Ġsezonie": 7716,
      "atecznie": 7717,
      "czonym": 7718,
      "ĠradÄĻ": 7719,
      "dziaÅĤam": 7720,
      "ĠodpowiedzialnoÅĽci": 7721,
      "Ġcisza": 7722,
      "Ġzakresu": 7723,
      "Ġprodukt": 7724,
      "ĠKazi": 7725,
      "ori": 7726,
      "Ġzastanowi": 7727,
      "ĠduÅ¼a": 7728,
      "Ġprzedstawicieli": 7729,
      "Å¼onego": 7730,
      "ĠAnglii": 7731,
      "ĠprzedÅĤu": 7732,
      "Ġste": 7733,
      "Ġ2020": 7734,
      "ĠobecnoÅĽci": 7735,
      "Zanim": 7736,
      "SK": 7737,
      "ĠObywatel": 7738,
      "czonej": 7739,
      "Ġintere": 7740,
      "ĠmÃ³wisz": 7741,
      "ĠGro": 7742,
      "ĠczÄĻÅĽciej": 7743,
      "ĠFunduszu": 7744,
      "niania": 7745,
      "Ġokrop": 7746,
      "woka": 7747,
      "stoj": 7748,
      "ĠmogÅĤaby": 7749,
      "Ġanaliz": 7750,
      "Ġzarobi": 7751,
      "Ġdopu": 7752,
      "stycznego": 7753,
      "Ġwykop": 7754,
      "Ġpsa": 7755,
      "Â³": 7756,
      "Ġzli": 7757,
      "stanie": 7758,
      "ĠCe": 7759,
      "Ġds": 7760,
      "Dzisiaj": 7761,
      "Ġniepod": 7762,
      "ĠzajÄħÄĩ": 7763,
      "ĠfinansÃ³w": 7764,
      "MuszÄĻ": 7765,
      "ĠOn": 7766,
      "ĠdokumentÃ³w": 7767,
      "Ġdostaw": 7768,
      "ĠspoÅĤecznoÅĽci": 7769,
      "ĠBogu": 7770,
      "Ġmetal": 7771,
      "ĠNiech": 7772,
      "owiska": 7773,
      "Ġcharakterze": 7774,
      "ĠMinistra": 7775,
      "Taki": 7776,
      "szczeniu": 7777,
      "Ġwysu": 7778,
      "tm": 7779,
      "Ġszpitalu": 7780,
      "Ġsmak": 7781,
      "Ġpozby": 7782,
      "Ġwykonania": 7783,
      "ĠsformuÅĤ": 7784,
      "Ġgre": 7785,
      "Ġap": 7786,
      "wska": 7787,
      "ĠbrÄħz": 7788,
      "ĠÅĽwiÄħty": 7789,
      "lip": 7790,
      "ĠopiniÄĻ": 7791,
      "Zami": 7792,
      "Ġobchodzi": 7793,
      "ĠpatrzeÄĩ": 7794,
      "Ġtram": 7795,
      "EM": 7796,
      "Ġudowodni": 7797,
      "fr": 7798,
      "kajÄħc": 7799,
      "ĠwiedziaÅĤem": 7800,
      "Ġnauczycieli": 7801,
      "Ġlewej": 7802,
      "ĠsÅĤyszaÅĤ": 7803,
      "fil": 7804,
      "Ġprzyspie": 7805,
      "scie": 7806,
      "Odw": 7807,
      "Ġsaty": 7808,
      "Ġdwoma": 7809,
      "ĠzdobyÅĤ": 7810,
      "Ġprawnych": 7811,
      "Ġspokoju": 7812,
      "Ġpokazy": 7813,
      "75": 7814,
      "ĠspÅĤa": 7815,
      "niczka": 7816,
      "menta": 7817,
      "sÄĻ": 7818,
      "Ġskupi": 7819,
      "ling": 7820,
      "Ġ2002": 7821,
      "Ġzaa": 7822,
      "ĠIzra": 7823,
      "ĠczuÅĤa": 7824,
      "ĠChyba": 7825,
      "Ġkompletnie": 7826,
      "Ġ33": 7827,
      "ĠmruknÄħÅĤ": 7828,
      "Ġedukacji": 7829,
      "pak": 7830,
      "Ġbas": 7831,
      "ĠporozmawiaÄĩ": 7832,
      "ĠprzejÄĻ": 7833,
      "Ġmonitor": 7834,
      "Ġinterpe": 7835,
      "Ġcos": 7836,
      "ĠÅ¼yci": 7837,
      "czeÅĽniej": 7838,
      "Ġprzyjdzie": 7839,
      "Ġpogrze": 7840,
      "ĠpÃ³jÅĽÄĩ": 7841,
      "·½ï": 7842,
      "Zak": 7843,
      "Ġwydaw": 7844,
      "·½ï·½ï": 7845,
      "Ġrozli": 7846,
      "ĠMer": 7847,
      "ĠKe": 7848,
      "wziÄĻ": 7849,
      "ierze": 7850,
      "limpij": 7851,
      "Obo": 7852,
      "Ġnaprzeciw": 7853,
      "ĠdÅĤugoÅĽci": 7854,
      "ĠwyobraÅº": 7855,
      "ĠsÅĤod": 7856,
      "TY": 7857,
      "ĠwidzieÄĩ": 7858,
      "ĠwiÄĻkszy": 7859,
      "Cze": 7860,
      "ĠspotkaÄĩ": 7861,
      "ĠLin": 7862,
      "Ġwielokrotnie": 7863,
      "Ġczarne": 7864,
      "ĠâĢľ": 7865,
      "ĠPaweÅĤ": 7866,
      "ĠOs": 7867,
      "Ki": 7868,
      "ĠprowadzÄħ": 7869,
      "Ġtematy": 7870,
      "Ġ#": 7871,
      "UÅĽmie": 7872,
      "nowi": 7873,
      "owywaÄĩ": 7874,
      "atych": 7875,
      "tana": 7876,
      "ĠAfry": 7877,
      "ĠtrudnoÅĽci": 7878,
      "Ġznany": 7879,
      "ĠSkarbu": 7880,
      "ĠtrzymaÅĤ": 7881,
      "ĠfaÅĤszy": 7882,
      "ĠwzgÃ³": 7883,
      "ĠtrafiÅĤ": 7884,
      "dzieliÄĩ": 7885,
      "ĠwyciÄħgnÄħÅĤ": 7886,
      "eksu": 7887,
      "dry": 7888,
      "gnÄĻÅĤa": 7889,
      "ĠwyborÃ³w": 7890,
      "Ã³gÅĤ": 7891,
      "Ġuspoko": 7892,
      "Ġcech": 7893,
      "Ġpocie": 7894,
      "Samo": 7895,
      "wil": 7896,
      "Ġodpad": 7897,
      "Ġoficer": 7898,
      "ĠwÅĤosÃ³w": 7899,
      "Ġgdybym": 7900,
      "Ġâ": 7901,
      "ĠsÅĤoÅĦce": 7902,
      "Ġdowol": 7903,
      "ria": 7904,
      "Ġstarego": 7905,
      "skawi": 7906,
      "Ġpotencjal": 7907,
      "Ġ:)": 7908,
      "Ġdeszcz": 7909,
      "Ġznajomych": 7910,
      "ĠpanÃ³w": 7911,
      "ĠPolak": 7912,
      "Ġprofesor": 7913,
      "osob": 7914,
      "jest": 7915,
      "ĠrosnÄħ": 7916,
      "erytory": 7917,
      "owia": 7918,
      "Ġpoto": 7919,
      "ĠwystÄĻpuje": 7920,
      "aÅĤÄħ": 7921,
      "ĠNarodowej": 7922,
      "Ġsekund": 7923,
      "leniu": 7924,
      "ĠzamÃ³w": 7925,
      "ĠzaczÄĻÅĤo": 7926,
      "ĠnajwyraÅºniej": 7927,
      "ĠniezaleÅ¼nie": 7928,
      "ĠkawaÅĤek": 7929,
      "Ġtelefonu": 7930,
      "wÄħtp": 7931,
      "ĠogieÅĦ": 7932,
      "ĠZS": 7933,
      "Ġchodni": 7934,
      "ĠkwotÄĻ": 7935,
      "bÄĻdzie": 7936,
      "ĠznaleÅºli": 7937,
      "regul": 7938,
      "Ġwidzisz": 7939,
      "Ġmin": 7940,
      "99": 7941,
      "nieÅ¼": 7942,
      "Ġwskazy": 7943,
      "ĠprzyjÄĻcia": 7944,
      "Ġpewnej": 7945,
      "ĠzmieniÅĤ": 7946,
      "IN": 7947,
      "Ġleg": 7948,
      "ĠmateriaÅĤÃ³w": 7949,
      "Stwierdzam": 7950,
      "ĠbiorÄħc": 7951,
      "Ġnaw": 7952,
      "ĠskÅĤadni": 7953,
      "ĠstoÅĤu": 7954,
      "staÅĤy": 7955,
      "ĠwejÅĽcia": 7956,
      "ĠMichaÅĤ": 7957,
      "Ġzbrodni": 7958,
      "ĠrozwiÄħzaÅĦ": 7959,
      "ĠÅºrÃ³dÅĤa": 7960,
      "ĠSzwe": 7961,
      "Ġmomentu": 7962,
      "tt": 7963,
      "Ġrelacji": 7964,
      "ĠmÃ³zgu": 7965,
      "Ġduszy": 7966,
      "Ġprzedmiotem": 7967,
      "ĠMil": 7968,
      "ĠFinansÃ³w": 7969,
      "kajÄħ": 7970,
      "Oto": 7971,
      "Ġano": 7972,
      "wiÄħzy": 7973,
      "ĠniemoÅ¼liwe": 7974,
      "Ġspie": 7975,
      "Ã¶": 7976,
      "Ġpokazu": 7977,
      "gas": 7978,
      "Ile": 7979,
      "liwa": 7980,
      "ĠPL": 7981,
      "Im": 7982,
      "ĠÅ¼art": 7983,
      "Ġstaran": 7984,
      "stana": 7985,
      "Ġradzie": 7986,
      "Ġpowiat": 7987,
      "Ġpolecam": 7988,
      "ĠSejmie": 7989,
      "Zrobi": 7990,
      "Ġdotrze": 7991,
      "spodar": 7992,
      "Ġprzek": 7993,
      "ĠznaÅĤ": 7994,
      "Å¼yser": 7995,
      "ĠAli": 7996,
      "ĠpoÅĤudnie": 7997,
      "KiedyÅĽ": 7998,
      "ĠmniejszoÅĽci": 7999,
      "Ġniesam": 8000,
      "ĠprzypadkÃ³w": 8001,
      "Ġpozn": 8002,
      "lara": 8003,
      "ĠMart": 8004,
      "ptu": 8005,
      "PO": 8006,
      "ĠjechaÄĩ": 8007,
      "Ġsan": 8008,
      "Ġdzieckiem": 8009,
      "Ġwyru": 8010,
      "ÅĤym": 8011,
      "wszem": 8012,
      "Ġfunkcjonowania": 8013,
      "Ġdyrektora": 8014,
      "ĠwyjaÅĽniÅĤ": 8015,
      "ĠskÃ³rÄĻ": 8016,
      "Ġeksperym": 8017,
      "zor": 8018,
      "Fa": 8019,
      "Ġzauf": 8020,
      "ĠÅ¼adna": 8021,
      "Ġrozmowa": 8022,
      "szkÄĻ": 8023,
      "ĠprzysÅĤu": 8024,
      "ĠweÅº": 8025,
      "CE": 8026,
      "dzonej": 8027,
      "Ġcena": 8028,
      "Ġnormalnie": 8029,
      "ÅĤoÅĽÄĩ": 8030,
      "ĠpociÄħ": 8031,
      "lizacja": 8032,
      "ÅĤom": 8033,
      "lus": 8034,
      "½ï¿½ï¿½ï¿½ï¿½ï¿½ï¿½ï¿½ï¿": 8035,
      "mieÅĦ": 8036,
      "vo": 8037,
      "Ġzarazem": 8038,
      "ĠKur": 8039,
      "Ġwykry": 8040,
      "Ġlepszy": 8041,
      "Ġfin": 8042,
      "kiet": 8043,
      "istor": 8044,
      "Ġmuzyki": 8045,
      "ĠJapo": 8046,
      "ĠutrzymaÄĩ": 8047,
      "Cieka": 8048,
      "sol": 8049,
      "ĠgrÄĻ": 8050,
      "ĠgÅĤÄĻbi": 8051,
      "ĠzbliÅ¼": 8052,
      "Ġstal": 8053,
      "Ð°": 8054,
      "Ġkop": 8055,
      "Ġaktor": 8056,
      "ĠprzeksztaÅĤ": 8057,
      "Ġbibliote": 8058,
      "Moja": 8059,
      "Trudno": 8060,
      "ĠwÅĤasny": 8061,
      "Ġprawdziwe": 8062,
      "dzieliÅĽmy": 8063,
      "ĠumoÅ¼liwia": 8064,
      "Ġplus": 8065,
      "ĠpomyÅĽlaÅĤa": 8066,
      "Ġtworzy": 8067,
      "Ġzorient": 8068,
      "jnych": 8069,
      "Ġ150": 8070,
      "ĠsiÄĻga": 8071,
      "Wiesz": 8072,
      "ĠPart": 8073,
      "ĠÅĽnia": 8074,
      "Ġprzypadek": 8075,
      "GO": 8076,
      "ĠParlam": 8077,
      "stal": 8078,
      "niego": 8079,
      "zem": 8080,
      "Ġdziennie": 8081,
      "Ġaspek": 8082,
      "Ġ38": 8083,
      "Ġzamierz": 8084,
      "Ġplany": 8085,
      "Ġjedyny": 8086,
      "czajÄħ": 8087,
      "Ġotwarte": 8088,
      "Ġfu": 8089,
      "ĠjÄĻzyku": 8090,
      "WÅĽrÃ³d": 8091,
      "wskiej": 8092,
      "poli": 8093,
      "ĠprzesÅĤ": 8094,
      "ĠGeor": 8095,
      "ĠKali": 8096,
      "Tro": 8097,
      "Ġwspomin": 8098,
      "MÄĻÅ¼czyzna": 8099,
      "ĠÂ§": 8100,
      "ĠpewnÄħ": 8101,
      "Ġrozbi": 8102,
      "Ġdyscypli": 8103,
      "ĠsÅĤuÅ¼Äħ": 8104,
      "ĠHit": 8105,
      "Ġuczelni": 8106,
      "Ġbr": 8107,
      "ĠÅ¼adnym": 8108,
      "ĠwyjaÅĽniÄĩ": 8109,
      "Ġposiedzenie": 8110,
      "ĠmyÅĽlaÅĤ": 8111,
      "Ġ)": 8112,
      "gany": 8113,
      "wÃ³w": 8114,
      "ĠWojcie": 8115,
      "Ġdziedzinie": 8116,
      "ĠustawÄħ": 8117,
      "Ġsrebr": 8118,
      "ĠGÅĤÃ³w": 8119,
      "iery": 8120,
      "Ġetapie": 8121,
      "Ġdokony": 8122,
      "Ġ34": 8123,
      "ĠzapewniÄĩ": 8124,
      "lka": 8125,
      "Minister": 8126,
      "cono": 8127,
      "gnÄĻ": 8128,
      "Ġdole": 8129,
      "Ġprzewa": 8130,
      "Ġmetody": 8131,
      "Ġczwart": 8132,
      "cjonu": 8133,
      "ĠczoÅĤo": 8134,
      "ĠpodziÄĻ": 8135,
      "Ġpri": 8136,
      "Ġrach": 8137,
      "nor": 8138,
      "ĠTi": 8139,
      "WA": 8140,
      "Å¼ne": 8141,
      "ĠPÃ³ÅĤnoc": 8142,
      "Ġregional": 8143,
      "Ġstarych": 8144,
      "ujesz": 8145,
      "ĠpoÅĤudniu": 8146,
      "ĠwnÄĻt": 8147,
      "Ġkoncent": 8148,
      "Ġwyli": 8149,
      "Ġhotelu": 8150,
      "Ġfaktu": 8151,
      "zuÅĤ": 8152,
      "naÄĩ": 8153,
      "ĠpacjentÃ³w": 8154,
      "Du": 8155,
      "ĠpodÅĤodze": 8156,
      "ĠBen": 8157,
      "Ġobiad": 8158,
      "ĠPolicji": 8159,
      "ĠchciaÅĤby": 8160,
      "Ġodmie": 8161,
      "Ġwzmoc": 8162,
      "kul": 8163,
      "Ġspada": 8164,
      "Ġautostra": 8165,
      "ĠpisaÅĤ": 8166,
      "ĠustawÄĻ": 8167,
      "Ġlokali": 8168,
      "Ġfunkcjonariu": 8169,
      "ĠdoskonaÅĤ": 8170,
      "ĠNarodowego": 8171,
      "trafi": 8172,
      "dowaÅĤa": 8173,
      "ĠhaÅĤa": 8174,
      "ĠwydarzeÅĦ": 8175,
      "ĠinÅ¼ynie": 8176,
      "Ġwiej": 8177,
      "ĠKatowi": 8178,
      "ĠksiÄħÅ¼ek": 8179,
      "Ġkapita": 8180,
      "Ġlit": 8181,
      "ĠklientÃ³w": 8182,
      "szanie": 8183,
      "ĠrozpoczÄħÅĤ": 8184,
      "ĠszczÄĻÅĽcia": 8185,
      "ĠzauwaÅ¼yÄĩ": 8186,
      "Powo": 8187,
      "Ġczasy": 8188,
      "konu": 8189,
      "ĠKodek": 8190,
      "Ġlekarzy": 8191,
      "ĠuzaleÅ¼": 8192,
      "Ġchwil": 8193,
      "ĠwidzÄħc": 8194,
      "stron": 8195,
      "ĠwyjÄħtkowo": 8196,
      "ĠdziewiÄĻÄĩ": 8197,
      "198": 8198,
      "Ġkategorii": 8199,
      "ker": 8200,
      "Znaj": 8201,
      "Ġpropozycji": 8202,
      "dwo": 8203,
      "ĠznaÄĩ": 8204,
      "ĠspoÅĤeczne": 8205,
      "Ġdrzwiami": 8206,
      "ĠÅĽwiadczenia": 8207,
      "Wol": 8208,
      "stek": 8209,
      "siadÅĤa": 8210,
      "ĠzagroÅ¼enia": 8211,
      "ID": 8212,
      "Ġmerytory": 8213,
      "ĠwÅĤÃ³": 8214,
      "Szanowny": 8215,
      "ĠÅĽciÄħg": 8216,
      "Ġpodnie": 8217,
      "ĠpeÅĤnÄħ": 8218,
      "Ġniezna": 8219,
      "ĠMal": 8220,
      "Ġelektro": 8221,
      "ĠwyciÄħga": 8222,
      "anÄĻ": 8223,
      "Ġtymczasem": 8224,
      "Ġ1999": 8225,
      "ĠRepubli": 8226,
      "Ġnosem": 8227,
      "Ġwsparcie": 8228,
      "jemu": 8229,
      "Ġchwila": 8230,
      "Ġryzyko": 8231,
      "Ġdebi": 8232,
      "racam": 8233,
      "Ġposu": 8234,
      ".),": 8235,
      "ĠpamiÄĻtaÄĩ": 8236,
      "Ġkarty": 8237,
      "ĠnazwÄĻ": 8238,
      "ĠcelÃ³w": 8239,
      "Ġweso": 8240,
      "ĠBiaÅĤoru": 8241,
      "Ġdobrych": 8242,
      "niejszÄħ": 8243,
      "Ġnapi": 8244,
      "poko": 8245,
      "ĠurzÄħdzenia": 8246,
      "MA": 8247,
      "ĠostroÅ¼nie": 8248,
      "Ġobecnej": 8249,
      "Ġdokumenty": 8250,
      "Ġformu": 8251,
      "ĠprÃ³by": 8252,
      "Ġgranic": 8253,
      "ĠSprawiedliwoÅĽci": 8254,
      "ĠOch": 8255,
      "ĠzajÄħÅĤ": 8256,
      "ciami": 8257,
      "ĠMarek": 8258,
      "ĠnaÅĤo": 8259,
      "Ġzezna": 8260,
      "ĠogÃ³lnie": 8261,
      "Ġkonia": 8262,
      "ienia": 8263,
      "mowy": 8264,
      "ĠÅĤaÅĦcu": 8265,
      "ÅĤami": 8266,
      "Ġznakomi": 8267,
      "czku": 8268,
      "dan": 8269,
      "Ġziel": 8270,
      "Ġfur": 8271,
      "ĠobowiÄħzku": 8272,
      "wnie": 8273,
      "ĠNIE": 8274,
      "ĠpowÃ³d": 8275,
      "Ġulubi": 8276,
      "went": 8277,
      "niÅĤem": 8278,
      "Odpowie": 8279,
      "ĠzaleÅ¼noÅĽci": 8280,
      "ĠTen": 8281,
      "Ġnaukow": 8282,
      "strza": 8283,
      "Ġdol": 8284,
      "Ġrozmowie": 8285,
      "wic": 8286,
      "sfak": 8287,
      "Ġzagranicznych": 8288,
      "ĠprzypomnieÄĩ": 8289,
      "ĠPolskÄĻ": 8290,
      "ĠstwierdziÄĩ": 8291,
      "ĠpodjÄħÅĤ": 8292,
      "ĠodpowiedziaÅĤa": 8293,
      "ĠKto": 8294,
      "olony": 8295,
      "ĠchcÄħc": 8296,
      "Ġtakimi": 8297,
      "Ġstraty": 8298,
      "36": 8299,
      "ĠwyglÄħdaÅĤa": 8300,
      "Ġww": 8301,
      "czÄħca": 8302,
      "szak": 8303,
      "Ġdemon": 8304,
      "Ġpilo": 8305,
      "ĠmÃ³wimy": 8306,
      "op": 8307,
      "ĠpisaÄĩ": 8308,
      "Polska": 8309,
      "Ġzasi": 8310,
      "Ġfinansowe": 8311,
      "Ġgrupie": 8312,
      "styn": 8313,
      "Ġobserwa": 8314,
      "ĠpodwÃ³j": 8315,
      "trow": 8316,
      "conych": 8317,
      "Ġtri": 8318,
      "Ġspor": 8319,
      "ĠÅºrÃ³deÅĤ": 8320,
      "szonych": 8321,
      "ĠprzeszÅĤo": 8322,
      "king": 8323,
      "entuje": 8324,
      "Ġepo": 8325,
      "34": 8326,
      "ĠjakoÅĽÄĩ": 8327,
      "arni": 8328,
      "Ġzary": 8329,
      "Ġpanem": 8330,
      "Ġgminie": 8331,
      "Ġpanowie": 8332,
      "Taka": 8333,
      "ĠIm": 8334,
      "ĠJuÅ¼": 8335,
      "Fak": 8336,
      "KO": 8337,
      "dor": 8338,
      "Ġregulami": 8339,
      "ĠwstrzymaÅĤ": 8340,
      "mir": 8341,
      "ĠprzedsiÄĻwziÄĻ": 8342,
      "lij": 8343,
      "Wiele": 8344,
      "Spraw": 8345,
      "ĠwyÅĤo": 8346,
      "ĠwykorzystaÄĩ": 8347,
      "Ġalbu": 8348,
      "line": 8349,
      "ĠwyobraziÄĩ": 8350,
      "Ġzabu": 8351,
      "Ġmiaste": 8352,
      "ĠnajwiÄĻcej": 8353,
      "ĠwysokoÅĽÄĩ": 8354,
      "ownika": 8355,
      "pion": 8356,
      "niÄĻciu": 8357,
      "szeÅĦ": 8358,
      "wiona": 8359,
      "Ġrzecznik": 8360,
      "Ġpoka": 8361,
      "Ġzapomni": 8362,
      "Ġidenty": 8363,
      "kazaÅĤo": 8364,
      "Ġobszarze": 8365,
      "oÅĽrÃ³d": 8366,
      "budowy": 8367,
      "ĠksiÄħÅ¼kÄĻ": 8368,
      "ĠMinistrze": 8369,
      "Ġschro": 8370,
      "ĠkrzyknÄħÅĤ": 8371,
      "aÅĤÃ³w": 8372,
      "The": 8373,
      "Ġwprowadzenie": 8374,
      "ĠusiÅĤ": 8375,
      "rzyd": 8376,
      "ĠbraÄĩ": 8377,
      "Ġmatematy": 8378,
      "Ġprzyjaciel": 8379,
      "ĠkazaÅĤ": 8380,
      "Ġczarno": 8381,
      "tyz": 8382,
      "ĠLegi": 8383,
      "Ġrozej": 8384,
      "leniem": 8385,
      "gospodar": 8386,
      "Ġodpowiednie": 8387,
      "Poczu": 8388,
      "Ġnadzwyczaj": 8389,
      "ĠkoleÅ¼": 8390,
      "ome": 8391,
      "Ġzwolen": 8392,
      "Ġstanow": 8393,
      "ĠtÅĤumaczy": 8394,
      "Ġfla": 8395,
      "ĠpÅĤaciÄĩ": 8396,
      "Ġdelikatnie": 8397,
      "ĠmÃ³wiÅĤem": 8398,
      "ĠstraciÅĤ": 8399,
      "Ġzarob": 8400,
      "ĠIs": 8401,
      "legÅĤoÅĽÄĩ": 8402,
      "Ġzysk": 8403,
      "szajÄħ": 8404,
      "Ġszczu": 8405,
      "szczeÅĦ": 8406,
      "ĠIV": 8407,
      "ĠgÅĤosie": 8408,
      "ponujÄĻ": 8409,
      "ĠUkrainy": 8410,
      "39": 8411,
      "szono": 8412,
      "fra": 8413,
      "Ġistotne": 8414,
      "Ġbuty": 8415,
      "ĠpÅĤu": 8416,
      "Ġstrasznie": 8417,
      "ĠdzieÄĩmi": 8418,
      "Ġnieleg": 8419,
      "Aby": 8420,
      "dziny": 8421,
      "Ġwyk": 8422,
      "Ġelementy": 8423,
      "ĠMyÅĽl": 8424,
      "Ġpou": 8425,
      "NIE": 8426,
      "ĠÅĽlu": 8427,
      "dawcÃ³w": 8428,
      "Ġalkoholu": 8429,
      "Ġseria": 8430,
      "woju": 8431,
      "Ġdwor": 8432,
      "Ġkomentarz": 8433,
      "ĠSze": 8434,
      "Ġoperacji": 8435,
      "ĠNI": 8436,
      "Obie": 8437,
      "dowi": 8438,
      "ĠnastÄĻpnego": 8439,
      "Ġwbrew": 8440,
      "ĠBro": 8441,
      "prawiedli": 8442,
      "jajÄħc": 8443,
      "tacje": 8444,
      "Ġtransport": 8445,
      "Ġoz": 8446,
      "Ġpostrze": 8447,
      "Ġspek": 8448,
      "ĠgÅĤowa": 8449,
      "ĠpiÄĻtna": 8450,
      "wili": 8451,
      "Ġemi": 8452,
      "ĠuÅĽci": 8453,
      "ĠwiÄĻkszej": 8454,
      "bert": 8455,
      "Ġbrud": 8456,
      "ĠmiaÅĤby": 8457,
      "Ġwlas": 8458,
      "ĠÅģa": 8459,
      "Ġserde": 8460,
      "ĠBud": 8461,
      "Ġjaj": 8462,
      "komu": 8463,
      "ĠbezpieczeÅĦstwo": 8464,
      "ĠPracy": 8465,
      "Ġsklepu": 8466,
      "Ġognia": 8467,
      "PrzystÄĻpujemy": 8468,
      "Ġgwiazd": 8469,
      "ĠZwiÄħzku": 8470,
      "Ġledwie": 8471,
      "ĠgÅĤÃ³wnym": 8472,
      "eryta": 8473,
      "ĠkobietÄħ": 8474,
      "Ġniezbyt": 8475,
      "bytu": 8476,
      "ĠgÅĤosy": 8477,
      "iÅĤa": 8478,
      "ĠmÅĤodzieÅ¼y": 8479,
      "Ġekran": 8480,
      "ĠrÃ³Å¼nica": 8481,
      "JesteÅĽ": 8482,
      "Ġrozpatry": 8483,
      "Ġposzu": 8484,
      "ĠspaÄĩ": 8485,
      "Ġzakres": 8486,
      "Ġprzyczyn": 8487,
      "Ġ37": 8488,
      "ĠgÃ³wno": 8489,
      "Ġniepotrzeb": 8490,
      "ĠdosÅĤ": 8491,
      "Ġprzemie": 8492,
      "ĠwyÅĽci": 8493,
      "Ġinwest": 8494,
      "Ġczwartek": 8495,
      "czanie": 8496,
      "lektu": 8497,
      "Ġstatek": 8498,
      "Bra": 8499,
      "Ġelegan": 8500,
      "cyz": 8501,
      "logia": 8502,
      "Ġkarabi": 8503,
      "ĠczytaÄĩ": 8504,
      "Ġprzewidy": 8505,
      "ĠUni": 8506,
      "ĠÅĤazie": 8507,
      "dzonego": 8508,
      "Zosta": 8509,
      "Oni": 8510,
      "ĠuzyskaÄĩ": 8511,
      "ĠprzedstawiÄĩ": 8512,
      "Ġwydatki": 8513,
      "Ġskutek": 8514,
      "Ġmater": 8515,
      "zdro": 8516,
      "Ġbudynek": 8517,
      "Ġkieli": 8518,
      "Ġsejm": 8519,
      "ille": 8520,
      "ĠcÃ³rka": 8521,
      "Ġostatniego": 8522,
      "ĠusÅĤugi": 8523,
      "ĠTade": 8524,
      "Ġsied": 8525,
      "Dodatkowo": 8526,
      "Ġwalce": 8527,
      "wers": 8528,
      "Ġprzychodzi": 8529,
      "Ġ1997": 8530,
      "ĠobecnoÅĽÄĩ": 8531,
      "ĠpocaÅĤ": 8532,
      "ujÄĻ": 8533,
      "Ġkierun": 8534,
      "NaprawdÄĻ": 8535,
      "ĠGdzie": 8536,
      "ĠmyÅĽlisz": 8537,
      "ciÅĤy": 8538,
      "Ġutw": 8539,
      "ĠresztÄĻ": 8540,
      "odÅº": 8541,
      "ĠÅ¼yciem": 8542,
      "ĠnÄĻ": 8543,
      "Ġproponuje": 8544,
      "Ġsetki": 8545,
      "ĠdÅ¼": 8546,
      "ĠtoÅ¼": 8547,
      "Ġspostrze": 8548,
      "owny": 8549,
      "Ġmaszyn": 8550,
      "________": 8551,
      "Ġwykorzystu": 8552,
      "aly": 8553,
      "Å¼yÅĤo": 8554,
      "spÃ³l": 8555,
      "Ġlegen": 8556,
      "Ġrozstrzyg": 8557,
      "ĠBri": 8558,
      "Ġuczucia": 8559,
      "niaÅĤo": 8560,
      "ÅĤowiek": 8561,
      "ĠpielÄĻgni": 8562,
      "Ġpatri": 8563,
      "ienie": 8564,
      "Ġedy": 8565,
      "ĠpÅĤci": 8566,
      "Ġleci": 8567,
      "Ġjednozna": 8568,
      "ĠwpÅĤywem": 8569,
      "rzyja": 8570,
      "paty": 8571,
      "ĠpowstrzymaÄĩ": 8572,
      "decyd": 8573,
      "ĠuwaÅ¼nie": 8574,
      "ĠPS": 8575,
      "Ani": 8576,
      "ĠÅ¼onÄĻ": 8577,
      "Ġprzera": 8578,
      "ĠzÅĤy": 8579,
      "ĠJego": 8580,
      "Ġprzygo": 8581,
      "ĠsamobÃ³j": 8582,
      "Ġprywaty": 8583,
      "ĠXIX": 8584,
      "...)": 8585,
      "37": 8586,
      "Ġsukces": 8587,
      "Ġpartner": 8588,
      "ĠpoÅĤowy": 8589,
      "ĠzeszÅĤ": 8590,
      "Ġwszelkich": 8591,
      "ĠnaleÅ¼aÅĤo": 8592,
      "ĠpojawiÅĤa": 8593,
      "ĠpamiÄĻÄĩ": 8594,
      "Ġrobisz": 8595,
      "miany": 8596,
      "ĠAndrze": 8597,
      "nnie": 8598,
      "koÅĤo": 8599,
      "Ġosz": 8600,
      "ĠpowoÅĤ": 8601,
      "Ġen": 8602,
      "ĠGar": 8603,
      "Ġnazwiska": 8604,
      "ĠwskaÅº": 8605,
      "Ġprzebie": 8606,
      "ĠuÅĽwiadomi": 8607,
      "Ġbzdu": 8608,
      "Ġpapier": 8609,
      "Ġszer": 8610,
      "ĠpoprawkÄĻ": 8611,
      "ĠwstaÅĤ": 8612,
      "Ġwg": 8613,
      "Ġszacunku": 8614,
      "cebo": 8615,
      "Ġporzu": 8616,
      "ĠÅĽwieÅ¼": 8617,
      "ĠnajwyÅ¼ej": 8618,
      "Ġpul": 8619,
      "pania": 8620,
      "Zat": 8621,
      "knÄħÄĩ": 8622,
      "rali": 8623,
      "ĠrozeÅĽ": 8624,
      "nur": 8625,
      "Ġprzypadkiem": 8626,
      "Ġpolitycznej": 8627,
      "szania": 8628,
      "Ġpowiedzi": 8629,
      "Ġradio": 8630,
      "Ġtransportu": 8631,
      "Ġcieszy": 8632,
      "ĠpodjÄħÄĩ": 8633,
      "Ġuniwersyte": 8634,
      "szÅĤam": 8635,
      "Ġwybory": 8636,
      "szliÅĽmy": 8637,
      "czycy": 8638,
      "ĠpodnieÅĽÄĩ": 8639,
      "test": 8640,
      "staÅĤo": 8641,
      "ĠszczegÃ³": 8642,
      "ĠopÃ³Åº": 8643,
      "omoseksu": 8644,
      "bki": 8645,
      "Ġpobiera": 8646,
      "Ġuczucie": 8647,
      "Ġzgody": 8648,
      "Ġoczywiste": 8649,
      "ĠrÄĻkami": 8650,
      "Ġkierowcy": 8651,
      "iny": 8652,
      "Ġpoprawek": 8653,
      "Ġprzytu": 8654,
      "Ġoryginal": 8655,
      "Ġnadziei": 8656,
      "Ġproto": 8657,
      "ĠistniejÄħ": 8658,
      "ĠInter": 8659,
      "Ġszyi": 8660,
      "ĠMad": 8661,
      "Ġzacze": 8662,
      "Ġwymag": 8663,
      "atarzy": 8664,
      "Ġomi": 8665,
      "ĠÃ³wczes": 8666,
      "wizji": 8667,
      "ĠLit": 8668,
      "ctwem": 8669,
      "ĠpÃ³ÅĤnocy": 8670,
      "Ġzadow": 8671,
      "Ġlewo": 8672,
      "Ġresor": 8673,
      "Ġgier": 8674,
      "31": 8675,
      "endy": 8676,
      "ĠcÃ³rki": 8677,
      "Ġawan": 8678,
      "UwaÅ¼am": 8679,
      "kujÄħc": 8680,
      "ĠwierzyÄĩ": 8681,
      "Ġwysoki": 8682,
      "Ġodrze": 8683,
      "JesteÅĽmy": 8684,
      "bignie": 8685,
      "ĠrÄĻku": 8686,
      "48": 8687,
      "ĠzarzÄħd": 8688,
      "Ġpublicznego": 8689,
      "und": 8690,
      "Ġpragnie": 8691,
      "ĠgÅĤupo": 8692,
      "Ġczek": 8693,
      "Ġskrom": 8694,
      "wce": 8695,
      "):": 8696,
      "Ġhum": 8697,
      "Moje": 8698,
      "Ġwtorek": 8699,
      "ĠwyraÅ¼a": 8700,
      "Ġtury": 8701,
      "Ġstolicy": 8702,
      "Ġwrzas": 8703,
      "niz": 8704,
      "ĠUS": 8705,
      "ĠKaro": 8706,
      "GB": 8707,
      "Ġdofinans": 8708,
      "ĠGÃ³": 8709,
      "nictwie": 8710,
      "ĠwiedzÄĻ": 8711,
      "nianie": 8712,
      "Ġfesti": 8713,
      "Zamiast": 8714,
      "ĠudostÄĻp": 8715,
      "Ġodsu": 8716,
      "aÅĤaÅĽ": 8717,
      "Ġ48": 8718,
      "Ġlasu": 8719,
      "Ġfigu": 8720,
      "Ġkwestie": 8721,
      "Ġplacu": 8722,
      "ĠprowadziÅĤ": 8723,
      "Ġzem": 8724,
      "38": 8725,
      "Ġpies": 8726,
      "Ġzamord": 8727,
      "Ġpraktyce": 8728,
      "Ġbyl": 8729,
      "Ġkurs": 8730,
      "cznika": 8731,
      "Gene": 8732,
      "Ġkonieczne": 8733,
      "Ġbyc": 8734,
      "ĠpozycjÄĻ": 8735,
      "Ġpolityka": 8736,
      "Zaraz": 8737,
      "Ġwisi": 8738,
      "Ġwypu": 8739,
      "Ġuf": 8740,
      "ĠWiÄĻc": 8741,
      "ĠPolity": 8742,
      "bl": 8743,
      "Ġpopo": 8744,
      "WÅĤaÅĽci": 8745,
      "Ġojczy": 8746,
      "Ġprzebieg": 8747,
      "Ġefektyw": 8748,
      "ĠtrzymaÄĩ": 8749,
      "Ġotacza": 8750,
      "aÅĤabym": 8751,
      "PoczÄħ": 8752,
      "unkiem": 8753,
      "ĠÅĤzy": 8754,
      "Ġblu": 8755,
      "Å¼ki": 8756,
      "fel": 8757,
      "ĠwtrÄħ": 8758,
      "Ġnazwy": 8759,
      "minu": 8760,
      "wczych": 8761,
      "Ġkg": 8762,
      "ĠprzyjÄĻciem": 8763,
      "ĠujÄĻ": 8764,
      "wieniem": 8765,
      "CÃ³Å¼": 8766,
      "Ġsiat": 8767,
      "ĠwojnÄĻ": 8768,
      "ĠoÅĽwiadczyÅĤ": 8769,
      "omy": 8770,
      "Ġodpor": 8771,
      "Ġinform": 8772,
      "gre": 8773,
      "don": 8774,
      "ĠdyskusjÄĻ": 8775,
      "ĠwÃ³d": 8776,
      "Ros": 8777,
      "Ġpij": 8778,
      "ĠÅĽlady": 8779,
      "ĠUniwersytetu": 8780,
      "Fran": 8781,
      "ĠpoÅĽpie": 8782,
      "ĠpowaÅ¼a": 8783,
      "vid": 8784,
      "wamy": 8785,
      "ĠczÅĤonkiem": 8786,
      "ĠmaÅĤÄħ": 8787,
      "czÄħcym": 8788,
      "Ġprzych": 8789,
      "Ġserii": 8790,
      "Ġpowstania": 8791,
      "czÄħÄĩ": 8792,
      "ĠprÃ³buje": 8793,
      "Ce": 8794,
      "jsko": 8795,
      "ĠkorzystaÄĩ": 8796,
      "Ġmasy": 8797,
      "ĠkontekÅĽcie": 8798,
      "Ġtematu": 8799,
      "ĠmogÅĤoby": 8800,
      "ĠnastÄĻpujÄħce": 8801,
      "ĠZSRR": 8802,
      "Ġcuk": 8803,
      "ĠzdobyÄĩ": 8804,
      "Ġwys": 8805,
      "Ġkierowca": 8806,
      "Ġterytorium": 8807,
      "ĠobowiÄħzkÃ³w": 8808,
      "ĠrealizacjÄĻ": 8809,
      "ĠEu": 8810,
      "ganie": 8811,
      "ĠKrzysztof": 8812,
      "Ġnigdzie": 8813,
      "ĠkrokÃ³w": 8814,
      "niczy": 8815,
      "CzÄĻsto": 8816,
      "skiemu": 8817,
      "Ġpracownicy": 8818,
      "ĠJaku": 8819,
      "mowa": 8820,
      "ĠpodaÅĤ": 8821,
      "Szko": 8822,
      "Ġpojem": 8823,
      "ĠdoÅĽwiadczenie": 8824,
      "ĠpojawiÅĤy": 8825,
      "cuje": 8826,
      "anda": 8827,
      "Ġakad": 8828,
      "ĠBur": 8829,
      "anci": 8830,
      "Zas": 8831,
      "twem": 8832,
      "ÅĤoby": 8833,
      "Ġturysty": 8834,
      "Ġpolska": 8835,
      "ciÅĽ": 8836,
      "stnie": 8837,
      "Ġsposobu": 8838,
      "szajÄħc": 8839,
      "ĠBardzo": 8840,
      "ĠMaria": 8841,
      "Ġapo": 8842,
      "Pomi": 8843,
      "ĠCzÄĻ": 8844,
      "ĠwyjÄħtkiem": 8845,
      "ĠpuÅĤkow": 8846,
      "pkÄĻ": 8847,
      "ĠksiÄĻcia": 8848,
      "ĠskinÄħÅĤ": 8849,
      "Ġskutki": 8850,
      "Ġukra": 8851,
      "ĠgÅĤad": 8852,
      "ĠTrze": 8853,
      "nce": 8854,
      "ĠpowrÃ³t": 8855,
      "Ġbazy": 8856,
      "Ġ32": 8857,
      "CI": 8858,
      "Wal": 8859,
      "ĠAb": 8860,
      "jek": 8861,
      "Ġkadencji": 8862,
      "Ġbanku": 8863,
      "Ġszal": 8864,
      "iem": 8865,
      "Ġkolum": 8866,
      "ĠRobert": 8867,
      "ĠSP": 8868,
      "Ġobcho": 8869,
      "Ġapara": 8870,
      "pÄħ": 8871,
      "amtÄħd": 8872,
      "Ġhandlu": 8873,
      "nionego": 8874,
      "loty": 8875,
      "ĠÐ": 8876,
      "Ġokiem": 8877,
      "Ġtune": 8878,
      "Bie": 8879,
      "wÄħtpliwie": 8880,
      "staÄĩ": 8881,
      "ĠBru": 8882,
      "ĠpeÅĤnym": 8883,
      "Ġszkoda": 8884,
      "ĠuwierzyÄĩ": 8885,
      "Ġpodd": 8886,
      "Ġposel": 8887,
      "GÅĤÃ³w": 8888,
      "Ġofiary": 8889,
      "towany": 8890,
      "Ġodbior": 8891,
      "Ġ1990": 8892,
      "ĠnapÄĻ": 8893,
      "Ġ;).": 8894,
      "Ġgospodarczej": 8895,
      "fania": 8896,
      "ED": 8897,
      "Ġpalcami": 8898,
      "mum": 8899,
      "ĠÅ¼oÅĤnierze": 8900,
      "ĠHisz": 8901,
      "ĠTeraz": 8902,
      "Ġznane": 8903,
      "Ġczuj": 8904,
      "pÅĤ": 8905,
      "ĠodpowiedzialnoÅĽÄĩ": 8906,
      "Ġnegocja": 8907,
      "Åºle": 8908,
      "ĠpÅĤak": 8909,
      "La": 8910,
      "ĠwskazaÅĤ": 8911,
      "nionej": 8912,
      "tona": 8913,
      "lery": 8914,
      "ĠLubli": 8915,
      "ĠAmeryka": 8916,
      "rzyÅĤem": 8917,
      "ĠoznajmiÅĤ": 8918,
      "ati": 8919,
      "ĠMicha": 8920,
      "onach": 8921,
      "niczego": 8922,
      "ĠspoÅĤecze": 8923,
      "ĠprzyszÅĤa": 8924,
      "ĠwybraÄĩ": 8925,
      "ĠpÃ³ki": 8926,
      "ĠsporzÄħ": 8927,
      "Ġmalu": 8928,
      "Ġkru": 8929,
      "Ġpoj": 8930,
      "ĠzatrzymaÄĩ": 8931,
      "Ġasy": 8932,
      "ĠPrzed": 8933,
      "kot": 8934,
      "ymy": 8935,
      "Ġpodobny": 8936,
      "Ġmniejsze": 8937,
      "ĠÃ³": 8938,
      "ĠTomasz": 8939,
      "ĠszÃ³": 8940,
      "Ġnajlepszych": 8941,
      "Ġemeryta": 8942,
      "ĠskÅĤon": 8943,
      "Os": 8944,
      "Ġruchem": 8945,
      "66": 8946,
      "ĠartykuÅĤ": 8947,
      "ĠweszÅĤa": 8948,
      "44": 8949,
      "dziÅĤam": 8950,
      "ĠrodzinÄĻ": 8951,
      "ĠznajdowaÅĤ": 8952,
      "Ġsyl": 8953,
      "jenia": 8954,
      "Pole": 8955,
      "ĠStanisÅĤaw": 8956,
      "Ġambi": 8957,
      "ĠÅĽrodÄĻ": 8958,
      "Ġnajszybciej": 8959,
      "MÅĤo": 8960,
      "ĠopowieÅĽci": 8961,
      "ĠspÅĤy": 8962,
      "ront": 8963,
      "Ġokazuje": 8964,
      "ĠÅģuka": 8965,
      "ĠprogramÃ³w": 8966,
      "Ġteorii": 8967,
      "ownicy": 8968,
      "Ġgospoda": 8969,
      "ĠÅĽwiadomoÅĽci": 8970,
      "Ġcholer": 8971,
      "szaÅĤam": 8972,
      "ĠuniÃ³sÅĤ": 8973,
      "Ġtrybie": 8974,
      "Ġinformuje": 8975,
      "czajÄħc": 8976,
      "Ġinformacja": 8977,
      "ĠusiadÅĤ": 8978,
      "ee": 8979,
      "Ġzdrowie": 8980,
      "ĠsÅĤychaÄĩ": 8981,
      "liÅ¼": 8982,
      "Ġregionie": 8983,
      "Ġwyku": 8984,
      "Ġdyspon": 8985,
      "Ġpolityczne": 8986,
      "ĠChrystu": 8987,
      "ĠokazaÅĤ": 8988,
      "Ġprzewidzi": 8989,
      "Sa": 8990,
      "Ġfragment": 8991,
      "Ġrozko": 8992,
      "KsiÄħ": 8993,
      "Ġprzewiduje": 8994,
      "skoczyÅĤ": 8995,
      "tkami": 8996,
      "ĠpiÅĽmie": 8997,
      "ĠwyraÅ¼": 8998,
      "Ġkoja": 8999,
      "Ġsir": 9000,
      "ĠuchwaÅĤy": 9001,
      "Ġmieszkani": 9002,
      "Ġdziwnego": 9003,
      "nis": 9004,
      "ĠwpÅĤywu": 9005,
      "ĠJack": 9006,
      "Zastana": 9007,
      "Ġdyspozy": 9008,
      "ĠpodkreÅĽliÄĩ": 9009,
      "Zost": 9010,
      "Ġpodtrzym": 9011,
      "Ġeki": 9012,
      "Ġgodzinie": 9013,
      "Ġzama": 9014,
      "rzch": 9015,
      "Ġumieszcz": 9016,
      "Ġszpital": 9017,
      "ĠzdolnoÅĽci": 9018,
      "ĠmyÅĽlaÅĤem": 9019,
      "Ġ1939": 9020,
      "Ġabsur": 9021,
      "Ġmianowicie": 9022,
      "Ġform": 9023,
      "tujÄĻ": 9024,
      "Ġnarodowej": 9025,
      "ĠpewnoÅĽÄĩ": 9026,
      "ĠposzÅĤa": 9027,
      "Ġchorych": 9028,
      "ĠzachÃ³d": 9029,
      "Ġspotkaniu": 9030,
      "Ġkrwa": 9031,
      "ĠÅĽmiechem": 9032,
      "Ġzarabi": 9033,
      "Ġzdarzenia": 9034,
      "grywa": 9035,
      "ĠmaÅĤym": 9036,
      "ĠmogÅĤam": 9037,
      "Ġ39": 9038,
      "grup": 9039,
      "ĠpoczuÅĤa": 9040,
      "ĠskrÃ³": 9041,
      "Ġuregul": 9042,
      "Ġdes": 9043,
      "Wiad": 9044,
      "ĠuznaÄĩ": 9045,
      "Ġwprowadza": 9046,
      "ĠpoglÄħ": 9047,
      "Å¼eni": 9048,
      "Ġnarodu": 9049,
      "ĠelementÃ³w": 9050,
      "ĠprzerwaÅĤ": 9051,
      "ĠzapÅĤaciÄĩ": 9052,
      "ĠszeÅĽciu": 9053,
      "nowu": 9054,
      "Ġczele": 9055,
      "ĠmateriaÅĤu": 9056,
      "ĠmaÅĤej": 9057,
      "ingu": 9058,
      "ĠspoÅĽrÃ³d": 9059,
      "Go": 9060,
      "78": 9061,
      "Ġape": 9062,
      "ĠrobiÄĻ": 9063,
      "ĠnagÅĤ": 9064,
      "Ġpodstawowych": 9065,
      "Ġnaczy": 9066,
      "ĠJesteÅĽ": 9067,
      "ĠsÅĤone": 9068,
      "ĠpojÄĻ": 9069,
      "Ġszanse": 9070,
      "Ġ1998": 9071,
      "ĠÅĽcie": 9072,
      "ĠÅĽmieci": 9073,
      "Fi": 9074,
      "towania": 9075,
      "Ġpodstawy": 9076,
      "ĠbÄĻdÄħc": 9077,
      "Ġnazwa": 9078,
      "ĠÅ¼onÄħ": 9079,
      "Ġrowe": 9080,
      "nnÄħ": 9081,
      "cieÄĩ": 9082,
      "ĠgraÄĩ": 9083,
      "Ġprzerwy": 9084,
      "Ġprzygotowania": 9085,
      "Ġchroni": 9086,
      "Ġprzekonany": 9087,
      "ĠzgodziÅĤ": 9088,
      "Ġpartne": 9089,
      "ĠpomoÅ¼e": 9090,
      "chaÅĤa": 9091,
      "ĠwziÄĻÅĤa": 9092,
      "Ġramieniu": 9093,
      "ĠpoinformowaÅĤ": 9094,
      "Ġograniczenia": 9095,
      "ĠÅĤadu": 9096,
      "Ġniz": 9097,
      "Ġposa": 9098,
      "ĠwiÄĻksza": 9099,
      "Ġcer": 9100,
      "ĠpropozycjÄĻ": 9101,
      "tyku": 9102,
      "Ġwyle": 9103,
      "ĠgoÅĽÄĩ": 9104,
      "Ġfakty": 9105,
      "ĠwprowadziÄĩ": 9106,
      "dowania": 9107,
      "Ġprzedtem": 9108,
      "ĠtoÅ¼sam": 9109,
      "Ġzatrudnienia": 9110,
      "ĠbÅĤyskawi": 9111,
      "ĠdodaÅĤa": 9112,
      "Ġusz": 9113,
      "Ġadwoka": 9114,
      "Ġkampanii": 9115,
      "Ġzaopat": 9116,
      "rymi": 9117,
      "ĠCzech": 9118,
      "Ġbun": 9119,
      "Ġwyrok": 9120,
      "Ġ400": 9121,
      "Ġplecy": 9122,
      "Ġkroki": 9123,
      "Pe": 9124,
      "caÅĤa": 9125,
      "Ġakt": 9126,
      "ĠgÃ³rze": 9127,
      "dowych": 9128,
      "ĠÅ¼oÅĤnierz": 9129,
      "urze": 9130,
      "Ġplat": 9131,
      "znania": 9132,
      "ĠczÄĻÅĽciowo": 9133,
      "ĠKultury": 9134,
      "ĠwystarczajÄħco": 9135,
      "Ġrozumiesz": 9136,
      "ĠbrakowaÅĤo": 9137,
      "ĠspoÅĤeczeÅĦstwo": 9138,
      "Ġmoderni": 9139,
      "nikom": 9140,
      "Å¼yÅĤam": 9141,
      "ĠmÅĤodzi": 9142,
      "ĠpaÅĦstwu": 9143,
      "ĠkÅĤÃ³": 9144,
      "ĠFrancu": 9145,
      "wÅĤaÅĽci": 9146,
      "Ġwodzie": 9147,
      "Ġspoczy": 9148,
      "Ġprofesj": 9149,
      "ĠpowiedziaÅĤam": 9150,
      "Ġparku": 9151,
      "Ġnajlepszy": 9152,
      "des": 9153,
      "stycznym": 9154,
      "ĠlistÄĻ": 9155,
      "Ġzep": 9156,
      "ĠnapisaÄĩ": 9157,
      "ĠnÃ³Å¼": 9158,
      "ĠuchodÅº": 9159,
      "ĠwrÃ³ciÅĤa": 9160,
      "ĠwÅĤasnoÅĽci": 9161,
      "ĠTam": 9162,
      "Ġwszystkimi": 9163,
      "Przypo": 9164,
      "noÅĽnie": 9165,
      "Ġliczne": 9166,
      "ĠumÃ³w": 9167,
      "cianie": 9168,
      "ĠleÅ¼aÅĤ": 9169,
      "ĠzdÄħÅ¼yÅĤ": 9170,
      "Ġoboje": 9171,
      "ĠchodziÄĩ": 9172,
      "Ġobejmuje": 9173,
      "mana": 9174,
      "Ġsamochody": 9175,
      "stycznie": 9176,
      "ĠdajÄħ": 9177,
      "KrÃ³": 9178,
      "ĠzasÅĤo": 9179,
      "Zach": 9180,
      "ĠsprzÄĻtu": 9181,
      "niÄĻtych": 9182,
      "ĠchÅĤopca": 9183,
      "naÅĽcie": 9184,
      "adÄĻ": 9185,
      "dliwoÅĽÄĩ": 9186,
      "Ġdoktora": 9187,
      "rywa": 9188,
      "ĠwyglÄħdaÅĤo": 9189,
      "Trzy": 9190,
      "czykÃ³w": 9191,
      "ĠCor": 9192,
      "ĠwyÅĽwiet": 9193,
      "Ġzrobili": 9194,
      "Ġzamiar": 9195,
      "NiektÃ³rzy": 9196,
      "Ġvon": 9197,
      "ĠtwarzÄħ": 9198,
      "ĠczÅĤonkowie": 9199,
      "ĠSal": 9200,
      "Ġstopy": 9201,
      "Å¼ka": 9202,
      "ĠpomyÅĽle": 9203,
      "przÃ³d": 9204,
      "Ġbaj": 9205,
      "omie": 9206,
      "Ã³dÅº": 9207,
      "ĠmaÅĤego": 9208,
      "Ġjedyne": 9209,
      "Ġpowiad": 9210,
      "styczna": 9211,
      "ÅĤonek": 9212,
      "Ġanalizy": 9213,
      "ime": 9214,
      "paÅĽÄĩ": 9215,
      "Ġtowarzyszy": 9216,
      "Ġciemno": 9217,
      "ĠÅºrÃ³dÅĤo": 9218,
      "zwycza": 9219,
      "kcje": 9220,
      "ĠchciaÅĤam": 9221,
      "kowana": 9222,
      "ĠzajÄĻcia": 9223,
      "ĠkorzyÅĽci": 9224,
      "Ġprzedstawiciele": 9225,
      "ĠwrÃ³": 9226,
      "Ġmorza": 9227,
      "Ġstawia": 9228,
      "Ġarchitek": 9229,
      "Ġkal": 9230,
      "Ġmiliar": 9231,
      "ĠstanÄħ": 9232,
      "rzymy": 9233,
      "Ġteore": 9234,
      "Â«": 9235,
      "Ġwolny": 9236,
      "cena": 9237,
      "ĠSÄħd": 9238,
      "Zu": 9239,
      "ĠBor": 9240,
      "PomyÅĽl": 9241,
[...]
