{
  "version": "1.0",
  "truncation": null,
  "padding": null,
  "added_tokens": [
    {
      "id": 0,
      "content": "[UNK]",
      "single_word": false,
      "lstrip": false,
      "rstrip": false,
      "normalized": false,
      "special": true
    },
    {
      "id": 1,
      "content": "[CLS]",
      "single_word": false,
      "lstrip": false,
      "rstrip": false,
      "normalized": false,
      "special": true
    },
    {
      "id": 2,
      "content": "[SEP]",
      "single_word": false,
      "lstrip": false,
      "rstrip": false,
      "normalized": false,
      "special": true
    },
    {
      "id": 3,
      "content": "[PAD]",
      "single_word": false,
      "lstrip": false,
      "rstrip": false,
      "normalized": false,
      "special": true
    },
    {
      "id": 4,
      "content": "[MASK]",
      "single_word": false,
      "lstrip": false,
      "rstrip": false,
      "normalized": false,
      "special": true
    }
  ],
  "normalizer": null,
  "pre_tokenizer": {
    "type": "Whitespace"
  },
  "post_processor": null,
  "decoder": null,
  "model": {
    "type": "BPE",
    "dropout": null,
    "unk_token": "[UNK]",
    "continuing_subword_prefix": null,
    "end_of_word_suffix": null,
    "fuse_unk": false,
    "byte_fallback": false,
    "ignore_merges": false,
    "vocab": {
      "[UNK]": 0,
      "[CLS]": 1,
      "[SEP]": 2,
      "[PAD]": 3,
      "[MASK]": 4,
      "!": 5,
      "\"": 6,
      "(": 7,
      ")": 8,
      "*": 9,
      ",": 10,
      "-": 11,
      ".": 12,
      "1": 13,
      "2": 14,
      "5": 15,
      "8": 16,
      ":": 17,
      ";": 18,
      "<": 19,
      ">": 20,
      "?": 21,
      "A": 22,
      "B": 23,
      "C": 24,
      "D": 25,
      "E": 26,
      "F": 27,
      "G": 28,
      "H": 29,
      "I": 30,
      "J": 31,
      "K": 32,
      "L": 33,
      "M": 34,
      "N": 35,
      "O": 36,
      "P": 37,
      "R": 38,
      "S": 39,
      "T": 40,
      "U": 41,
      "V": 42,
      "W": 43,
      "Y": 44,
      "Z": 45,
      "a": 46,
      "b": 47,
      "c": 48,
      "d": 49,
      "e": 50,
      "f": 51,
      "g": 52,
      "h": 53,
      "i": 54,
      "j": 55,
      "k": 56,
      "l": 57,
      "m": 58,
      "n": 59,
      "o": 60,
      "p": 61,
      "q": 62,
      "r": 63,
      "s": 64,
      "t": 65,
      "u": 66,
      "v": 67,
      "w": 68,
      "x": 69,
      "y": 70,
      "z": 71,
      "Ó": 72,
      "á": 73,
      "é": 74,
      "ó": 75,
      "Ą": 76,
      "ą": 77,
      "Ć": 78,
      "ć": 79,
      "Ę": 80,
      "ę": 81,
      "Ł": 82,
      "ł": 83,
      "ń": 84,
      "Ś": 85,
      "ś": 86,
      "Ź": 87,
      "ź": 88,
      "Ż": 89,
      "ż": 90,
      "ie": 91,
      "rz": 92,
      "sz": 93,
      "cz": 94,
      "ch": 95,
      "na": 96,
      "nie": 97,
      "dz": 98,
      "st": 99,
      "ał": 100,
      "po": 101,
      "ra": 102,
      "ię": 103,
      "ro": 104,
      "ni": 105,
      "em": 106,
      "ko": 107,
      "li": 108,
      "wi": 109,
      "rze": 110,
      "wa": 111,
      "ło": 112,
      "ka": 113,
      "się": 114,
      "ci": 115,
      "za": 116,
      "ak": 117,
      "wie": 118,
      "rzy": 119,
      "le": 120,
      "do": 121,
      "wy": 122,
      "ny": 123,
      "ki": 124,
      "je": 125,
      "go": 126,
      "mi": 127,
      "dzi": 128,
      "ła": 129,
      "no": 130,
      "by": 131,
      "da": 132,
      "ta": 133,
      "ów": 134,
      "la": 135,
      "wo": 136,
      "pa": 137,
      "ne": 138,
      "cie": 139,
      "ty": 140,
      "dzie": 141,
      "czy": 142,
      "ry": 143,
      "to": 144,
      "szy": 145,
      "że": 146,
      "dy": 147,
      "ąc": 148,
      "kie": 149,
      "ku": 150,
      "bi": 151,
      "te": 152,
      "ną": 153,
      "ma": 154,
      "mo": 155,
      "si": 156,
      "sta": 157,
      "ob": 158,
      "od": 159,
      "ru": 160,
      "ja": 161,
      "mie": 162,
      "jak": 163,
      "łu": 164,
      "cze": 165,
      "prze": 166,
      "re": 167,
      "mu": 168,
      "we": 169,
      "ły": 170,
      "ce": 171,
      "sze": 172,
      "pi": 173,
      "rę": 174,
      "cza": 175,
      "ró": 176,
      "przy": 177,
      "ba": 178,
      "de": 179,
      "bie": 180,
      "ją": 181,
      "bo": 182,
      "ści": 183,
      "ga": 184,
      "co": 185,
      "wszy": 186,
      "my": 187,
      "wał": 188,
      "ży": 189,
      "pie": 190,
      "sa": 191,
      "cy": 192,
      "lu": 193,
      "raz": 194,
      "ca": 195,
      "ski": 196,
      "sza": 197,
      "cha": 198,
      "cho": 199,
      "Po": 200,
      "tu": 201,
      "roz": 202,
      "nia": 203,
      "Pa": 204,
      "ju": 205,
      "wia": 206,
      "sk": 207,
      "tak": 208,
      "tó": 209,
      "zy": 210,
      "tem": 211,
      "jąc": 212,
      "Nie": 213,
      "gi": 214,
      "er": 215,
      "Na": 216,
      "ść": 217,
      "ała": 218,
      "nął": 219,
      "me": 220,
      "pra": 221,
      "sie": 222,
      "gło": 223,
      "pod": 224,
      "sto": 225,
      "ze": 226,
      "kł": 227,
      "kiem": 228,
      "ska": 229,
      "usz": 230,
      "zna": 231,
      "Ta": 232,
      "Ja": 233,
      "nę": 234,
      "wą": 235,
      "du": 236,
      "już": 237,
      "Je": 238,
      "lo": 239,
      "pro": 240,
      "śli": 241,
      "lach": 242,
      "gdy": 243,
      "Za": 244,
      "ąd": 245,
      "czę": 246,
      "kę": 247,
      "spo": 248,
      "Hra": 249,
      "skie": 250,
      "wz": 251,
      "Sę": 252,
      "Te": 253,
      "\".": 254,
      "ką": 255,
      "łem": 256,
      "nych": 257,
      "!\"": 258,
      "któ": 259,
      "zie": 260,
      "sy": 261,
      "ały": 262,
      "mnie": 263,
      "Wo": 264,
      "be": 265,
      "mię": 266,
      "dzia": 267,
      "krzy": 268,
      "cu": 269,
      "jest": 270,
      "rza": 271,
      "Tade": 272,
      "ża": 273,
      "rą": 274,
      "Ma": 275,
      "ków": 276,
      "szlach": 277,
      "wę": 278,
      "był": 279,
      "czas": 280,
      "Ch": 281,
      "gro": 282,
      "mó": 283,
      "słu": 284,
      "se": 285,
      "sło": 286,
      "nym": 287,
      "Bo": 288,
      "bro": 289,
      "ało": 290,
      "sia": 291,
      "sko": 292,
      "bra": 293,
      "pe": 294,
      "..": 295,
      "pu": 296,
      "pó": 297,
      "chy": 298,
      "bia": 299,
      "bu": 300,
      "Le": 301,
      "szcze": 302,
      "on": 303,
      "wiel": 304,
      "gł": 305,
      "strze": 306,
      "Że": 307,
      "nej": 308,
      "wię": 309,
      "lko": 310,
      "niej": 311,
      "Mo": 312,
      "ję": 313,
      "nik": 314,
      "Jak": 315,
      "pan": 316,
      "dł": 317,
      "dro": 318,
      "op": 319,
      "rzekł": 320,
      "so": 321,
      "nim": 322,
      "pier": 323,
      "czu": 324,
      "stro": 325,
      "zi": 326,
      "ten": 327,
      "su": 328,
      "cią": 329,
      "Pod": 330,
      "Pan": 331,
      "ście": 332,
      "Do": 333,
      "ich": 334,
      "tę": 335,
      "zo": 336,
      "dził": 337,
      "dź": 338,
      "kro": 339,
      "Wy": 340,
      "czo": 341,
      "wszyst": 342,
      "miał": 343,
      "gie": 344,
      "lę": 345,
      "Woj": 346,
      "Wi": 347,
      "nad": 348,
      "Hrabia": 349,
      "Tadeusz": 350,
      "mło": 351,
      "trze": 352,
      "trzy": 353,
      "wó": 354,
      "Sędzia": 355,
      "powie": 356,
      "cia": 357,
      "ar": 358,
      "Zo": 359,
      "Sop": 360,
      "są": 361,
      "rzę": 362,
      "Sopli": 363,
      "bę": 364,
      "tam": 365,
      "Ale": 366,
      "scy": 367,
      "dłu": 368,
      "kła": 369,
      "żo": 370,
      "dział": 371,
      "nio": 372,
      "Któ": 373,
      "wu": 374,
      "sła": 375,
      "wił": 376,
      "bez": 377,
      "nem": 378,
      "dę": 379,
      "nu": 380,
      "sty": 381,
      "jako": 382,
      "To": 383,
      "sob": 384,
      "dla": 385,
      "dzy": 386,
      "jej": 387,
      "resz": 388,
      "dru": 389,
      "im": 390,
      "tra": 391,
      "koń": 392,
      "czył": 393,
      "Tak": 394,
      "jo": 395,
      "rów": 396,
      "wej": 397,
      "cał": 398,
      "ej": 399,
      "zło": 400,
      "Lecz": 401,
      "rzą": 402,
      "tylko": 403,
      "Ty": 404,
      "Wie": 405,
      "gę": 406,
      "śnie": 407,
      "czą": 408,
      "dob": 409,
      "dać": 410,
      "Ko": 411,
      "lecz": 412,
      "Od": 413,
      "py": 414,
      "sły": 415,
      "przed": 416,
      "Dob": 417,
      "Prze": 418,
      "dzo": 419,
      "lime": 420,
      "jed": 421,
      "Telime": 422,
      "cię": 423,
      "jem": 424,
      "wsze": 425,
      "sią": 426,
      "uż": 427,
      "świe": 428,
      "rzu": 429,
      "oczy": 430,
      "rem": 431,
      "zd": 432,
      "wać": 433,
      "gu": 434,
      "gą": 435,
      "gó": 436,
      "zu": 437,
      "ser": 438,
      "wró": 439,
      "dza": 440,
      "cił": 441,
      "dwie": 442,
      "wne": 443,
      "Czy": 444,
      "dał": 445,
      "jego": 446,
      "tał": 447,
      "Gdy": 448,
      "in": 449,
      "twa": 450,
      "przez": 451,
      "cząc": 452,
      "krzyk": 453,
      "Wa": 454,
      "ców": 455,
      "gdzie": 456,
      "pię": 457,
      "śmie": 458,
      "Wojski": 459,
      "bli": 460,
      "kra": 461,
      "świa": 462,
      "niem": 463,
      "dwo": 464,
      "gra": 465,
      "kró": 466,
      "zwa": 467,
      "ścia": 468,
      "który": 469,
      "Co": 470,
      "Już": 471,
      "fi": 472,
      "wem": 473,
      "naj": 474,
      "wio": 475,
      "ciąg": 476,
      "wią": 477,
      "sam": 478,
      "tą": 479,
      "Przy": 480,
      "rał": 481,
      "zno": 482,
      "óż": 483,
      "komo": 484,
      "tym": 485,
      "róż": 486,
      "myśli": 487,
      "lą": 488,
      "tów": 489,
      "zam": 490,
      "jeszcze": 491,
      "...": 492,
      "wła": 493,
      "erwa": 494,
      "Podkomo": 495,
      "Li": 496,
      "szu": 497,
      "chu": 498,
      "ste": 499,
      "nic": 500,
      "niu": 501,
      "kich": 502,
      "było": 503,
      "pad": 504,
      "lucz": 505,
      "Gerwa": 506,
      "dwa": 507,
      "rzał": 508,
      "szał": 509,
      "stał": 510,
      "bar": 511,
      "wski": 512,
      "łe": 513,
      "chło": 514,
      "nas": 515,
      "ran": 516,
      "dząc": 517,
      "robi": 518,
      "dzić": 519,
      "nego": 520,
      "two": 521,
      "rzem": 522,
      "każ": 523,
      "Ni": 524,
      "ale": 525,
      "sku": 526,
      "stra": 527,
      "nił": 528,
      "domu": 529,
      "wych": 530,
      "kim": 531,
      "ród": 532,
      "tr": 533,
      "mia": 534,
      "tej": 535,
      "Ro": 536,
      "sów": 537,
      "wło": 538,
      "zgo": 539,
      "szczę": 540,
      "ciał": 541,
      "wym": 542,
      "aż": 543,
      "try": 544,
      "zda": 545,
      "szę": 546,
      "dze": 547,
      "jen": 548,
      "daw": 549,
      "par": 550,
      "zwy": 551,
      "dzą": 552,
      "rzecz": 553,
      "szedł": 554,
      "Sz": 555,
      "ona": 556,
      "twie": 557,
      "stwo": 558,
      "które": 559,
      "będzie": 560,
      "By": 561,
      "Rob": 562,
      "kto": 563,
      "mał": 564,
      "niec": 565,
      "wet": 566,
      "myś": 567,
      "pół": 568,
      "Klucz": 569,
      "Ry": 570,
      "gnie": 571,
      "tro": 572,
      "stwa": 573,
      "koło": 574,
      "kar": 575,
      "mil": 576,
      "wszyscy": 577,
      "żył": 578,
      "óg": 579,
      "szą": 580,
      "chał": 581,
      "kać": 582,
      "między": 583,
      "dą": 584,
      "kry": 585,
      "sł": 586,
      "den": 587,
      "Dobrzy": 588,
      "gła": 589,
      "mę": 590,
      "swo": 591,
      "tych": 592,
      "więc": 593,
      "tąd": 594,
      "ół": 595,
      "wić": 596,
      "al": 597,
      "cem": 598,
      "krę": 599,
      "usza": 600,
      "Gerwazy": 601,
      "Mi": 602,
      "Re": 603,
      "Wszy": 604,
      "cą": 605,
      "sem": 606,
      "trz": 607,
      "wst": 608,
      "woj": 609,
      "choć": 610,
      "On": 611,
      "Wię": 612,
      "pusz": 613,
      "łą": 614,
      "ński": 615,
      "nek": 616,
      "Moska": 617,
      "sobie": 618,
      "Aż": 619,
      "ha": 620,
      "czem": 621,
      "kocha": 622,
      "wol": 623,
      "kiedy": 624,
      "bił": 625,
      "też": 626,
      "razem": 627,
      "znowu": 628,
      "Pro": 629,
      "Panie": 630,
      "czasem": 631,
      "Podkomorzy": 632,
      "Tu": 633,
      "dło": 634,
      "kał": 635,
      "or": 636,
      "rwa": 637,
      "snął": 638,
      "sztu": 639,
      "kami": 640,
      "była": 641,
      "dar": 642,
      "mar": 643,
      "ręce": 644,
      "drze": 645,
      "rwał": 646,
      "tru": 647,
      "szak": 648,
      "skiej": 649,
      "Telimena": 650,
      "Robak": 651,
      "kre": 652,
      "tni": 653,
      "pole": 654,
      "kon": 655,
      "Macie": 656,
      "Cho": 657,
      "pięk": 658,
      "Ho": 659,
      "dem": 660,
      "wni": 661,
      "śro": 662,
      "czyć": 663,
      "jakby": 664,
      "głowy": 665,
      "Tadeusza": 666,
      "Sta": 667,
      "kło": 668,
      "tki": 669,
      "zwie": 670,
      "łał": 671,
      "waż": 672,
      "może": 673,
      "lub": 674,
      "Więc": 675,
      "ok": 676,
      "ój": 677,
      "pow": 678,
      "dziś": 679,
      "chać": 680,
      "głowę": 681,
      "Sędzie": 682,
      "strzel": 683,
      "Rejen": 684,
      "Dzi": 685,
      "fa": 686,
      "nię": 687,
      "oko": 688,
      "usta": 689,
      "szczy": 690,
      "war": 691,
      "tego": 692,
      "skiego": 693,
      ">>": 694,
      "Sa": 695,
      "drz": 696,
      "js": 697,
      "ogro": 698,
      "prz": 699,
      "chem": 700,
      "lił": 701,
      "nosi": 702,
      "ność": 703,
      "ziemi": 704,
      "seso": 705,
      "Soplico": 706,
      "bardzo": 707,
      "<<": 708,
      "Aseso": 709,
      "gał": 710,
      "og": 711,
      "pę": 712,
      "tka": 713,
      "zby": 714,
      "sząc": 715,
      "potem": 716,
      "gości": 717,
      "ręką": 718,
      "praw": 719,
      "wielkie": 720,
      "Sto": 721,
      "księ": 722,
      "zmie": 723,
      "ód": 724,
      "rzył": 725,
      "dale": 726,
      "ciel": 727,
      "czar": 728,
      "przyja": 729,
      "Klucznik": 730,
      "bły": 731,
      "nku": 732,
      "pla": 733,
      "tłu": 734,
      "stą": 735,
      "ciem": 736,
      "żeby": 737,
      "?\"": 738,
      "Oj": 739,
      "dni": 740,
      "fe": 741,
      "ksią": 742,
      "nki": 743,
      "zdro": 744,
      "nar": 745,
      "moż": 746,
      "miejs": 747,
      "Pol": 748,
      "skrzy": 749,
      "mówi": 750,
      "dła": 751,
      "dwó": 752,
      "eś": 753,
      "tnie": 754,
      "nawet": 755,
      "powia": 756,
      "tar": 757,
      "wołał": 758,
      "dziedzi": 759,
      "bio": 760,
      "teraz": 761,
      "gar": 762,
      "Jako": 763,
      "szlachta": 764,
      "dźwie": 765,
      "zamku": 766,
      "Horesz": 767,
      "Pra": 768,
      "Ra": 769,
      "ksz": 770,
      "spa": 771,
      "niech": 772,
      "stu": 773,
      "nią": 774,
      "nich": 775,
      "was": 776,
      "cież": 777,
      "siebie": 778,
      "Jeśli": 779,
      "gdyby": 780,
      "Zosi": 781,
      "albo": 782,
      "Bra": 783,
      "Da": 784,
      "cąc": 785,
      "rki": 786,
      "spó": 787,
      "żą": 788,
      "chwi": 789,
      "chciał": 790,
      "rami": 791,
      "rodzi": 792,
      "oba": 793,
      "rękę": 794,
      "puści": 795,
      "młodzie": 796,
      "Roz": 797,
      "Ku": 798,
      "Rze": 799,
      "bla": 800,
      "cę": 801,
      "oj": 802,
      "pła": 803,
      "wny": 804,
      "zrobi": 805,
      "nam": 806,
      "posta": 807,
      "kaz": 808,
      "ności": 809,
      "nęła": 810,
      "mój": 811,
      "wszystkie": 812,
      "krzyknął": 813,
      "kształ": 814,
      "Ka": 815,
      "cóż": 816,
      "wra": 817,
      "szli": 818,
      "stry": 819,
      "kach": 820,
      "biał": 821,
      "nąć": 822,
      "wzro": 823,
      "peł": 824,
      "wszystko": 825,
      "Który": 826,
      "głu": 827,
      "swe": 828,
      "rząd": 829,
      "pol": 830,
      "dom": 831,
      "nowi": 832,
      "pal": 833,
      "tek": 834,
      "ernar": 835,
      "Ten": 836,
      "reszcie": 837,
      "drzwi": 838,
      "ernardy": 839,
      "My": 840,
      "dów": 841,
      "kla": 842,
      "wnie": 843,
      "zwał": 844,
      "cznie": 845,
      "nika": 846,
      "domo": 847,
      "szył": 848,
      "miesz": 849,
      "char": 850,
      "rozmo": 851,
      "men": 852,
      "Jest": 853,
      "mniej": 854,
      "szlachci": 855,
      "zosta": 856,
      "chłop": 857,
      "środ": 858,
      "Kto": 859,
      "pło": 860,
      "śle": 861,
      "śród": 862,
      "widział": 863,
      "łowie": 864,
      "zaś": 865,
      "ledwie": 866,
      "cieka": 867,
      "Potem": 868,
      "nęli": 869,
      "Hrabie": 870,
      "Teraz": 871,
      "groma": 872,
      "strony": 873,
      "tenczas": 874,
      "drugie": 875,
      "Wiel": 876,
      "myśl": 877,
      "Ryków": 878,
      "Wszyst": 879,
      "Choć": 880,
      "Sędziego": 881,
      "Bóg": 882,
      "Ci": 883,
      "Kro": 884,
      "dnie": 885,
      "nów": 886,
      "smu": 887,
      "wro": 888,
      "śpie": 889,
      "czał": 890,
      "chce": 891,
      "dzię": 892,
      "zaraz": 893,
      "zawsze": 894,
      "bym": 895,
      "szej": 896,
      "pić": 897,
      "żyć": 898,
      "mógł": 899,
      "Bie": 900,
      "Lu": 901,
      "jrzał": 902,
      "knął": 903,
      "osta": 904,
      "zę": 905,
      "zem": 906,
      "szo": 907,
      "nale": 908,
      "niedźwie": 909,
      "wal": 910,
      "dotąd": 911,
      "dzieć": 912,
      "sami": 913,
      "Niech": 914,
      "szlachty": 915,
      "wielki": 916,
      "wszystkich": 917,
      "Tylko": 918,
      "góry": 919,
      "Go": 920,
      "cały": 921,
      "łnie": 922,
      "człowie": 923,
      "byś": 924,
      "tyle": 925,
      "ące": 926,
      "star": 927,
      "stary": 928,
      "obie": 929,
      "coraz": 930,
      "kroć": 931,
      "trzeba": 932,
      "drugi": 933,
      "Tym": 934,
      "Litwie": 935,
      "Asesor": 936,
      "ani": 937,
      "bak": 938,
      "mni": 939,
      "nka": 940,
      "ple": 941,
      "pta": 942,
      "zbie": 943,
      "éj": 944,
      "kole": 945,
      "licy": 946,
      "kil": 947,
      "woła": 948,
      "bić": 949,
      "dek": 950,
      "wała": 951,
      "chowa": 952,
      "chodzi": 953,
      "mek": 954,
      "Tam": 955,
      "lowa": 956,
      "Majo": 957,
      "słucha": 958,
      "Zosia": 959,
      "długo": 960,
      "rancu": 961,
      "Bi": 962,
      "Kie": 963,
      "Księ": 964,
      "Wtem": 965,
      "gna": 966,
      "gle": 967,
      "gry": 968,
      "zdo": 969,
      "czki": 970,
      "niebo": 971,
      "stę": 972,
      "stwem": 973,
      "pozna": 974,
      "ciu": 975,
      "tan": 976,
      "pada": 977,
      "czyna": 978,
      "szych": 979,
      "ter": 980,
      "nąwszy": 981,
      "ścią": 982,
      "razy": 983,
      "skim": 984,
      "skich": 985,
      "słoń": 986,
      "zory": 987,
      "ciaż": 988,
      "pyta": 989,
      "Scy": 990,
      "Wszak": 991,
      "bą": 992,
      "dna": 993,
      "lów": 994,
      "prę": 995,
      "um": 996,
      "ór": 997,
      "łę": 998,
      "Ży": 999,
      "żę": 1000,
      "koniec": 1001,
      "wach": 1002,
      "cić": 1003,
      "czer": 1004,
      "pia": 1005,
      "pio": 1006,
      "serce": 1007,
      "Scyzory": 1008,
      "Bernardy": 1009,
      "grzy": 1010,
      "mów": 1011,
      "żd": 1012,
      "żał": 1013,
      "szcz": 1014,
      "stru": 1015,
      "widzi": 1016,
      "kara": 1017,
      "woli": 1018,
      "pamię": 1019,
      "mam": 1020,
      "moc": 1021,
      "sio": 1022,
      "odu": 1023,
      "rej": 1024,
      "ską": 1025,
      "taki": 1026,
      "prosi": 1027,
      "Woź": 1028,
      "głę": 1029,
      "pierwszy": 1030,
      "wój": 1031,
      "długi": 1032,
      "której": 1033,
      "Rejent": 1034,
      "Stol": 1035,
      "kształt": 1036,
      "Hrabiego": 1037,
      "Kiedy": 1038,
      "ji": 1039,
      "knie": 1040,
      "klę": 1041,
      "mą": 1042,
      "okiem": 1043,
      "sp": 1044,
      "spra": 1045,
      "uro": 1046,
      "ws": 1047,
      "dzę": 1048,
      "lek": 1049,
      "gospo": 1050,
      "padł": 1051,
      "czeka": 1052,
      "mej": 1053,
      "głos": 1054,
      "głową": 1055,
      "broń": 1056,
      "czął": 1057,
      "wnet": 1058,
      "ląda": 1059,
      "każdy": 1060,
      "Rzekł": 1061,
      "środku": 1062,
      "Kropi": 1063,
      "!>>": 1064,
      "Bu": 1065,
      "Cza": 1066,
      "Ksią": 1067,
      "Sły": 1068,
      "Trze": 1069,
      "br": 1070,
      "cka": 1071,
      "dr": 1072,
      "kle": 1073,
      "lnie": 1074,
      "sę": 1075,
      "sre": 1076,
      "wkoło": 1077,
      "zbo": 1078,
      "szła": 1079,
      "czne": 1080,
      "poko": 1081,
      "nigdy": 1082,
      "wami": 1083,
      "cio": 1084,
      "wierz": 1085,
      "jeśli": 1086,
      "patrzy": 1087,
      "obo": 1088,
      "przeci": 1089,
      "pił": 1090,
      "chodził": 1091,
      "zielo": 1092,
      "świecie": 1093,
      "Prota": 1094,
      "przód": 1095,
      "zbyt": 1096,
      "Tymczasem": 1097,
      "Gdzie": 1098,
      "gru": 1099,
      "ią": 1100,
      "kwi": 1101,
      "krwa": 1102,
      "pły": 1103,
      "ucie": 1104,
      "wrza": 1105,
      "ych": 1106,
      "śmy": 1107,
      "rzci": 1108,
      "chwy": 1109,
      "dzwo": 1110,
      "strz": 1111,
      "kom": 1112,
      "kono": 1113,
      "kobie": 1114,
      "jeżd": 1115,
      "czyli": 1116,
      "żej": 1117,
      "ręku": 1118,
      "znak": 1119,
      "broni": 1120,
      "sobą": 1121,
      "końcu": 1122,
      "wiąza": 1123,
      "dwóch": 1124,
      "Horeszków": 1125,
      "wraca": 1126,
      "Dą": 1127,
      "hu": 1128,
      "ia": 1129,
      "lem": 1130,
      "swą": 1131,
      "tny": 1132,
      "wtenczas": 1133,
      "wiem": 1134,
      "miło": 1135,
      "miała": 1136,
      "dawał": 1137,
      "lata": 1138,
      "żeli": 1139,
      "przerwał": 1140,
      "musi": 1141,
      "skro": 1142,
      "nikt": 1143,
      "nemi": 1144,
      "świad": 1145,
      "...\"": 1146,
      "człowiek": 1147,
      "No": 1148,
      "We": 1149,
      "ckie": 1150,
      "gwia": 1151,
      "gląda": 1152,
      "lał": 1153,
      "swej": 1154,
      "świ": 1155,
      "żąc": 1156,
      "emi": 1157,
      "wicz": 1158,
      "widać": 1159,
      "zach": 1160,
      "zaczę": 1161,
      "dosta": 1162,
      "nowie": 1163,
      "dal": 1164,
      "nerał": 1165,
      "kłó": 1166,
      "żar": 1167,
      "żołnie": 1168,
      "świat": 1169,
      "krót": 1170,
      "których": 1171,
      "każde": 1172,
      "zwycza": 1173,
      "Dobrzyński": 1174,
      "Maciej": 1175,
      "Dziś": 1176,
      "Krzy": 1177,
      "Ob": 1178,
      "Pe": 1179,
      "Płu": 1180,
      "brze": 1181,
      "dno": 1182,
      "nkę": 1183,
      "ucz": 1184,
      "zwo": 1185,
      "zbro": 1186,
      "żu": 1187,
      "szpa": 1188,
      "szcząc": 1189,
      "czka": 1190,
      "chmu": 1191,
      "podob": 1192,
      "niby": 1193,
      "nicy": 1194,
      "wat": 1195,
      "wali": 1196,
      "jeden": 1197,
      "dzio": 1198,
      "były": 1199,
      "lat": 1200,
      "pana": 1201,
      "siąc": 1202,
      "jakie": 1203,
      "przecież": 1204,
      "wały": 1205,
      "chociaż": 1206,
      "także": 1207,
      "skar": 1208,
      "gdyś": 1209,
      "często": 1210,
      "wzią": 1211,
      "szlache": 1212,
      "Chrzci": 1213,
      "mówił": 1214,
      "skoń": 1215,
      "Może": 1216,
      "czuł": 1217,
      "giem": 1218,
      "trzyma": 1219,
      "Soplica": 1220,
      "Które": 1221,
      "włas": 1222,
      "kazał": 1223,
      "Wszystko": 1224,
      ").": 1225,
      "Sie": 1226,
      "gów": 1227,
      "isto": 1228,
      "kwia": 1229,
      "nkie": 1230,
      "swych": 1231,
      "umie": 1232,
      "wka": 1233,
      "zwi": 1234,
      "świę": 1235,
      "szcza": 1236,
      "nasze": 1237,
      "nagle": 1238,
      "niegdyś": 1239,
      "stało": 1240,
      "wiał": 1241,
      "zawołał": 1242,
      "zamek": 1243,
      "mio": 1244,
      "tach": 1245,
      "tabak": 1246,
      "pani": 1247,
      "ciebie": 1248,
      "dziew": 1249,
      "dzieje": 1250,
      "czyny": 1251,
      "szym": 1252,
      "mień": 1253,
      "mieni": 1254,
      "cek": 1255,
      "pią": 1256,
      "jął": 1257,
      "chaj": 1258,
      "prawa": 1259,
      "Jacek": 1260,
      "syć": 1261,
      "sej": 1262,
      "skoczył": 1263,
      "Sopliców": 1264,
      "słyszał": 1265,
      "wrócił": 1266,
      "Wasze": 1267,
      "Lit": 1268,
      "milcze": 1269,
      "Dobrzyń": 1270,
      "wolna": 1271,
      "Ojczy": 1272,
      "Dąbro": 1273,
      "),": 1274,
      "Ach": 1275,
      "Francu": 1276,
      "Mó": 1277,
      "Sło": 1278,
      "cki": 1279,
      "gli": 1280,
      "grze": 1281,
      "gły": 1282,
      "gnął": 1283,
      "iż": 1284,
      "kr": 1285,
      "krze": 1286,
      "urzę": 1287,
      "wspo": 1288,
      "wdzię": 1289,
      "śnia": 1290,
      "źni": 1291,
      "szko": 1292,
      "nach": 1293,
      "strzy": 1294,
      "poda": 1295,
      "polowa": 1296,
      "rać": 1297,
      "niż": 1298,
      "wil": 1299,
      "wany": 1300,
      "wano": 1301,
      "kap": 1302,
      "wiedział": 1303,
      "jedy": 1304,
      "bywa": 1305,
      "wody": 1306,
      "obu": 1307,
      "obra": 1308,
      "szek": 1309,
      "biegł": 1310,
      "gada": 1311,
      "prowa": 1312,
      "pierwsze": 1313,
      "dobrze": 1314,
      "dworze": 1315,
      "dawniej": 1316,
      "Szlach": 1317,
      "Wszyscy": 1318,
      "Ksiądz": 1319,
      "Ró": 1320,
      "bię": 1321,
      "bry": 1322,
      "cała": 1323,
      "dli": 1324,
      "ho": 1325,
      "kli": 1326,
      "nt": 1327,
      "ude": 1328,
      "wca": 1329,
      "zga": 1330,
      "łów": 1331,
      "śla": 1332,
      "źnie": 1333,
      "żem": 1334,
      "szło": 1335,
      "szczu": 1336,
      "nasz": 1337,
      "stąd": 1338,
      "lite": 1339,
      "kazy": 1340,
      "zaba": 1341,
      "goto": 1342,
      "nogi": 1343,
      "tajem": 1344,
      "patrz": 1345,
      "ciela": 1346,
      "dziecię": 1347,
      "obła": 1348,
      "czek": 1349,
      "szep": 1350,
      "com": 1351,
      "coś": 1352,
      "sarz": 1353,
      "sach": 1354,
      "tuż": 1355,
      "Pana": 1356,
      "Nawet": 1357,
      "Napole": 1358,
      "siedzi": 1359,
      "duma": 1360,
      "wzię": 1361,
      "Mać": 1362,
      "ściem": 1363,
      "oczyma": 1364,
      "twar": 1365,
      "twarz": 1366,
      "padła": 1367,
      "trwo": 1368,
      "karcz": 1369,
      "puszcza": 1370,
      "drzewa": 1371,
      "Sam": 1372,
      "drugiej": 1373,
      "kilka": 1374,
      "Woźny": 1375,
      "Protazy": 1376,
      "Ce": 1377,
      "Dzie": 1378,
      "Pru": 1379,
      "Sko": 1380,
      "dra": 1381,
      "dko": 1382,
      "ek": 1383,
      "fu": 1384,
      "kt": 1385,
      "mru": 1386,
      "oczu": 1387,
      "przem": 1388,
      "rnie": 1389,
      "schy": 1390,
      "tk": 1391,
      "ust": 1392,
      "wsi": 1393,
      "ństwa": 1394,
      "ier": 1395,
      "czte": 1396,
      "che": 1397,
      "naro": 1398,
      "nami": 1399,
      "nieco": 1400,
      "nić": 1401,
      "kola": 1402,
      "wido": 1403,
      "warzy": 1404,
      "aki": 1405,
      "dość": 1406,
      "mią": 1407,
      "być": 1408,
      "byłem": 1409,
      "dziec": 1410,
      "dzieci": 1411,
      "weso": 1412,
      "rócz": 1413,
      "takie": 1414,
      "jąca": 1415,
      "jące": 1416,
      "stołu": 1417,
      "nęły": 1418,
      "Jeden": 1419,
      "proce": 1420,
      "czasu": 1421,
      "sen": 1422,
      "słowo": 1423,
      "pewnie": 1424,
      "Ledwie": 1425,
      "głów": 1426,
      "panów": 1427,
      "drogi": 1428,
      "krop": 1429,
      "Wojskiego": 1430,
      "stym": 1431,
      "całą": 1432,
      "serca": 1433,
      "śmier": 1434,
      "właśnie": 1435,
      "nicę": 1436,
      "strasz": 1437,
      "wstrzy": 1438,
      "prawda": 1439,
      "Lub": 1440,
      "ostatni": 1441,
      "należy": 1442,
      "Major": 1443,
      "Bar": 1444,
      "Cóż": 1445,
      "Czę": 1446,
      "Ile": 1447,
      "Rę": 1448,
      "Stry": 1449,
      "brał": 1450,
      "cało": 1451,
      "dąc": 1452,
      "grzecz": 1453,
      "jnie": 1454,
      "ląd": 1455,
      "pał": 1456,
      "sno": 1457,
      "trą": 1458,
      "ubra": 1459,
      "zł": 1460,
      "ństwo": 1461,
      "śni": 1462,
      "niebie": 1463,
      "nieraz": 1464,
      "powi": 1465,
      "pomiędzy": 1466,
      "porząd": 1467,
      "licz": 1468,
      "liśmy": 1469,
      "zaczął": 1470,
      "wiele": 1471,
      "wiecze": 1472,
      "leci": 1473,
      "jechał": 1474,
      "noc": 1475,
      "dziej": 1476,
      "żegna": 1477,
      "biały": 1478,
      "man": 1479,
      "masz": 1480,
      "obraz": 1481,
      "odpowie": 1482,
      "szero": 1483,
      "ludzi": 1484,
      "wiatr": 1485,
      "skła": 1486,
      "Jankie": 1487,
      "Jeszcze": 1488,
      "jesteś": 1489,
      "rąk": 1490,
      "siadł": 1491,
      "wielkim": 1492,
      "czora": 1493,
      "Widać": 1494,
      "Zosię": 1495,
      "równie": 1496,
      "zdra": 1497,
      "dworu": 1498,
      "ciągnął": 1499,
      "szuka": 1500,
      "łek": 1501,
      "krew": 1502,
      "Praw": 1503,
      "białe": 1504,
      "wzrok": 1505,
      "jeżdża": 1506,
      "Dąbrowski": 1507,
      "Brzy": 1508,
      "Słu": 1509,
      "dne": 1510,
      "dłem": 1511,
      "jdzie": 1512,
      "mną": 1513,
      "otwo": 1514,
      "rka": 1515,
      "sce": 1516,
      "wsty": 1517,
      "wpół": 1518,
      "wszak": 1519,
      "zdy": 1520,
      "ósł": 1521,
      "łó": 1522,
      "ńskie": 1523,
      "śmi": 1524,
      "żczy": 1525,
      "rad": 1526,
      "wam": 1527,
      "cicho": 1528,
      "lep": 1529,
      "dawne": 1530,
      "tyłu": 1531,
      "rucho": 1532,
      "jazd": 1533,
      "wego": 1534,
      "cej": 1535,
      "bok": 1536,
      "ludzie": 1537,
      "cach": 1538,
      "Pani": 1539,
      "Chciał": 1540,
      "wód": 1541,
      "niony": 1542,
      "całe": 1543,
      "Kone": 1544,
      "jednej": 1545,
      "świeci": 1546,
      "wróci": 1547,
      "Moskali": 1548,
      "mówiąc": 1549,
      "puścił": 1550,
      "szlachcic": 1551,
      "Szlachta": 1552,
      "War": 1553,
      "bło": 1554,
      "bów": 1555,
      "dny": 1556,
      "gląd": 1557,
      "kwe": 1558,
      "mem": 1559,
      "owa": 1560,
      "osob": 1561,
      "sak": 1562,
      "sną": 1563,
      "smy": 1564,
      "skiem": 1565,
      "swym": 1566,
      "trzą": 1567,
      "uwa": 1568,
      "wna": 1569,
      "zny": 1570,
      "zgi": 1571,
      "chę": 1572,
      "ałem": 1573,
      "por": 1574,
      "poli": 1575,
      "potra": 1576,
      "rach": 1577,
      "niał": 1578,
      "niósł": 1579,
      "konie": 1580,
      "kowa": 1581,
      "konia": 1582,
      "lić": 1583,
      "zami": 1584,
      "zaścia": 1585,
      "wier": 1586,
      "lepie": 1587,
      "wyra": 1588,
      "dam": 1589,
      "dach": 1590,
      "tać": 1591,
      "lasu": 1592,
      "rywa": 1593,
      "bit": 1594,
      "mach": 1595,
      "stanie": 1596,
      "stare": 1597,
      "obro": 1598,
      "obło": 1599,
      "miesza": 1600,
      "muzy": 1601,
      "szere": 1602,
      "boga": 1603,
      "gadać": 1604,
      "cami": 1605,
      "skę": 1606,
      "jący": 1607,
      "prawo": 1608,
      "zego": 1609,
      "Hrabi": 1610,
      "więk": 1611,
      "długie": 1612,
      "niosł": 1613,
      "Która": 1614,
      "kończył": 1615,
      "dobry": 1616,
      "słychać": 1617,
      "rzuci": 1618,
      "rzuca": 1619,
      "którym": 1620,
      "wskim": 1621,
      "szczęśli": 1622,
      "dawno": 1623,
      "puszczy": 1624,
      "Soplicowie": 1625,
      "fede": 1626,
      "zdrowie": 1627,
      "młodzież": 1628,
      "Wielmoż": 1629,
      "Buch": 1630,
      "Al": 1631,
      "Be": 1632,
      "Dłu": 1633,
      "Mie": 1634,
      "Pi": 1635,
      "Pier": 1636,
      "Rej": 1637,
      "Wz": 1638,
      "Wła": 1639,
      "bój": 1640,
      "krą": 1641,
      "nna": 1642,
      "nne": 1643,
      "ol": 1644,
      "ogo": 1645,
      "pała": 1646,
      "sąd": 1647,
      "swój": 1648,
      "tch": 1649,
      "tne": 1650,
      "uszy": 1651,
      "wpadł": 1652,
      "zer": 1653,
      "czkę": 1654,
      "nau": 1655,
      "naprzód": 1656,
      "niego": 1657,
      "stwie": 1658,
      "stała": 1659,
      "polu": 1660,
      "widząc": 1661,
      "kape": 1662,
      "zabi": 1663,
      "lec": 1664,
      "dosyć": 1665,
      "wypra": 1666,
      "jenerał": 1667,
      "działa": 1668,
      "dziwił": 1669,
      "dają": 1670,
      "tań": 1671,
      "las": 1672,
      "pas": 1673,
      "tysiąc": 1674,
      "dzień": 1675,
      "kuch": 1676,
      "mają": 1677,
      "mawia": 1678,
      "moje": 1679,
      "ruszył": 1680,
      "czego": 1681,
      "rek": 1682,
      "wese": 1683,
      "ban": 1684,
      "bierze": 1685,
      "samo": 1686,
      "Patrz": 1687,
      "skó": 1688,
      "prawi": 1689,
      "siedział": 1690,
      "Sędzio": 1691,
      "którą": 1692,
      "ziemię": 1693,
      "mówić": 1694,
      "wielka": 1695,
      "strzela": 1696,
      "Mosk": 1697,
      "Panu": 1698,
      "miałem": 1699,
      "młody": 1700,
      "trzymał": 1701,
      "Przed": 1702,
      "blisko": 1703,
      "kraju": 1704,
      "fice": 1705,
      "wiony": 1706,
      "ksiądz": 1707,
      "ramiona": 1708,
      "Myśli": 1709,
      "Dobrzyńscy": 1710,
      "Prawda": 1711,
      "Właśnie": 1712,
      "Dla": 1713,
      "Dru": 1714,
      "Mu": 1715,
      "Mię": 1716,
      "Mój": 1717,
      "Osta": 1718,
      "Oba": 1719,
      "Strze": 1720,
      "Zna": 1721,
      "có": 1722,
      "dka": 1723,
      "ge": 1724,
      "mały": 1725,
      "nni": 1726,
      "oku": 1727,
      "otwar": 1728,
      "per": 1729,
      "spod": 1730,
      "tło": 1731,
      "tkę": 1732,
      "wskie": 1733,
      "ób": 1734,
      "żki": 1735,
      "czci": 1736,
      "strzał": 1737,
      "pom": 1738,
      "rady": 1739,
      "rok": 1740,
      "lica": 1741,
      "daj": 1742,
      "lada": 1743,
      "panie": 1744,
      "dzież": 1745,
      "tobie": 1746,
      "sił": 1747,
      "stali": 1748,
      "obli": 1749,
      "ode": 1750,
      "muszę": 1751,
      "czach": 1752,
      "bieży": 1753,
      "życie": 1754,
      "Pamię": 1755,
      "jutro": 1756,
      "mego": 1757,
      "sieni": 1758,
      "głoś": 1759,
      "spoko": 1760,
      "ziem": 1761,
      "Mar": 1762,
      "słowa": 1763,
      "pewne": 1764,
      "puł": 1765,
      "póź": 1766,
      "drogę": 1767,
      "młodzi": 1768,
      "sąsia": 1769,
      "drugą": 1770,
      "jedną": 1771,
      "górę": 1772,
      "innych": 1773,
      "Waść": 1774,
      "świata": 1775,
      "tymczasem": 1776,
      "różno": 1777,
      "zwycię": 1778,
      "Maciek": 1779,
      "ogni": 1780,
      "wielkiej": 1781,
      "dalej": 1782,
      "książę": 1783,
      "miejsce": 1784,
      "rozmowę": 1785,
      "Stolnik": 1786,
      "gospodar": 1787,
      "przeciw": 1788,
      "wziął": 1789,
      "Chrzciciel": 1790,
      "sejmi": 1791,
      "krwi": 1792,
      "federa": 1793,
      "Albo": 1794,
      "Między": 1795,
      "Dar": 1796,
      "Gło": 1797,
      "Ki": 1798,
      "SI": 1799,
      "Sza": 1800,
      "ażeby": 1801,
      "dną": 1802,
      "dusz": 1803,
      "drą": 1804,
      "for": 1805,
      "grz": 1806,
      "idzie": 1807,
      "jrze": 1808,
      "jów": 1809,
      "kała": 1810,
      "mak": 1811,
      "oby": 1812,
      "opie": 1813,
      "sny": 1814,
      "trza": 1815,
      "zba": 1816,
      "źwie": 1817,
      "żało": 1818,
      "żół": 1819,
      "rzo": 1820,
      "szły": 1821,
      "czny": 1822,
      "cznym": 1823,
      "człek": 1824,
      "chwały": 1825,
      "nań": 1826,
      "ster": 1827,
      "poważ": 1828,
      "pomni": 1829,
      "rana": 1830,
      "koła": 1831,
      "wiłem": 1832,
      "rzeczy": 1833,
      "każe": 1834,
      "zarę": 1835,
      "wiesz": 1836,
      "wieść": 1837,
      "jeść": 1838,
      "godzi": 1839,
      "mistrz": 1840,
      "dziwie": 1841,
      "nosząc": 1842,
      "dając": 1843,
      "tył": 1844,
      "tyka": 1845,
      "dzieli": 1846,
      "czym": 1847,
      "żeś": 1848,
      "żela": 1849,
      "moja": 1850,
      "ruszy": 1851,
      "czenie": 1852,
      "pisa": 1853,
      "czasie": 1854,
      "przykła": 1855,
      "baj": 1856,
      "boku": 1857,
      "ścić": 1858,
      "mym": 1859,
      "lubił": 1860,
      "razu": 1861,
      "chodząc": 1862,
      "niach": 1863,
      "Panowie": 1864,
      "Niem": 1865,
      "prawie": 1866,
      "prasza": 1867,
      "nęło": 1868,
      "bel": 1869,
      "jestem": 1870,
      "sługi": 1871,
      "Boga": 1872,
      "strzega": 1873,
      "ciąż": 1874,
      "Dowej": 1875,
      "powiem": 1876,
      "całej": 1877,
      "sercu": 1878,
      "różne": 1879,
      "Nikt": 1880,
      "szędzie": 1881,
      "Był": 1882,
      "ogrom": 1883,
      "błyszcząc": 1884,
      "tłum": 1885,
      "można": 1886,
      "chwili": 1887,
      "palcem": 1888,
      "widziałem": 1889,
      "głębo": 1890,
      "Trzeba": 1891,
      "kobiety": 1892,
      "Płut": 1893,
      "Często": 1894,
      "De": 1895,
      "Nim": 1896,
      "Oto": 1897,
      "Stąd": 1898,
      "Soko": 1899,
      "Ze": 1900,
      "bóg": 1901,
      "gni": 1902,
      "głem": 1903,
      "ile": 1904,
      "jcie": 1905,
      "jść": 1906,
      "pak": 1907,
      "sób": 1908,
      "umiał": 1909,
      "wów": 1910,
      "wskiej": 1911,
      "wreszcie": 1912,
      "wczora": 1913,
      "wciąż": 1914,
      "wszędzie": 1915,
      "zał": 1916,
      "zów": 1917,
      "znów": 1918,
      "łzami": 1919,
      "śmiał": 1920,
      "szem": 1921,
      "niebio": 1922,
      "niesio": 1923,
      "dzał": 1924,
      "pochy": 1925,
      "potrze": 1926,
      "rapier": 1927,
      "kot": 1928,
      "kogo": 1929,
      "liwszy": 1930,
      "rzec": 1931,
      "rzecze": 1932,
      "rzekła": 1933,
      "wiedzieć": 1934,
      "dowa": 1935,
      "wymo": 1936,
      "wyszedł": 1937,
      "mina": 1938,
      "mimo": 1939,
      "łam": 1940,
      "nowe": 1941,
      "nocy": 1942,
      "byli": 1943,
      "tale": 1944,
      "tami": 1945,
      "lasów": 1946,
      "lazł": 1947,
      "cier": 1948,
      "towarzy": 1949,
      "kieli": 1950,
      "kul": 1951,
      "majo": 1952,
      "stanął": 1953,
      "jarzy": 1954,
      "rój": 1955,
      "der": 1956,
      "biesia": 1957,
      "ścio": 1958,
      "gach": 1959,
      "mych": 1960,
      "wało": 1961,
      "lud": 1962,
      "ludz": 1963,
      "lubi": 1964,
      "skał": 1965,
      "zywa": 1966,
      "prawił": 1967,
      "stole": 1968,
      "stodo": 1969,
      "Jego": 1970,
      "lone": 1971,
      "kędy": 1972,
      "wznosi": 1973,
      "Chy": 1974,
      "słowie": 1975,
      "Jakby": 1976,
      "pierś": 1977,
      "stronę": 1978,
      "czoło": 1979,
      "Wil": 1980,
      "Wiwat": 1981,
      "sąsie": 1982,
      "Wiesz": 1983,
      "Dobrze": 1984,
      "Przecież": 1985,
      "jedno": 1986,
      "jednym": 1987,
      "parł": 1988,
      "którego": 1989,
      "swoje": 1990,
      "ńskim": 1991,
      "kontu": 1992,
      "zwierza": 1993,
      "Sędziemu": 1994,
      "ogród": 1995,
      "miejscu": 1996,
      "całym": 1997,
      "karabe": 1998,
      "Kropiciel": 1999,
      "krótce": 2000,
      "każdej": 2001,
      "cztery": 2002,
      "Ani": 2003,
      "GA": 2004,
      "Ha": 2005,
      "Kró": 2006,
      "Każ": 2007,
      "La": 2008,
      "Pu": 2009,
      "Ru": 2010,
      "Rzu": 2011,
      "Sy": 2012,
      "Wreszcie": 2013,
      "Zno": 2014,
      "aka": 2015,
      "aby": 2016,
      "ble": 2017,
      "dki": 2018,
      "ego": 2019,
      "hała": 2020,
      "imię": 2021,
      "izby": 2022,
      "jny": 2023,
      "jon": 2024,
      "lne": 2025,
      "ląc": 2026,
      "nąc": 2027,
      "nków": 2028,
      "nóg": 2029,
      "okrop": 2030,
      "sał": 2031,
      "swa": 2032,
      "tku": 2033,
      "tała": 2034,
      "uśmie": 2035,
      "wki": 2036,
      "wną": 2037,
      "szka": 2038,
      "szta": 2039,
      "chcąc": 2040,
      "nieba": 2041,
      "pogo": 2042,
      "pono": 2043,
      "powoli": 2044,
      "pojedy": 2045,
      "rado": 2046,
      "nice": 2047,
      "kowi": 2048,
      "komu": 2049,
      "kozi": 2050,
      "wiąc": 2051,
      "wija": 2052,
      "łowy": 2053,
      "zaję": 2054,
      "wielu": 2055,
      "wyż": 2056,
      "gość": 2057,
      "łaska": 2058,
      "daje": 2059,
      "lan": 2060,
      "czyła": 2061,
      "kur": 2062,
      "biała": 2063,
      "mazu": 2064,
      "stawi": 2065,
      "jas": 2066,
      "mienia": 2067,
      "jaki": 2068,
      "czekać": 2069,
      "weź": 2070,
      "pil": 2071,
      "biera": 2072,
      "boru": 2073,
      "wałem": 2074,
      "żywszy": 2075,
      "piec": 2076,
      "sama": 2077,
      "szara": 2078,
      "rozkazy": 2079,
      "wiać": 2080,
      "wiadomo": 2081,
      "Nad": 2082,
      "znał": 2083,
      "Jaśnie": 2084,
      "lony": 2085,
      "prosto": 2086,
      "Hrabię": 2087,
      "która": 2088,
      "szlachtę": 2089,
      "groź": 2090,
      "bur": 2091,
      "więcej": 2092,
      "niejszy": 2093,
      "Mopan": 2094,
      "Domej": 2095,
      "Zofi": 2096,
      "dłuż": 2097,
      "trafi": 2098,
      "gęst": 2099,
      "Przerwał": 2100,
      "dzony": 2101,
      "Telimeny": 2102,
      "król": 2103,
      "najmniej": 2104,
      "szukał": 2105,
      "Nic": 2106,
      "Niby": 2107,
      "tryum": 2108,
      "dzenie": 2109,
      "parka": 2110,
      "party": 2111,
      "Szczę": 2112,
      "swoim": 2113,
      "Mil": 2114,
      "wstą": 2115,
      "marszał": 2116,
      "konfedera": 2117,
      "środek": 2118,
      "księdza": 2119,
      "przyjacie": 2120,
      "plac": 2121,
      "Polak": 2122,
      "skrzydła": 2123,
      "powiada": 2124,
      "chwilę": 2125,
      "głupi": 2126,
      "swego": 2127,
      "charty": 2128,
      "zostać": 2129,
      "drugim": 2130,
      "stęp": 2131,
      "stępu": 2132,
      "Bernardyn": 2133,
      "Czasem": 2134,
      "Słychać": 2135,
      "sreb": 2136,
      "tabakie": 2137,
      "kaptu": 2138,
      "Napoleon": 2139,
      "Maćka": 2140,
      "Prusak": 2141,
      "Jankiel": 2142,
      "Konewka": 2143,
      "Warsza": 2144,
      "lepiej": 2145,
      "Strzel": 2146,
      "SIĘ": 2147,
      "obycza": 2148,
      "Znowu": 2149,
      "Mopanku": 2150,
      "Aby": 2151,
      "Dale": 2152,
      "KSIĘ": 2153,
      "Py": 2154,
      "Trzy": 2155,
      "dba": 2156,
      "fra": 2157,
      "fol": 2158,
      "gne": 2159,
      "her": 2160,
      "har": 2161,
      "histo": 2162,
      "ił": 2163,
      "ina": 2164,
      "jał": 2165,
      "kły": 2166,
      "nny": 2167,
      "ndu": 2168,
      "oł": 2169,
      "och": 2170,
      "okie": 2171,
      "ofice": 2172,
      "pry": 2173,
      "psów": 2174,
      "twą": 2175,
      "wcze": 2176,
      "wtem": 2177,
      "zła": 2178,
      "zja": 2179,
      "zrę": 2180,
      "Ło": 2181,
      "ńce": 2182,
      "ździ": 2183,
      "żny": 2184,
      "sznu": 2185,
      "chnie": 2186,
      "chwa": 2187,
      "chle": 2188,
      "nał": 2189,
      "nierucho": 2190,
      "stem": 2191,
      "stały": 2192,
      "stół": 2193,
      "poru": 2194,
      "poły": 2195,
      "robo": 2196,
      "nica": 2197,
      "winy": 2198,
      "wasz": 2199,
      "ciche": 2200,
      "zapa": 2201,
      "zaja": 2202,
      "wieczo": 2203,
      "lewo": 2204,
      "dowy": 2205,
      "jesz": 2206,
      "dzią": 2207,
      "dzisia": 2208,
      "łac": 2209,
      "taj": 2210,
      "lar": 2211,
      "wojen": 2212,
      "pacie": 2213,
      "pamią": 2214,
      "tytu": 2215,
      "szyję": 2216,
      "mocy": 2217,
      "mojej": 2218,
      "stać": 2219,
      "starz": 2220,
      "staro": 2221,
      "czele": 2222,
      "mura": 2223,
      "ręka": 2224,
      "rękami": 2225,
      "czap": 2226,
      "jąwszy": 2227,
      "myka": 2228,
      "żywo": 2229,
      "chował": 2230,
      "rozpa": 2231,
      "rozkaz": 2232,
      "niając": 2233,
      "Państwo": 2234,
      "Niechaj": 2235,
      "zew": 2236,
      "progu": 2237,
      "krzycząc": 2238,
      "Mam": 2239,
      "szlachtą": 2240,
      "czasów": 2241,
      "wielką": 2242,
      "drob": 2243,
      "piersi": 2244,
      "sukie": 2245,
      "został": 2246,
      "Widząc": 2247,
      "żony": 2248,
      "bezpie": 2249,
      "Telimenie": 2250,
      "rzucił": 2251,
      "wróco": 2252,
      "krzyknęli": 2253,
      "ciągle": 2254,
      "szukać": 2255,
      "stety": 2256,
      "rzemie": 2257,
      "zgody": 2258,
      "słów": 2259,
      "kręci": 2260,
      "kręcił": 2261,
      "wojny": 2262,
      "Moskala": 2263,
      "haj": 2264,
      "sztur": 2265,
      "piękny": 2266,
      "strzelcy": 2267,
      "księży": 2268,
      "daleka": 2269,
      "miejsca": 2270,
      "powiadał": 2271,
      "Bracia": 2272,
      "spór": 2273,
      "polskie": 2274,
      "mieszka": 2275,
      "szony": 2276,
      "zbiera": 2277,
      "poznał": 2278,
      "słońca": 2279,
      "prędko": 2280,
      "łęki": 2281,
      "czerwo": 2282,
      "Scyzoryk": 2283,
      "mocno": 2284,
      "głębi": 2285,
      "sęp": 2286,
      "szpady": 2287,
      "Cesarz": 2288,
      "dziecko": 2289,
      "wieczerzy": 2290,
      "KSIĘGA": 2291,
      "folwar": 2292,
      "dzisiaj": 2293,
      "Dy": 2294,
      "He": 2295,
      "Ju": 2296,
      "Mę": 2297,
      "Mnie": 2298,
      "Pół": 2299,
      "Sak": 2300,
      "Sze": 2301,
      "błą": 2302,
      "błęki": 2303,
      "cku": 2304,
      "dle": 2305,
      "dre": 2306,
      "dnął": 2307,
      "francu": 2308,
      "gwał": 2309,
      "is": 2310,
      "klucz": 2311,
      "ng": 2312,
      "ost": 2313,
      "oka": 2314,
      "ony": 2315,
      "ozwał": 2316,
      "tre": 2317,
      "uci": 2318,
      "ucha": 2319,
      "uczu": 2320,
      "ukła": 2321,
      "wza": 2322,
      "wnik": 2323,
      "wkrótce": 2324,
      "znę": 2325,
      "zgroma": 2326,
      "Ów": 2327,
      "ąb": 2328,
      "szki": 2329,
      "szto": 2330,
      "czkiem": 2331,
      "chów": 2332,
      "stró": 2333,
      "pora": 2334,
      "podo": 2335,
      "posła": 2336,
      "powsze": 2337,
      "pogląda": 2338,
      "poczci": 2339,
      "posęp": 2340,
      "radę": 2341,
      "kor": 2342,
      "koł": 2343,
      "kome": 2344,
      "komen": 2345,
      "wis": 2346,
      "widzia": 2347,
      "rzenie": 2348,
      "wając": 2349,
      "zawie": 2350,
      "zając": 2351,
      "zamia": 2352,
      "wiek": 2353,
      "rzyć": 2354,
      "dobra": 2355,
      "wycza": 2356,
      "jeżeli": 2357,
      "goście": 2358,
      "nowy": 2359,
      "dala": 2360,
      "tarz": 2361,
      "woje": 2362,
      "pary": 2363,
      "ciec": 2364,
      "dziewi": 2365,
      "czyste": 2366,
      "ryce": 2367,
      "tom": 2368,
      "szyb": 2369,
      "mowy": 2370,
      "moim": 2371,
      "mogę": 2372,
      "mojego": 2373,
      "starzy": 2374,
      "staje": 2375,
      "odkry": 2376,
      "mieli": 2377,
      "mieniem": 2378,
      "mieniu": 2379,
      "jakim": 2380,
      "łupi": 2381,
      "czenia": 2382,
      "ręko": 2383,
      "różo": 2384,
      "biega": 2385,
      "jąć": 2386,
      "bor": 2387,
      "boju": 2388,
      "żyje": 2389,
      "żyła": 2390,
      "pierz": 2391,
      "szano": 2392,
      "skło": 2393,
      "skry": 2394,
      "takim": 2395,
      "sier": 2396,
      "głowie": 2397,
      "stojąc": 2398,
      "stołem": 2399,
      "znaczy": 2400,
      "duszy": 2401,
      "Jeżeli": 2402,
      "służ": 2403,
      "słuchał": 2404,
      "set": 2405,
      "brać": 2406,
      "bracie": 2407,
      "wielkich": 2408,
      "Żeby": 2409,
      "panny": 2410,
      "stronie": 2411,
      "suk": 2412,
      "tęsk": 2413,
      "czony": 2414,
      "młode": 2415,
      "wódz": 2416,
      "niona": 2417,
      "niono": 2418,
      "Któż": 2419,
      "nemu": 2420,
      "całkiem": 2421,
      "złoci": 2422,
      "Koro": 2423,
      "Dobro": 2424,
      "Przez": 2425,
      "Wać": 2426,
      "niemało": 2427,
      "dwor": 2428,
      "króle": 2429,
      "króla": 2430,
      "ściany": 2431,
      "zamk": 2432,
      "Podkomorze": 2433,
      "Nigdy": 2434,
      "dzenia": 2435,
      "zwykle": 2436,
      "Robaka": 2437,
      "swoich": 2438,
      "wstę": 2439,
      "sztuki": 2440,
      "szczyk": 2441,
      "warko": 2442,
      "ogrodu": 2443,
      "daleko": 2444,
      "błyska": 2445,
      "stąpił": 2446,
      "dwór": 2447,
      "dziedziń": 2448,
      "Bracie": 2449,
      "chciałem": 2450,
      "zrobił": 2451,
      "domem": 2452,
      "rozmowy": 2453,
      "śledz": 2454,
      "chcesz": 2455,
      "szono": 2456,
      "niedźwiedź": 2457,
      "kilku": 2458,
      "Wszakże": 2459,
      "Stolnika": 2460,
      "sprzę": 2461,
      "uderzył": 2462,
      "litewski": 2463,
      "kolana": 2464,
      "wesoło": 2465,
      "Rębaj": 2466,
      "Wielmożny": 2467,
      "Buchman": 2468,
      "Bez": 2469,
      "kapelu": 2470,
      "Każdy": 2471,
      "Dalej": 2472,
      "Pyta": 2473,
      "wzajem": 2474,
      "Bę": 2475,
      "Hre": 2476,
      "Iż": 2477,
      "Knia": 2478,
      "Oczy": 2479,
      "Pię": 2480,
      "Su": 2481,
      "Spo": 2482,
      "Sła": 2483,
      "Szu": 2484,
      "brzu": 2485,
      "ckim": 2486,
      "fał": 2487,
      "gnia": 2488,
      "grzę": 2489,
      "jne": 2490,
      "jmo": 2491,
      "jrza": 2492,
      "kru": 2493,
      "kój": 2494,
      "mer": 2495,
      "mąd": 2496,
      "nda": 2497,
      "nkiem": 2498,
      "nką": 2499,
      "oto": 2500,
      "plu": 2501,
      "psia": 2502,
      "sro": 2503,
      "trem": 2504,
      "uła": 2505,
      "uważ": 2506,
      "ujrzał": 2507,
      "wci": 2508,
      "wle": 2509,
      "wno": 2510,
      "wców": 2511,
      "wskiego": 2512,
      "wpada": 2513,
      "zdu": 2514,
      "znik": 2515,
      "zbli": 2516,
      "źli": 2517,
      "źre": 2518,
      "żon": 2519,
      "szczą": 2520,
      "czna": 2521,
      "chcę": 2522,
      "nadzie": 2523,
      "niespo": 2524,
      "stwu": 2525,
      "powa": 2526,
      "pozwo": 2527,
      "roku": 2528,
      "kowie": 2529,
      "liku": 2530,
      "lice": 2531,
      "liście": 2532,
      "wici": 2533,
      "wania": 2534,
      "zanie": 2535,
      "zawi": 2536,
      "zakry": 2537,
      "zadziwie": 2538,
      "wiec": 2539,
      "wieku": 2540,
      "lewą": 2541,
      "dole": 2542,
      "dostał": 2543,
      "dokoła": 2544,
      "wyda": 2545,
      "wyzna": 2546,
      "wyrzekł": 2547,
      "wyso": 2548,
      "wyciąg": 2549,
      "jegry": 2550,
      "gor": 2551,
      "miły": 2552,
      "dziw": 2553,
      "działo": 2554,
      "danie": 2555,
      "dama": 2556,
      "darem": 2557,
      "tali": 2558,
      "tarza": 2559,
      "laty": 2560,
      "para": 2561,
      "pańskie": 2562,
      "dziesię": 2563,
      "szyć": 2564,
      "żenie": 2565,
      "ąca": 2566,
      "kiesze": 2567,
      "kula": 2568,
      "bija": 2569,
      "bior": 2570,
      "tel": 2571,
      "mor": 2572,
      "stanowi": 2573,
      "obró": 2574,
      "odmie": 2575,
      "jasz": 2576,
      "jach": 2577,
      "czej": 2578,
      "czela": 2579,
      "przerwa": 2580,
      "rego": 2581,
      "pió": 2582,
      "pili": 2583,
      "pilnie": 2584,
      "ręki": 2585,
      "róg": 2586,
      "deł": 2587,
      "bokiem": 2588,
      "gadał": 2589,
      "sar": 2590,
      "cym": 2591,
      "Podob": 2592,
      "taką": 2593,
      "Nieraz": 2594,
      "siej": 2595,
      "stoi": 2596,
      "stolicy": 2597,
      "znajdzie": 2598,
      "Jene": 2599,
      "proszę": 2600,
      "ądź": 2601,
      "Hrabio": 2602,
      "wzdy": 2603,
      "ziemia": 2604,
      "słuch": 2605,
      "sego": 2606,
      "Bogu": 2607,
      "droga": 2608,
      "oprócz": 2609,
      "stron": 2610,
      "ściej": 2611,
      "powiecie": 2612,
      "rzędem": 2613,
      "będę": 2614,
      "żok": 2615,
      "żona": 2616,
      "żone": 2617,
      "traf": 2618,
      "trawy": 2619,
      "gęsto": 2620,
      "jedli": 2621,
      "Czyli": 2622,
      "zwali": 2623,
      "zwany": 2624,
      "różnych": 2625,
      "właszcza": 2626,
      "Gerwazego": 2627,
      "robić": 2628,
      "włościa": 2629,
      "szczęście": 2630,
      "Było": 2631,
      "Klucznika": 2632,
      "milczał": 2633,
      "milczkiem": 2634,
      "mężczy": 2635,
      "wojna": 2636,
      "dłoni": 2637,
      "okna": 2638,
      "okno": 2639,
      "strzelców": 2640,
      "faj": 2641,
      "okolicy": 2642,
      "gałę": 2643,
      "zmiesza": 2644,
      "czarne": 2645,
      "przyjaciel": 2646,
      "Polszcze": 2647,
      "dziedzic": 2648,
      "dziedziniec": 2649,
      "Raz": 2650,
      "Zosiu": 2651,
      "młodzień": 2652,
      "postać": 2653,
      "stryj": 2654,
      "klaszto": 2655,
      "ostatnie": 2656,
      "Bernardyna": 2657,
      "sprawy": 2658,
      "gospoda": 2659,
      "srebr": 2660,
      "strzały": 2661,
      "komna": 2662,
      "miłość": 2663,
      "musiał": 2664,
      "kwiaty": 2665,
      "Litwi": 2666,
      "Ojczyzny": 2667,
      "polowanie": 2668,
      "patrząc": 2669,
      "śmierci": 2670,
      "porządku": 2671,
      "glądał": 2672,
      "polity": 2673,
      "Długo": 2674,
      "Pierwszy": 2675,
      "niebios": 2676,
      "tryumf": 2677,
      "Podkomorzego": 2678,
      "Hrecze": 2679,
      "jrzawszy": 2680,
      "Ażeby": 2681,
      "Czu": 2682,
      "Ga": 2683,
      "Gra": 2684,
      "Ogro": 2685,
      "Obok": 2686,
      "Spó": 2687,
      "Stał": 2688,
      "Zgo": 2689,
      "brz": 2690,
      "bem": 2691,
      "brzę": 2692,
      "bernardy": 2693,
      "dnego": 2694,
      "ekono": 2695,
      "groz": 2696,
      "glę": 2697,
      "grów": 2698,
      "iść": 2699,
      "izbie": 2700,
      "jrzy": 2701,
      "jmie": 2702,
      "kwa": 2703,
      "lniej": 2704,
      "mn": 2705,
      "nnie": 2706,
      "nce": 2707,
      "nnych": 2708,
      "orze": 2709,
      "owo": 2710,
      "oga": 2711,
      "ogło": 2712,
      "ostro": 2713,
      "otwie": 2714,
      "oczach": 2715,
      "pnie": 2716,
      "psy": 2717,
      "rwo": 2718,
      "spi": 2719,
      "twój": 2720,
      "uczy": 2721,
      "ubo": 2722,
      "ukry": 2723,
      "ukło": 2724,
      "wska": 2725,
      "wkę": 2726,
      "wpadła": 2727,
      "zza": 2728,
      "zdzi": 2729,
      "zły": 2730,
      "złe": 2731,
      "ędy": 2732,
      "ństwem": 2733,
      "Świe": 2734,
      "śpi": 2735,
      "żna": 2736,
      "iem": 2737,
      "szpie": 2738,
      "czną": 2739,
      "chrz": 2740,
      "chci": 2741,
      "chnął": 2742,
      "nadz": 2743,
      "naczy": 2744,
      "naszych": 2745,
      "poz": 2746,
      "poło": 2747,
      "pospo": 2748,
      "poję": 2749,
      "ponu": 2750,
      "potrzeba": 2751,
      "rada": 2752,
      "raca": 2753,
      "rowie": 2754,
      "rowy": 2755,
      "rosły": 2756,
      "nimi": 2757,
      "niku": 2758,
      "ników": 2759,
      "kosz": 2760,
      "lin": 2761,
      "lili": 2762,
      "wiod": 2763,
      "wisząc": 2764,
      "wanie": 2765,
      "wane": 2766,
      "kapi": 2767,
      "cichu": 2768,
      "zale": 2769,
      "zasło": 2770,
      "zagra": 2771,
      "zaszczy": 2772,
      "zaczyna": 2773,
      "wiej": 2774,
      "legi": 2775,
      "dobro": 2776,
      "wychowa": 2777,
      "jeź": 2778,
      "dzisz": 2779,
      "dzisiej": 2780,
      "nos": 2781,
      "nowo": 2782,
      "dami": 2783,
      "dano": 2784,
      "lary": 2785,
      "lasach": 2786,
      "woź": 2787,
      "pany": 2788,
      "papier": 2789,
      "patry": 2790,
      "dziem": 2791,
      "tobą": 2792,
      "kury": 2793,
      "biór": 2794,
      "maty": 2795,
      "mawiał": 2796,
      "mom": 2797,
      "moskie": 2798,
      "mogą": 2799,
      "odga": 2800,
      "rury": 2801,
      "rucha": 2802,
      "jam": 2803,
      "jaka": 2804,
      "miecz": 2805,
      "mienie": 2806,
      "mieście": 2807,
      "jaką": 2808,
      "czasy": 2809,
      "przyszło": 2810,
      "przysłowie": 2811,
      "bawił": 2812,
      "bagne": 2813,
      "biegą": 2814,
      "sali": 2815,
      "same": 2816,
      "car": 2817,
      "szabli": 2818,
      "chodzą": 2819,
      "Powie": 2820,
      "tudzież": 2821,
      "rozum": 2822,
      "temi": 2823,
      "Niedźwie": 2824,
      "Naprzód": 2825,
      "ałam": 2826,
      "siedli": 2827,
      "głosem": 2828,
      "głowami": 2829,
      "podniosł": 2830,
      "stoła": 2831,
      "zeń": 2832,
      "kłe": 2833,
      "znaj": 2834,
      "Jenerał": 2835,
      "proś": 2836,
      "spot": 2837,
      "spozie": 2838,
      "wzru": 2839,
      "żaden": 2840,
      "rącz": 2841,
      "Chwy": 2842,
      "słusz": 2843,
      "skoro": 2844,
      "publi": 2845,
      "póki": 2846,
      "buna": 2847,
      "szczerze": 2848,
      "niejsza": 2849,
      "Mości": 2850,
      "języ": 2851,
      "drogą": 2852,
      "pierwej": 2853,
      "zowie": 2854,
      "wszystkim": 2855,
      "giel": 2856,
      "Wia": 2857,
      "Soplicy": 2858,
      "nione": 2859,
      "resztę": 2860,
      "Takie": 2861,
      "cału": 2862,
      "rząt": 2863,
      "Tyle": 2864,
      "gęsi": 2865,
      "dzone": 2866,
      "dzać": 2867,
      "Gdyby": 2868,
      "Jużci": 2869,
      "wiąty": 2870,
      "myślisz": 2871,
      "padli": 2872,
      "padło": 2873,
      "dwaj": 2874,
      "każda": 2875,
      "włos": 2876,
      "zgoda": 2877,
      "Byłem": 2878,
      "małą": 2879,
      "myśla": 2880,
      "swojej": 2881,
      "Miał": 2882,
      "wojsku": 2883,
      "ńskich": 2884,
      "Moskal": 2885,
      "drzew": 2886,
      "trudno": 2887,
      "Stary": 2888,
      "Rejenta": 2889,
      "Rejentem": 2890,
      "ustach": 2891,
      "ogrodzie": 2892,
      "przodu": 2893,
      "Asesora": 2894,
      "przyjaciela": 2895,
      "spójrzał": 2896,
      "rodziny": 2897,
      "Kusego": 2898,
      "Kapi": 2899,
      "stryja": 2900,
      "chartów": 2901,
      "Jestem": 2902,
      "gromadę": 2903,
      "Wielki": 2904,
      "Cią": 2905,
      "starca": 2906,
      "pleba": 2907,
      "kolei": 2908,
      "kolej": 2909,
      "Majorze": 2910,
      "zdoby": 2911,
      "słońce": 2912,
      "pamięta": 2913,
      "rejte": 2914,
      "sprawę": 2915,
      "patrzył": 2916,
      "kwita": 2917,
      "chwyta": 2918,
      "dzwonił": 2919,
      "miłości": 2920,
      "gwiazd": 2921,
      "zaczęli": 2922,
      "kłótni": 2923,
      "Dobrzyńskich": 2924,
      "jakieś": 2925,
      "Waszeć": 2926,
      "Skołu": 2927,
      "przemia": 2928,
      "Brzyte": 2929,
      "śmiało": 2930,
      "kwestarz": 2931,
      "samot": 2932,
      "jrzeć": 2933,
      "Denas": 2934,
      "Sokoła": 2935,
      "sąsiedz": 2936,
      "Szczęściem": 2937,
      "history": 2938,
      "Mężczy": 2939,
      "wstęgi": 2940,
      "Kniazie": 2941,
      "niespodzia": 2942,
      "nadzwycza": 2943,
      "Niedźwiedź": 2944,
      "\",": 2945,
      ");": 2946,
      "Ba": 2947,
      "Cy": 2948,
      "Cie": 2949,
      "Cał": 2950,
      "Cze": 2951,
      "Głupi": 2952,
      "Kon": 2953,
      "Kędy": 2954,
      "Mło": 2955,
      "Pre": 2956,
      "Sk": 2957,
      "Są": 2958,
      "Tuż": 2959,
      "Wzno": 2960,
      "an": 2961,
      "bła": 2962,
      "ckich": 2963,
      "cór": 2964,
      "dszy": 2965,
      "dnia": 2966,
      "far": 2967,
      "gmi": 2968,
      "gre": 2969,
      "jże": 2970,
      "lny": 2971,
      "mny": 2972,
      "msza": 2973,
      "mało": 2974,
      "ntem": 2975,
      "nnym": 2976,
      "ntów": 2977,
      "ot": 2978,
      "opo": 2979,
      "owi": 2980,
      "one": 2981,
      "oże": 2982,
      "opi": 2983,
      "orę": 2984,
      "ocho": 2985,
      "obia": 2986,
      "oszcze": 2987,
      "około": 2988,
      "psu": 2989,
      "plą": 2990,
      "ptaki": 2991,
      "prócz": 2992,
      "słem": 2993,
      "spuści": 2994,
      "twe": 2995,
      "tknął": 2996,
      "ule": 2997,
      "uto": 2998,
      "uży": 2999,
      "ustą": 3000,
      "urząd": 3001,
      "umyśl": 3002,
      "wnym": 3003,
      "zki": 3004,
      "zmo": 3005,
      "łki": 3006,
      "łzy": 3007,
      "Śmie": 3008,
      "Śród": 3009,
      "źć": 3010,
      "źle": 3011,
      "żne": 3012,
      "rzała": 3013,
      "czów": 3014,
      "czce": 3015,
      "cznych": 3016,
      "chwał": 3017,
      "chcą": 3018,
      "narze": 3019,
      "napa": 3020,
      "nacie": 3021,
      "napar": 3022,
      "niemi": 3023,
      "niemie": 3024,
      "niemu": 3025,
      "nieść": 3026,
      "niegdzie": 3027,
      "dzki": 3028,
      "stej": 3029,
      "strwo": 3030,
      "pola": 3031,
      "powo": 3032,
      "pocie": 3033,
      "pode": 3034,
      "pokrzy": 3035,
      "porwał": 3036,
      "pośpie": 3037,
      "pokój": 3038,
      "poglądał": 3039,
      "roli": 3040,
      "rował": 3041,
      "rodu": 3042,
      "emu": 3043,
      "emnie": 3044,
      "kol": 3045,
      "kora": 3046,
      "komi": 3047,
      "kować": 3048,
      "koniu": 3049,
      "kochał": 3050,
      "wich": 3051,
      "winie": 3052,
      "wacze": 3053,
      "wają": 3054,
      "kasz": 3055,
      "kając": 3056,
      "cisz": 3057,
      "zago": 3058,
      "zaga": 3059,
      "zaży": 3060,
      "zakła": 3061,
      "zapał": 3062,
      "wiecie": 3063,
      "dowo": 3064,
      "domy": 3065,
      "dobył": 3066,
      "doświad": 3067,
      "wyg": 3068,
      "wyna": 3069,
      "wychy": 3070,
      "wygra": 3071,
      "jechać": 3072,
      "jegrów": 3073,
      "gowi": 3074,
      "miały": 3075,
      "mistrzy": 3076,
      "dziwa": 3077,
      "dziła": 3078,
      "nowa": 3079,
      "noty": 3080,
      "nogą": 3081,
      "noszą": 3082,
      "dali": 3083,
      "lać": 3084,
      "larz": 3085,
      "lany": 3086,
      "lasem": 3087,
      "wolę": 3088,
      "pali": 3089,
      "parę": 3090,
      "pasa": 3091,
      "tylu": 3092,
      "dziesią": 3093,
      "dym": 3094,
      "ących": 3095,
      "kiej": 3096,
      "bin": 3097,
      "bili": 3098,
      "tere": 3099,
      "mamy": 3100,
      "stawia": 3101,
      "starzec": 3102,
      "obe": 3103,
      "obej": 3104,
      "obok": 3105,
      "rusza": 3106,
      "przesta": 3107,
      "przeba": 3108,
      "mundu": 3109,
      "west": 3110,
      "weszli": 3111,
      "wedle": 3112,
      "pija": 3113,
      "przysz": 3114,
      "bami": 3115,
      "bole": 3116,
      "ściusz": 3117,
      "gając": 3118,
      "życiu": 3119,
      "san": 3120,
      "szab": 3121,
      "Pow": 3122,
      "rozle": 3123,
      "rozpra": 3124,
      "Patrzy": 3125,
      "temu": 3126,
      "Naj": 3127,
      "siedzą": 3128,
      "głosy": 3129,
      "podda": 3130,
      "podniósł": 3131,
      "skają": 3132,
      "znać": 3133,
      "znałem": 3134,
      "znajo": 3135,
      "znalazł": 3136,
      "wąsa": 3137,
      "Jej": 3138,
      "Zaś": 3139,
      "Zaraz": 3140,
      "Zaczem": 3141,
      "sporu": 3142,
      "spotka": 3143,
      "sposób": 3144,
      "wznosząc": 3145,
      "wzdłuż": 3146,
      "wzglę": 3147,
      "Chce": 3148,
      "służył": 3149,
      "Bonapar": 3150,
      "skoczy": 3151,
      "budził": 3152,
      "głe": 3153,
      "strzelec": 3154,
      "niejsze": 3155,
      "Mospa": 3156,
      "panem": 3157,
      "drodze": 3158,
      "soby": 3159,
      "Dość": 3160,
      "dźwię": 3161,
      "kroku": 3162,
      "kropić": 3163,
      "Wyszedł": 3164,
      "gień": 3165,
      "młoda": 3166,
      "trzeć": 3167,
      "trzech": 3168,
      "powieści": 3169,
      "powiedział": 3170,
      "powiedzieć": 3171,
      "armi": 3172,
      "dłużej": 3173,
      "niosła": 3174,
      "Którą": 3175,
      "końca": 3176,
      "złota": 3177,
      "Kościusz": 3178,
      "pytał": 3179,
      "Telimeną": 3180,
      "wszedł": 3181,
      "rzucić": 3182,
      "remi": 3183,
      "remu": 3184,
      "zdało": 3185,
      "górze": 3186,
      "wrót": 3187,
      "instru": 3188,
      "intere": 3189,
      "krzykli": 3190,
      "śmiejąc": 3191,
      "bliska": 3192,
      "kraj": 3193,
      "zważa": 3194,
      "wemi": 3195,
      "ciągnie": 3196,
      "ląkł": 3197,
      "dwakroć": 3198,
      "ranny": 3199,
      "trybuna": 3200,
      "dawnych": 3201,
      "Szko": 3202,
      "Była": 3203,
      "małe": 3204,
      "Rykowa": 3205,
      "gniewa": 3206,
      "gniewu": 3207,
      "trochę": 3208,
      "Dobrzynie": 3209,
      "wstrzą": 3210,
      "wojsko": 3211,
      "hasło": 3212,
      "dłoń": 3213,
      "dłonie": 3214,
      "Chociaż": 3215,
      "powsta": 3216,
      "powtó": 3217,
      "nosić": 3218,
      "nosił": 3219,
      "Soplicowa": 3220,
      "ognia": 3221,
      "czarny": 3222,
      "fek": 3223,
      "Polski": 3224,
      "Prawą": 3225,
      "ramiony": 3226,
      "Kusy": 3227,
      "zrobić": 3228,
      "Kazał": 3229,
      "głup": 3230,
      "szlachcica": 3231,
      "gromada": 3232,
      "Wszystkie": 3233,
      "niedźwiedzi": 3234,
      "Goście": 3235,
      "Księże": 3236,
      "Żyd": 3237,
      "Scyzorykiem": 3238,
      "prosić": 3239,
      "prosił": 3240,
      "wsch": 3241,
      "Czas": 3242,
      "pokoju": 3243,
      "wierzchu": 3244,
      "zielonej": 3245,
      "płynie": 3246,
      "wrzask": 3247,
      "wrzasnął": 3248,
      "dzwoni": 3249,
      "zwyczaj": 3250,
      "podobne": 3251,
      "Chrzciciela": 3252,
      "istocie": 3253,
      "dziewczy": 3254,
      "Litwy": 3255,
      "milczenie": 3256,
      "urzędu": 3257,
      "kaplicy": 3258,
      "pierwszej": 3259,
      "Róze": 3260,
      "hono": 3261,
      "wcale": 3262,
      "proces": 3263,
      "całował": 3264,
      "grzecznie": 3265,
      "zaścianku": 3266,
      "muzyka": 3267,
      "Rejta": 3268,
      "Rejtan": 3269,
      "Daremnie": 3270,
      "duszę": 3271,
      "pomniał": 3272,
      "przykład": 3273,
      "strzegam": 3274,
      "głęboko": 3275,
      "potrzeb": 3276,
      "Jegomo": 3277,
      "uśmiechem": 3278,
      "radości": 3279,
      "przyjaciele": 3280,
      "Warszawy": 3281,
      "obyczaje": 3282,
      "ochmistrzy": 3283,
      "wcześnie": 3284,
      "bezpiecze": 3285,
      "folwarku": 3286,
      "Jutro": 3287,
      "Półkozi": 3288,
      "podoba": 3289,
      "pierzch": 3290,
      "litewskich": 3291,
      "Rębajło": 3292,
      "daremnie": 3293,
      "umyślnie": 3294,
      "Mospanie": 3295,
      "!...": 3296,
      "Aść": 3297,
      "Bły": 3298,
      "Dwa": 3299,
      "Dwó": 3300,
      "Gro": 3301,
      "Jó": 3302,
      "Owo": 3303,
      "Psy": 3304,
      "Róż": 3305,
      "Szy": 3306,
      "Ser": 3307,
      "Stro": 3308,
      "TA": 3309,
      "Wło": 3310,
      "Wzi": 3311,
      "Zło": 3312,
      "Zak": 3313,
      "Zga": 3314,
      "bru": 3315,
      "ber": 3316,
      "bała": 3317,
      "ctwo": 3318,
      "dnych": 3319,
      "dżok": 3320,
      "echem": 3321,
      "fy": 3322,
      "fie": 3323,
      "fla": 3324,
      "he": 3325,
      "iz": 3326,
      "imi": 3327,
      "jnych": 3328,
      "jdź": 3329,
      "krz": 3330,
      "lka": 3331,
      "nto": 3332,
      "ndy": 3333,
      "nóż": 3334,
      "om": 3335,
      "ogó": 3336,
      "okry": 3337,
      "ogień": 3338,
      "pem": 3339,
      "pli": 3340,
      "pja": 3341,
      "rne": 3342,
      "rdu": 3343,
      "rcia": 3344,
      "sma": 3345,
      "snęła": 3346,
      "snęło": 3347,
      "twy": 3348,
      "tnia": 3349,
      "tkiem": 3350,
      "tką": 3351,
      "trój": 3352,
      "uwie": 3353,
      "usły": 3354,
      "uchem": 3355,
      "usłyszał": 3356,
      "wczy": 3357,
      "wnia": 3358,
      "wską": 3359,
      "zni": 3360,
      "zało": 3361,
      "znu": 3362,
      "zgra": 3363,
      "złą": 3364,
      "zmar": 3365,
      "ął": 3366,
      "Ła": 3367,
      "łszy": 3368,
      "łóż": 3369,
      "ńska": 3370,
      "Ści": 3371,
      "żni": 3372,
      "żwa": 3373,
      "szty": 3374,
      "szlo": 3375,
      "szpad": 3376,
      "szona": 3377,
      "szmer": 3378,
      "cznej": 3379,
      "nadob": 3380,
      "napeł": 3381,
      "naszej": 3382,
      "nazbyt": 3383,
      "nazwi": 3384,
      "niena": 3385,
      "niezmie": 3386,
      "dzej": 3387,
      "strza": 3388,
      "pobie": 3389,
      "posa": 3390,
      "pose": 3391,
      "posia": 3392,
      "postrze": 3393,
      "potę": 3394,
      "pozwa": 3395,
      "rale": 3396,
      "rato": 3397,
      "rowi": 3398,
      "rogi": 3399,
      "rokiem": 3400,
      "niła": 3401,
      "niwszy": 3402,
      "koro": 3403,
      "koszy": 3404,
      "kości": 3405,
      "kołnie": 3406,
      "wió": 3407,
      "wisi": 3408,
      "widzę": 3409,
      "wiwat": 3410,
      "rzenia": 3411,
      "wasze": 3412,
      "wagi": 3413,
      "łotr": 3414,
      "łowach": 3415,
      "kaza": 3416,
      "kazu": 3417,
      "cich": 3418,
      "cichy": 3419,
      "zakoń": 3420,
      "zabił": 3421,
      "zadar": 3422,
      "zatru": 3423,
      "zaklę": 3424,
      "zaduma": 3425,
      "zająca": 3426,
      "zapewne": 3427,
      "wieś": 3428,
      "wieśnia": 3429,
      "rzyny": 3430,
      "leń": 3431,
      "lenie": 3432,
      "leni": 3433,
      "leży": 3434,
      "dowie": 3435,
      "dostrze": 3436,
      "wymie": 3437,
      "wyraz": 3438,
      "wybu": 3439,
      "wyszli": 3440,
      "kiwał": 3441,
      "jedzie": 3442,
      "jezd": 3443,
      "goni": 3444,
      "gotów": 3445,
      "mili": 3446,
      "dziwny": 3447,
      "łaski": 3448,
      "nował": 3449,
      "byt": 3450,
      "damy": 3451,
      "tara": 3452,
      "taka": 3453,
      "tany": 3454,
      "woro": 3455,
      "wości": 3456,
      "pać": 3457,
      "pach": 3458,
      "paszczę": 3459,
      "cieli": 3460,
      "tycze": 3461,
      "czyta": 3462,
      "żeni": 3463,
      "bijał": 3464,
      "testa": 3465,
      "mać": 3466,
      "mogła": 3467,
      "sić": 3468,
      "siące": 3469,
      "stawy": 3470,
      "stają": 3471,
      "obję": 3472,
      "odwie": 3473,
      "ruch": 3474,
      "rują": 3475,
      "ruchy": 3476,
      "rumień": 3477,
      "jaś": 3478,
      "mieć": 3479,
      "czeni": 3480,
      "przeczu": 3481,
      "much": 3482,
      "muszą": 3483,
      "celu": 3484,
      "cesar": 3485,
      "szer": 3486,
      "pisz": 3487,
      "piją": 3488,
      "pistole": 3489,
      "rób": 3490,
      "przyci": 3491,
      "bawi": 3492,
      "bawić": 3493,
      "biegu": 3494,
      "gami": 3495,
      "galo": 3496,
      "cony": 3497,
      "żyją": 3498,
      "piecho": 3499,
      "sad": 3500,
      "szam": 3501,
      "chach": 3502,
      "chodzić": 3503,
      "rozmów": 3504,
      "rozumie": 3505,
      "wiatrem": 3506,
      "skra": 3507,
      "skąd": 3508,
      "siedząc": 3509,
      "podróż": 3510,
      "stoją": 3511,
      "kłę": 3512,
      "znam": 3513,
      "Jedna": 3514,
      "Zaczę": 3515,
      "częta": 3516,
      "części": 3517,
      "część": 3518,
      "spoczy": 3519,
      "syją": 3520,
      "Woje": 3521,
      "krzyż": 3522,
      "słup": 3523,
      "służy": 3524,
      "słuchać": 3525,
      "służąc": 3526,
      "słowy": 3527,
      "Boże": 3528,
      "brat": 3529,
      "pewny": 3530,
      "chybił": 3531,
      "szczegó": 3532,
      "pierw": 3533,
      "strono": 3534,
      "ciął": 3535,
      "Panny": 3536,
      "Dosyć": 3537,
      "kroki": 3538,
      "kroków": 3539,
      "czole": 3540,
      "czono": 3541,
      "czone": 3542,
      "trzykroć": 3543,
      "powiet": 3544,
      "będą": 3545,
      "kłania": 3546,
      "kładnie": 3547,
      "kłaniał": 3548,
      "sława": 3549,
      "sławy": 3550,
      "słania": 3551,
      "sławny": 3552,
      "stych": 3553,
      "traw": 3554,
      "trawie": 3555,
      "równa": 3556,
      "złość": 3557,
      "Kocha": 3558,
      "jedna": 3559,
      "jedwa": 3560,
      "wszerz": 3561,
      "zuch": 3562,
      "serwis": 3563,
      "Czyż": 3564,
      "krzyknęła": 3565,
      "Waści": 3566,
      "bliż": 3567,
      "dworem": 3568,
      "ściami": 3569,
      "najwyż": 3570,
      "wiono": 3571,
      "różnie": 3572,
      "myśliwców": 3573,
      "dwadzie": 3574,
      "chłopiec": 3575,
      "włosy": 3576,
      "zgodzić": 3577,
      "dzeniem": 3578,
      "zwykł": 3579,
      "dąsa": 3580,
      "słał": 3581,
      "gładził": 3582,
      "kręca": 3583,
      "kręcąc": 3584,
      "Mickie": 3585,
      "łąki": 3586,
      "Moskalów": 3587,
      "kochać": 3588,
      "piękne": 3589,
      "wnika": 3590,
      "zwiercia": 3591,
      "powstał": 3592,
      "powraca": 3593,
      "strzelby": 3594,
      ">>.": 3595,
      "Sang": 3596,
      "drzwia": 3597,
      "prawdzie": 3598,
      "Stoją": 3599,
      "targ": 3600,
      "Horeszko": 3601,
      "Radziwił": 3602,
      "obaczy": 3603,
      "młodzieży": 3604,
      "wracał": 3605,
      "białą": 3606,
      "wzroku": 3607,
      "pełnia": 3608,
      "Których": 3609,
      "nowina": 3610,
      "palce": 3611,
      "chłopca": 3612,
      "ciekawy": 3613,
      "Hrabiemu": 3614,
      "drugiego": 3615,
      "Wielkie": 3616,
      "smut": 3617,
      "smutnie": 3618,
      "pleban": 3619,
      "Bir": 3620,
      "ters": 3621,
      "słońcem": 3622,
      "pytać": 3623,
      "prędzej": 3624,
      "pioru": 3625,
      "mówię": 3626,
      "mocniej": 3627,
      "długim": 3628,
      "spał": 3629,
      "uroczy": 3630,
      "lekka": 3631,
      "lekkie": 3632,
      "każdym": 3633,
      "drżąc": 3634,
      "zboże": 3635,
      "zboża": 3636,
      "konopie": 3637,
      "wracać": 3638,
      "gwiazda": 3639,
      "zaczęła": 3640,
      "daléj": 3641,
      "dalbóg": 3642,
      "żołnier": 3643,
      "każdego": 3644,
      "zwyczaju": 3645,
      "zwyczajem": 3646,
      "Peł": 3647,
      "Pewnie": 3648,
      "Płuta": 3649,
      "ucztę": 3650,
      "szpadę": 3651,
      "chmury": 3652,
      "skończyć": 3653,
      "milczeniu": 3654,
      "Słowem": 3655,
      "krwią": 3656,
      "wspomnie": 3657,
      "wspomni": 3658,
      "polowania": 3659,
      "wilk": 3660,
      "oburącz": 3661,
      "obławy": 3662,
      "szepnął": 3663,
      "Napoleona": 3664,
      "dumania": 3665,
      "schyla": 3666,
      "Ileż": 3667,
      "licznych": 3668,
      "leciała": 3669,
      "otworzył": 3670,
      "wszakże": 3671,
      "potrawy": 3672,
      "bitwę": 3673,
      "tchó": 3674,
      "wyprawy": 3675,
      "kuchni": 3676,
      "Patrzcie": 3677,
      "skórę": 3678,
      "Myślił": 3679,
      "Drugi": 3680,
      "Musi": 3681,
      "Ostatnie": 3682,
      "Pamiętam": 3683,
      "głośno": 3684,
      "później": 3685,
      "Darmo": 3686,
      "poważnie": 3687,
      "zaręczyny": 3688,
      "pisać": 3689,
      "niesioną": 3690,
      "kontusza": 3691,
      "karabelę": 3692,
      "zręcznie": 3693,
      "pacierz": 3694,
      "rękojeść": 3695,
      "sprzęt": 3696,
      "psiar": 3697,
      "znajdziesz": 3698,
      "Jenerale": 3699,
      "włościan": 3700,
      "Brzytewka": 3701,
      "Denassów": 3702,
      "Kniaziewicz": 3703,
      "ochmistrzyni": 3704,
      "Aśćka": 3705,
      "Dwóch": 3706,
      "Józe": 3707,
      "Owoż": 3708,
      "Sangusz": 3709,
      "Radziwiłł": 3710,
      "Asan": 3711,
      "Bro": 3712,
      "Bądź": 3713,
      "Hej": 3714,
      "Idąc": 3715,
      "Kwe": 3716,
      "Krę": 3717,
      "Ona": 3718,
      "Oni": 3719,
      "Ode": 3720,
      "Obe": 3721,
      "Pó": 3722,
      "Pę": 3723,
      "Pój": 3724,
      "Próżno": 3725,
      "Rów": 3726,
      "Tę": 3727,
      "Two": 3728,
      "Wspo": 3729,
      "Wkoło": 3730,
      "Wtenczas": 3731,
      "Zie": 3732,
      "Zwy": 3733,
      "Znam": 3734,
      "Zdawał": 3735,
      "Zwłaszcza": 3736,
      "ach": 3737,
      "alko": 3738,
      "bki": 3739,
      "dak": 3740,
      "dnym": 3741,
      "dniu": 3742,
      "dół": 3743,
      "flin": 3744,
      "gr": 3745,
      "gąc": 3746,
      "hoj": 3747,
      "ić": 3748,
      "idą": 3749,
      "izba": 3750,
      "jni": 3751,
      "jmy": 3752,
      "jca": 3753,
      "jskich": 3754,
      "lni": 3755,
      "lną": 3756,
      "lski": 3757,
      "lnych": 3758,
      "nc": 3759,
      "nko": 3760,
      "nnej": 3761,
      "nkami": 3762,
      "nność": 3763,
      "oni": 3764,
      "owe": 3765,
      "oca": 3766,
      "osty": 3767,
      "owej": 3768,
      "okra": 3769,
      "ogła": 3770,
      "oświad": 3771,
      "ołów": 3772,
      "oparł": 3773,
      "pą": 3774,
      "pre": 3775,
      "próż": 3776,
      "próżno": 3777,
      "spie": 3778,
      "snąwszy": 3779,
      "spuszcza": 3780,
      "trzę": 3781,
      "uprze": 3782,
      "ucho": 3783,
      "urzą": 3784,
      "umar": 3785,
      "uczuł": 3786,
      "wnych": 3787,
      "wnio": 3788,
      "wnu": 3789,
      "wśród": 3790,
      "zra": 3791,
      "zma": 3792,
      "zmy": 3793,
      "zgu": 3794,
      "zmia": 3795,
      "zmru": 3796,
      "zbój": 3797,
      "ém": 3798,
      "ćwi": 3799,
      "łąd": 3800,
      "łej": 3801,
      "łące": 3802,
      "śny": 3803,
      "śmia": 3804,
      "źmie": 3805,
      "Ża": 3806,
      "szpo": 3807,
      "szów": 3808,
      "sząd": 3809,
      "szczył": 3810,
      "szkla": 3811,
      "czała": 3812,
      "czką": 3813,
      "czkach": 3814,
      "chi": 3815,
      "chro": 3816,
      "chmie": 3817,
      "nat": 3818,
      "nara": 3819,
      "nasza": 3820,
      "nareszcie": 3821,
      "nawzajem": 3822,
      "niesi": 3823,
      "niesie": 3824,
      "nieśli": 3825,
      "niechaj": 3826,
      "niestety": 3827,
      "niebezpiecze": 3828,
      "nieźmie": 3829,
      "dzów": 3830,
      "stki": 3831,
      "strą": 3832,
      "pory": 3833,
      "porzą": 3834,
      "począ": 3835,
      "porwa": 3836,
      "pośrodku": 3837,
      "pożegna": 3838,
      "pochwały": 3839,
      "posreb": 3840,
      "radzi": 3841,
      "raczy": 3842,
      "rabi": 3843,
      "raczył": 3844,
      "ięty": 3845,
      "rosła": 3846,
      "rowany": 3847,
      "robię": 3848,
      "nikiem": 3849,
      "niały": 3850,
      "nisko": 3851,
      "koni": 3852,
      "kota": 3853,
      "kory": 3854,
      "kościo": 3855,
      "lito": 3856,
      "liść": 3857,
      "liścia": 3858,
      "wiu": 3859,
      "wili": 3860,
      "wiwa": 3861,
      "wita": 3862,
      "widzieć": 3863,
      "rzeź": 3864,
      "łość": 3865,
      "łożył": 3866,
      "kaj": 3867,
      "kam": 3868,
      "kale": 3869,
      "kano": 3870,
      "kają": 3871,
      "kapu": 3872,
      "kamień": 3873,
      "cili": 3874,
      "ciły": 3875,
      "ciała": 3876,
      "zac": 3877,
      "zalo": 3878,
      "zabra": 3879,
      "zajazd": 3880,
      "wiedząc": 3881,
      "wiedzą": 3882,
      "lej": 3883,
      "lewej": 3884,
      "leciał": 3885,
      "doby": 3886,
      "dowiedział": 3887,
      "dowód": 3888,
      "wyrze": 3889,
      "wypa": 3890,
      "wystrze": 3891,
      "wykra": 3892,
      "wypad": 3893,
      "wydar": 3894,
      "nymi": 3895,
      "gorz": 3896,
      "gosła": 3897,
      "gościa": 3898,
      "gołę": 3899,
      "minu": 3900,
      "miodu": 3901,
      "dziki": 3902,
      "dziwne": 3903,
      "ładu": 3904,
      "ławę": 3905,
      "nowym": 3906,
      "damom": 3907,
      "tane": 3908,
      "tajnie": 3909,
      "woda": 3910,
      "woły": 3911,
      "wokoło": 3912,
      "pami": 3913,
      "pasie": 3914,
      "pańskich": 3915,
      "dzier": 3916,
      "dziela": 3917,
      "dziecka": 3918,
      "czytał": 3919,
      "dygni": 3920,
      "kun": 3921,
      "bitwie": 3922,
      "maj": 3923,
      "maczu": 3924,
      "malowa": 3925,
      "malar": 3926,
      "maleń": 3927,
      "moi": 3928,
      "mody": 3929,
      "mogłem": 3930,
      "stada": 3931,
      "stawił": 3932,
      "obcy": 3933,
      "odem": 3934,
      "odszedł": 3935,
      "jazdy": 3936,
      "czekał": 3937,
      "przer": 3938,
      "przezna": 3939,
      "mury": 3940,
      "łych": 3941,
      "pisał": 3942,
      "czaszy": 3943,
      "róża": 3944,
      "przyszedł": 3945,
      "przyczyny": 3946,
      "przynajmniej": 3947,
      "bacz": 3948,
      "bach": 3949,
      "biegał": 3950,
      "boha": 3951,
      "ścił": 3952,
      "ścisnął": 3953,
      "gają": 3954,
      "gaju": 3955,
      "gawę": 3956,
      "ganku": 3957,
      "cof": 3958,
      "cona": 3959,
      "cone": 3960,
      "cofa": 3961,
      "życia": 3962,
      "pies": 3963,
      "sadza": 3964,
      "samym": 3965,
      "ludź": 3966,
      "szanu": 3967,
      "chali": 3968,
      "chodzie": 3969,
      "tur": 3970,
      "tuli": 3971,
      "tuje": 3972,
      "rozwi": 3973,
      "rozstrzy": 3974,
      "rozpierzch": 3975,
      "Pań": 3976,
      "takt": 3977,
      "tóż": 3978,
      "zywał": 3979,
      "Niestety": 3980,
      "ginie": 3981,
      "Nareszcie": 3982,
      "prawą": 3983,
      "prawej": 3984,
      "prawić": 3985,
      "siecz": 3986,
      "siero": 3987,
      "głowa": 3988,
      "stoły": 3989,
      "zebra": 3990,
      "uszcza": 3991,
      "Tar": 3992,
      "Jacka": 3993,
      "Jacku": 3994,
      "wąż": 3995,
      "duch": 3996,
      "ducha": 3997,
      "dując": 3998,
      "duchy": 3999,
      "lor": 4000,
      "loną": 4001,
      "lował": 4002,
      "prost": 4003,
      "Zam": 4004,
      "częściej": 4005,
      "sposob": 4006,
      "wzgó": 4007,
      "wzgar": 4008,
      "wzgląd": 4009,
      "Tej": 4010,
      "syna": 4011,
      "syno": 4012,
      "dziano": 4013,
      "krzyczy": 4014,
      "krzyku": 4015,
      "cudzy": 4016,
      "rzadko": 4017,
      "rzadka": 4018,
      "żalu": 4019,
      "Chło": 4020,
      "sługa": 4021,
      "służą": 4022,
      "sekre": 4023,
      "broda": 4024,
      "siada": 4025,
      "siadał": 4026,
      "bramę": 4027,
      "pewna": 4028,
      "puste": 4029,
      "chylił": 4030,
      "budzi": 4031,
      "szczer": 4032,
      "głąb": 4033,
      "panu": 4034,
      "stronach": 4035,
      "Panów": 4036,
      "Dobył": 4037,
      "dźcie": 4038,
      "czona": 4039,
      "czoła": 4040,
      "gieł": 4041,
      "Widzi": 4042,
      "Wilnie": 4043,
      "Tadeuszu": 4044,
      "Tadeuszku": 4045,
      "młodu": 4046,
      "młodzia": 4047,
      "wóz": 4048,
      "powieść": 4049,
      "sądy": 4050,
      "rzęd": 4051,
      "rzędy": 4052,
      "Soplice": 4053,
      "żono": 4054,
      "nioną": 4055,
      "resztą": 4056,
      "druga": 4057,
      "drudzy": 4058,
      "trak": 4059,
      "końcem": 4060,
      "jomu": 4061,
      "wejrzenie": 4062,
      "ejów": 4063,
      "złoty": 4064,
      "złotem": 4065,
      "Wiem": 4066,
      "Wiedział": 4067,
      "słysząc": 4068,
      "dzona": 4069,
      "jednego": 4070,
      "Telimeno": 4071,
      "Telimenę": 4072,
      "cięż": 4073,
      "świeży": 4074,
      "wróż": 4075,
      "wrócić": 4076,
      "czące": 4077,
      "światem": 4078,
      "dwoje": 4079,
      "granicę": 4080,
      "króli": 4081,
      "krótki": 4082,
      "Coraz": 4083,
      "fia": 4084,
      "wioną": 4085,
      "wioski": 4086,
      "ciągną": 4087,
      "ciągnąć": 4088,
      "myślił": 4089,
      "myśliwi": 4090,
      "myśliłem": 4091,
      "myśliwych": 4092,
      "zamko": 4093,
      "Litwa": 4094,
      "chust": 4095,
      "padnie": 4096,
      "bardziej": 4097,
      "łeb": 4098,
      "chłopi": 4099,
      "robił": 4100,
      "twoje": 4101,
      "miast": 4102,
      "miasta": 4103,
      "zgodził": 4104,
      "szczęścia": 4105,
      "zdaje": 4106,
      "małżon": 4107,
      "myśle": 4108,
      "gniew": 4109,
      "kryjomu": 4110,
      "Mia": 4111,
      "wojnę": 4112,
      "choćby": 4113,
      "puszcz": 4114,
      "Moskale": 4115,
      "kochanka": 4116,
      "wolnie": 4117,
      "sztucznie": 4118,
      "krewny": 4119,
      "pięknej": 4120,
      "wnicy": 4121,
      "wników": 4122,
      "kłopo": 4123,
      "zwierząt": 4124,
      "okrą": 4125,
      "powstanie": 4126,
      "fali": 4127,
      "okolica": 4128,
      "zmienia": 4129,
      "czarnych": 4130,
      "tłuma": 4131,
      "ciemno": 4132,
      "Ojcze": 4133,
      "dziedzica": 4134,
      "spać": 4135,
      "spada": 4136,
      "Dawał": 4137,
      "blasku": 4138,
      "bladnął": 4139,
      "ojczy": 4140,
      "ojca": 4141,
      "nością": 4142,
      "Każe": 4143,
      "palcami": 4144,
      "mieszkał": 4145,
      "ment": 4146,
      "mniejszy": 4147,
      "myśląc": 4148,
      "Cicho": 4149,
      "Bieży": 4150,
      "Lud": 4151,
      "zęby": 4152,
      "drugich": 4153,
      "Księdza": 4154,
      "poznać": 4155,
      "czerwie": 4156,
      "piose": 4157,
      "Scyzoryku": 4158,
      "grzybów": 4159,
      "pamięć": 4160,
      "pamięci": 4161,
      "czekają": 4162,
      "Kropidło": 4163,
      "Książę": 4164,
      "Słyszał": 4165,
      "brała": 4166,
      "drżał": 4167,
      "sędzi": 4168,
      "oboje": 4169,
      "oboję": 4170,
      "kwit": 4171,
      "krwawe": 4172,
      "chwycił": 4173,
      "jeżdżał": 4174,
      "wiązane": 4175,
      "skroni": 4176,
      "ckiej": 4177,
      "zaczęły": 4178,
      "żarty": 4179,
      "żołnierz": 4180,
      "żołnierzy": 4181,
      "Krzyk": 4182,
      "uczci": 4183,
      "skarb": 4184,
      "skończy": 4185,
      "Którego": 4186,
      "własnym": 4187,
      "naszego": 4188,
      "tabaki": 4189,
      "dziewczyny": 4190,
      "Waszeci": 4191,
      "Dobrzyńskiego": 4192,
      "Francuzi": 4193,
      "Mówiąc": 4194,
      "Słońce": 4195,
      "brylan": 4196,
      "trwogi": 4197,
      "Dziew": 4198,
      "Skoro": 4199,
      "fur": 4200,
      "widok": 4201,
      "takiej": 4202,
      "Ilekroć": 4203,
      "szeroko": 4204,
      "szerokie": 4205,
      "składa": 4206,
      "Brzytwa": 4207,
      "wstydu": 4208,
      "dawnego": 4209,
      "owad": 4210,
      "uważa": 4211,
      "zginął": 4212,
      "portre": 4213,
      "wyraź": 4214,
      "bitwy": 4215,
      "starego": 4216,
      "obłok": 4217,
      "szereg": 4218,
      "szeregi": 4219,
      "Hrabią": 4220,
      "Buchma": 4221,
      "majątek": 4222,
      "strzelać": 4223,
      "Ostatni": 4224,
      "córki": 4225,
      "perły": 4226,
      "oblicze": 4227,
      "pułku": 4228,
      "późno": 4229,
      "sąsiadów": 4230,
      "drążki": 4231,
      "ogromne": 4232,
      "kogoś": 4233,
      "major": 4234,
      "Hajże": 4235,
      "okropnie": 4236,
      "jasnych": 4237,
      "trafił": 4238,
      "tabakiery": 4239,
      "Strzelcy": 4240,
      "inaczej": 4241,
      "wojennych": 4242,
      "tytuł": 4243,
      "rozpaczy": 4244,
      "zewsząd": 4245,
      "błękit": 4246,
      "drewnia": 4247,
      "francusku": 4248,
      "powszech": 4249,
      "wojewódz": 4250,
      "skłonił": 4251,
      "dziedzińcu": 4252,
      "śledztwo": 4253,
      "Będzie": 4254,
      "jmował": 4255,
      "jaszku": 4256,
      "mężczyz": 4257,
      "gałęzi": 4258,
      "zmieszany": 4259,
      "komnaty": 4260,
      "mnó": 4261,
      "ogary": 4262,
      "zdziwiony": 4263,
      "pospoli": 4264,
      "wychowanie": 4265,
      "woźny": 4266,
      "patrywał": 4267,
      "zeńku": 4268,
      "Chwyta": 4269,
      "Wiadomo": 4270,
      "plebana": 4271,
      "Skołuba": 4272,
      "przemiany": 4273,
      "Precz": 4274,
      "ożenił": 4275,
      "pośpieszał": 4276,
      "Szkoda": 4277,
      "wschodu": 4278,
      "szczególniej": 4279,
      "powietrzu": 4280,
      "tersbur": 4281,
      "obcych": 4282,
      "ludźmi": 4283,
      "!...\"": 4284,
      "?>>": 4285,
      "Cały": 4286,
      "Czło": 4287,
      "Dał": 4288,
      "Dwie": 4289,
      "Gi": 4290,
      "In": 4291,
      "Idzie": 4292,
      "Ję": 4293,
      "Kła": 4294,
      "Kar": 4295,
      "Me": 4296,
      "Musz": 4297,
      "Nu": 4298,
      "Ow": 4299,
      "Otóż": 4300,
      "Przem": 4301,
      "Stra": 4302,
      "Suwa": 4303,
      "Usta": 4304,
      "Ude": 4305,
      "Umil": 4306,
      "Uważ": 4307,
      "Ucieka": 4308,
      "Wą": 4309,
      "Wne": 4310,
      "Wre": 4311,
      "Wpada": 4312,
      "Wprawdzie": 4313,
      "Zu": 4314,
      "Znik": 4315,
      "Zwrócił": 4316,
      "Zrazu": 4317,
      "am": 4318,
      "brzy": 4319,
      "bny": 4320,
      "bały": 4321,
      "dó": 4322,
      "dry": 4323,
      "dły": 4324,
      "dała": 4325,
      "dnej": 4326,
      "dia": 4327,
      "eście": 4328,
      "fem": 4329,
      "gała": 4330,
      "gnęła": 4331,
      "idąc": 4332,
      "jnej": 4333,
      "jszej": 4334,
      "jrzała": 4335,
      "kną": 4336,
      "kłu": 4337,
      "mle": 4338,
      "mły": 4339,
      "mała": 4340,
      "mnę": 4341,
      "nty": 4342,
      "nsztu": 4343,
      "nące": 4344,
      "ora": 4345,
      "ono": 4346,
      "omy": 4347,
      "ostrze": 4348,
      "okrę": 4349,
      "osób": 4350,
      "osoby": 4351,
      "pni": 4352,
      "słe": 4353,
      "snąć": 4354,
      "schowa": 4355,
      "snęły": 4356,
      "tko": 4357,
      "tli": 4358,
      "tały": 4359,
      "tis": 4360,
      "ura": 4361,
      "uka": 4362,
      "umo": 4363,
      "ucieka": 4364,
      "wż": 4365,
      "wsa": 4366,
      "wcy": 4367,
      "wnął": 4368,
      "wniej": 4369,
      "wscy": 4370,
      "wsła": 4371,
      "wdzić": 4372,
      "wspa": 4373,
      "wchodzi": 4374,
      "zię": 4375,
      "zru": 4376,
      "zlę": 4377,
      "zgrzy": 4378,
      "zwrócił": 4379,
      "zwróci": 4380,
      "zrazu": 4381,
      "zwróco": 4382,
      "łby": 4383,
      "ńczo": 4384,
      "Świąty": 4385,
      "śnik": 4386,
      "ślub": 4387,
      "ślał": 4388,
      "źwierz": 4389,
      "żąd": 4390,
      "żące": 4391,
      "rząc": 4392,
      "szt": 4393,
      "szała": 4394,
      "cznik": 4395,
      "czha": 4396,
      "czwar": 4397,
      "chod": 4398,
      "nasi": 4399,
      "nakry": 4400,
      "naszym": 4401,
      "natch": 4402,
      "niedo": 4403,
      "niemy": 4404,
      "nieniem": 4405,
      "nieszczę": 4406,
      "niedawno": 4407,
      "niewidzia": 4408,
      "dzu": 4409,
      "ałe": 4410,
      "poto": 4411,
      "porę": 4412,
      "pozo": 4413,
      "pogar": 4414,
      "poszli": 4415,
      "pośród": 4416,
      "pomoc": 4417,
      "pojął": 4418,
      "pobiegł": 4419,
      "pociągnął": 4420,
      "porywa": 4421,
      "pomiesza": 4422,
      "porzuca": 4423,
      "pomina": 4424,
      "pozew": 4425,
      "popsu": 4426,
      "pończo": 4427,
      "rany": 4428,
      "ramię": 4429,
      "radził": 4430,
      "roko": 4431,
      "niczem": 4432,
      "koły": 4433,
      "kołem": 4434,
      "koście": 4435,
      "kogu": 4436,
      "kowski": 4437,
      "lisa": 4438,
      "win": 4439,
      "wino": 4440,
      "wicze": 4441,
      "winem": 4442,
      "widno": 4443,
      "widne": 4444,
      "witać": 4445,
      "rzeć": 4446,
      "rzeką": 4447,
      "waszej": 4448,
      "łoży": 4449,
      "łosko": 4450,
      "kare": 4451,
      "karę": 4452,
      "kawał": 4453,
      "ciszy": 4454,
      "cicha": 4455,
      "zanad": 4456,
      "zazdro": 4457,
      "zaledwie": 4458,
      "zawoła": 4459,
      "zatrzyma": 4460,
      "zatrzymał": 4461,
      "zaprasza": 4462,
      "zachodzie": 4463,
      "wieje": 4464,
      "wiedzi": 4465,
      "wieści": 4466,
      "wieczora": 4467,
      "rzyk": 4468,
      "rzyli": 4469,
      "rzynę": 4470,
      "leś": 4471,
      "lekar": 4472,
      "lecą": 4473,
      "leżą": 4474,
      "domie": 4475,
      "dołu": 4476,
      "dował": 4477,
      "dosko": 4478,
      "dodał": 4479,
      "dobywa": 4480,
      "dojeżdża": 4481,
      "wyry": 4482,
      "wypi": 4483,
      "wysła": 4484,
      "wysmu": 4485,
      "wyżej": 4486,
      "wyjść": 4487,
      "wywija": 4488,
      "wybor": 4489,
      "wytknął": 4490,
      "wydobył": 4491,
      "kij": 4492,
      "gos": 4493,
      "godził": 4494,
      "gołą": 4495,
      "miny": 4496,
      "łach": 4497,
      "łaci": 4498,
      "ławy": 4499,
      "łaja": 4500,
      "nowej": 4501,
      "nowych": 4502,
      "nogach": 4503,
      "dane": 4504,
      "tacza": 4505,
      "ówdzie": 4506,
      "lasy": 4507,
      "woń": 4508,
      "wodzi": 4509,
      "wość": 4510,
      "wodził": 4511,
      "wodę": 4512,
      "wojo": 4513,
      "parze": 4514,
      "pagó": 4515,
      "pazu": 4516,
      "pazno": 4517,
      "panowie": 4518,
      "palec": 4519,
      "ciego": 4520,
      "tysiące": 4521,
      "czyż": 4522,
      "czyno": 4523,
      "czynnie": 4524,
      "ton": 4525,
      "tony": 4526,
      "tował": 4527,
      "żek": 4528,
      "dysku": 4529,
      "kują": 4530,
      "kupie": 4531,
      "kucha": 4532,
      "kulę": 4533,
      "kurki": 4534,
      "bié": 4535,
      "bite": 4536,
      "bijąc": 4537,
      "mary": 4538,
      "mowa": 4539,
      "moda": 4540,
      "moty": 4541,
      "moich": 4542,
      "mocą": 4543,
      "stan": 4544,
      "stami": 4545,
      "stano": 4546,
      "starzał": 4547,
      "oddy": 4548,
      "odków": 4549,
      "odtąd": 4550,
      "odjazd": 4551,
      "ruje": 4552,
      "rurę": 4553,
      "rumia": 4554,
      "runku": 4555,
      "rurki": 4556,
      "ruszek": 4557,
      "jar": 4558,
      "jago": 4559,
      "miesię": 4560,
      "mieszał": 4561,
      "mierzył": 4562,
      "miesiąc": 4563,
      "przecie": 4564,
      "przecha": 4565,
      "przetar": 4566,
      "przeszko": 4567,
      "przeszka": 4568,
      "łysi": 4569,
      "cer": 4570,
      "szerzył": 4571,
      "piał": 4572,
      "czać": 4573,
      "przyby": 4574,
      "przybył": 4575,
      "przybli": 4576,
      "przychodzi": 4577,
      "przyjechał": 4578,
      "batali": 4579,
      "biec": 4580,
      "bieli": 4581,
      "biegło": 4582,
      "bierał": 4583,
      "biegła": 4584,
      "biegli": 4585,
      "bono": 4586,
      "gać": 4587,
      "gaze": 4588,
      "ganek": 4589,
      "cowi": 4590,
      "mywał": 4591,
      "żywy": 4592,
      "piera": 4593,
      "pieśni": 4594,
      "sadu": 4595,
      "samego": 4596,
      "cara": 4597,
      "szal": 4598,
      "szable": 4599,
      "chami": 4600,
      "chaty": 4601,
      "chając": 4602,
      "chowy": 4603,
      "Podo": 4604,
      "Pola": 4605,
      "Postrze": 4606,
      "Pogląda": 4607,
      "roze": 4608,
      "roztro": 4609,
      "rozsąd": 4610,
      "rozmawia": 4611,
      "niami": 4612,
      "wiatru": 4613,
      "skrę": 4614,
      "sklepie": 4615,
      "zywać": 4616,
      "gita": 4617,
      "prawia": 4618,
      "zek": 4619,
      "zechce": 4620,
      "kłą": 4621,
      "kłem": 4622,
      "skali": 4623,
      "skacze": 4624,
      "skacząc": 4625,
      "uszu": 4626,
      "Jac": 4627,
      "wąs": 4628,
      "dusza": 4629,
      "los": 4630,
      "loty": 4631,
      "prosta": 4632,
      "promień": 4633,
      "promieni": 4634,
      "Zawsze": 4635,
      "Zaczął": 4636,
      "spojrzał": 4637,
      "wzma": 4638,
      "kąt": 4639,
      "kądzieli": 4640,
      "którzy": 4641,
      "ziela": 4642,
      "syn": 4643,
      "krzykiem": 4644,
      "krzyżo": 4645,
      "cudem": 4646,
      "jesteście": 4647,
      "rzach": 4648,
      "żal": 4649,
      "żać": 4650,
      "szlachcie": 4651,
      "szlachcia": 4652,
      "Chwi": 4653,
      "grom": 4654,
      "grona": 4655,
      "grobie": 4656,
      "sług": 4657,
      "słudzy": 4658,
      "słone": 4659,
      "brodę": 4660,
      "bronią": 4661,
      "siano": 4662,
      "siadła": 4663,
      "braci": 4664,
      "brata": 4665,
      "braty": 4666,
      "bracia": 4667,
      "pei": 4668,
      "perato": 4669,
      "pukle": 4670,
      "chyba": 4671,
      "bus": 4672,
      "budowa": 4673,
      "onem": 4674,
      "onemi": 4675,
      "wielcy": 4676,
      "głą": 4677,
      "Jaki": 4678,
      "opę": 4679,
      "pierwsi": 4680,
      "stroju": 4681,
      "suknie": 4682,
      "surdu": 4683,
      "Podhaj": 4684,
      "Podczaszy": 4685,
      "ścień": 4686,
      "krokiem": 4687,
      "czom": 4688,
      "gier": 4689,
      "Wojna": 4690,
      "Widział": 4691,
      "Widzę": 4692,
      "Tadeuszowi": 4693,
      "trzeci": 4694,
      "arma": 4695,
      "Soplicę": 4696,
      "będąc": 4697,
      "nioł": 4698,
      "Którzy": 4699,
      "bezbro": 4700,
      "nur": 4701,
      "trawę": 4702,
      "równi": 4703,
      "złote": 4704,
      "Wierz": 4705,
      "Wielko": 4706,
      "dobre": 4707,
      "Odkry": 4708,
      "dzono": 4709,
      "jemu": 4710,
      "wszel": 4711,
      "świeże": 4712,
      "zdała": 4713,
      "sercem": 4714,
      "wróży": 4715,
      "inna": 4716,
      "innej": 4717,
      "innego": 4718,
      "twarzy": 4719,
      "Wal": 4720,
      "Wasz": 4721,
      "gdzieniegdzie": 4722,
      "pięć": 4723,
      "śmieli": 4724,
      "krajach": 4725,
      "zwan": 4726,
      "najwięk": 4727,
      "wiona": 4728,
      "wione": 4729,
      "wiosną": 4730,
      "wiosny": 4731,
      "ciągnęły": 4732,
      "wiąże": 4733,
      "wiązki": 4734,
      "różny": 4735,
      "zamczy": 4736,
      "władzy": 4737,
      "władza": 4738,
      "Podkomorzem": 4739,
      "Lite": 4740,
      "nicą": 4741,
      "padły": 4742,
      "padkiem": 4743,
      "barwy": 4744,
      "łen": 4745,
      "łez": 4746,
      "twoim": 4747,
      "strachu": 4748,
      "trąc": 4749,
      "trąca": 4750,
      "włosów": 4751,
      "włożył": 4752,
      "zgodzi": 4753,
      "zgodzie": 4754,
      "zdach": 4755,
      "zdania": 4756,
      "zdawało": 4757,
      "będziem": 4758,
      "będziesz": 4759,
      "małże": 4760,
      "myślą": 4761,
      "gniewem": 4762,
      "milcząc": 4763,
      "Dobrzyna": 4764,
      "trzo": 4765,
      "łączy": 4766,
      "kocham": 4767,
      "wolności": 4768,
      "kiedyś": 4769,
      "Proszę": 4770,
      "sztukę": 4771,
      "drzeć": 4772,
      "drzewo": 4773,
      "Robaku": 4774,
      "Macieja": 4775,
      "Macieju": 4776,
      "piękną": 4777,
      "zwierz": 4778,
      "oknem": 4779,
      "nięty": 4780,
      "Saga": 4781,
      "przodków": 4782,
      "Soplicom": 4783,
      "Soplicowo": 4784,
      "gałki": 4785,
      "pędza": 4786,
      "tkach": 4787,
      "zmienił": 4788,
      "czarną": 4789,
      "plan": 4790,
      "plami": 4791,
      "tłumie": 4792,
      "tłumnie": 4793,
      "stąpi": 4794,
      "stąpić": 4795,
      "dniczka": 4796,
      "Polskę": 4797,
      "skrzydło": 4798,
      "mówili": 4799,
      "biorą": 4800,
      "spadał": 4801,
      "Brat": 4802,
      "Dano": 4803,
      "chwila": 4804,
      "ramion": 4805,
      "rodzinie": 4806,
      "obadwa": 4807,
      "młodzieniec": 4808,
      "Rzecz": 4809,
      "blask": 4810,
      "ojciec": 4811,
      "zrobiła": 4812,
      "zrobiłem": 4813,
      "postawy": 4814,
      "pełne": 4815,
      "klam": 4816,
      "zwałem": 4817,
      "domowi": 4818,
      "mniejsza": 4819,
      "zostanie": 4820,
      "chłopcy": 4821,
      "środkiem": 4822,
      "śledzi": 4823,
      "wrogów": 4824,
      "Biegą": 4825,
      "walce": 4826,
      "człowieka": 4827,
      "starym": 4828,
      "ptastwo": 4829,
      "ptastwem": 4830,
      "nieboszczy": 4831,
      "nieboszczyk": 4832,
      "piach": 4833,
      "piasku": 4834,
      "grzyb": 4835,
      "żału": 4836,
      "szczwacze": 4837,
      "strumień": 4838,
      "widzisz": 4839,
      "karabin": 4840,
      "pamiętam": 4841,
      "knieje": 4842,
      "padłszy": 4843,
      "Rzekłbyś": 4844,
      "Słysząc": 4845,
      "Trzeci": 4846,
      "gruby": 4847,
      "uciekać": 4848,
      "bronić": 4849,
      "wiązany": 4850,
      "świadki": 4851,
      "gwiazdy": 4852,
      "świé": 4853,
      "zachę": 4854,
      "zachód": 4855,
      "dostać": 4856,
      "dostatek": 4857,
      "Krzyknął": 4858,
      "Obró": 4859,
      "brzegów": 4860,
      "zbrojny": 4861,
      "chmur": 4862,
      "podobna": 4863,
      "jakiej": 4864,
      "skargi": 4865,
      "szlachecki": 4866,
      "Siedzi": 4867,
      "kwiatów": 4868,
      "zwija": 4869,
      "dziewczyna": 4870,
      "piął": 4871,
      "Ojczyźnie": 4872,
      "Francuz": 4873,
      "Francuza": 4874,
      "Francuzów": 4875,
      "Mówiłem": 4876,
      "grzech": 4877,
      "grzechy": 4878,
      "głym": 4879,
      "wspomina": 4880,
      "śniada": 4881,
      "szkodzi": 4882,
      "bywate": 4883,
      "prowadził": 4884,
      "prowadza": 4885,
      "prowadzić": 4886,
      "uderzy": 4887,
      "ślad": 4888,
      "zabawy": 4889,
      "wzięła": 4890,
      "karczmie": 4891,
      "karczmy": 4892,
      "tknąwszy": 4893,
      "narodo": 4894,
      "takiego": 4895,
      "procesu": 4896,
      "śmierć": 4897,
      "wstrzymu": 4898,
      "ostatnich": 4899,
      "Bardzo": 4900,
      "Stryja": 4901,
      "Stryju": 4902,
      "Stryjaszku": 4903,
      "trąby": 4904,
      "wieczerzę": 4905,
      "białych": 4906,
      "szukano": 4907,
      "wódkę": 4908,
      "błogosła": 4909,
      "osoba": 4910,
      "smyk": 4911,
      "wyrabia": 4912,
      "machnął": 4913,
      "obrony": 4914,
      "bogata": 4915,
      "rzuciła": 4916,
      "rzuciwszy": 4917,
      "puszczyk": 4918,
      "ogony": 4919,
      "kuchci": 4920,
      "skóry": 4921,
      "Moskwa": 4922,
      "Drugą": 4923,
      "okulary": 4924,
      "otwarcie": 4925,
      "strzałem": 4926,
      "pomnia": 4927,
      "obliczem": 4928,
      "Pamięta": 4929,
      "spokojnie": 4930,
      "grzmi": 4931,
      "źwierza": 4932,
      "godziny": 4933,
      "Dowejko": 4934,
      "błyszcząca": 4935,
      "błyszczący": 4936,
      "cierpli": 4937,
      "jarzyny": 4938,
      "biesiady": 4939,
      "biesiadę": 4940,
      "stodoły": 4941,
      "Chyba": 4942,
      "Wilna": 4943,
      "Wilbi": 4944,
      "sąsiedzie": 4945,
      "Lachy": 4946,
      "Rzuca": 4947,
      "hałasu": 4948,
      "pojedynek": 4949,
      "gośćmi": 4950,
      "mazurka": 4951,
      "weźmie": 4952,
      "Zofijo": 4953,
      "parkan": 4954,
      "marszałek": 4955,
      "przyjacielu": 4956,
      "stępuje": 4957,
      "srebrzy": 4958,
      "kaptur": 4959,
      "okien": 4960,
      "zjawił": 4961,
      "wieczor": 4962,
      "łacno": 4963,
      "łacniej": 4964,
      "pamiątkę": 4965,
      "czapkę": 4966,
      "gwałtem": 4967,
      "układy": 4968,
      "posępny": 4969,
      "zamiast": 4970,
      "szybko": 4971,
      "brzucha": 4972,
      "uważał": 4973,
      "znikła": 4974,
      "źrenice": 4975,
      "nadziei": 4976,
      "dziesięciu": 4977,
      "kieszeni": 4978,
      "odmienił": 4979,
      "czeladź": 4980,
      "klasztor": 4981,
      "gospodarza": 4982,
      "Litwini": 4983,
      "Czuł": 4984,
      "Ogrodniczka": 4985,
      "grozi": 4986,
      "ukłonem": 4987,
      "złego": 4988,
      "naczynie": 4989,
      "ponury": 4990,
      "kapitan": 4991,
      "jeździł": 4992,
      "Powiedz": 4993,
      "spotkać": 4994,
      "spoziera": 4995,
      "wzruszony": 4996,
      "publico": 4997,
      "języku": 4998,
      "Mężczyźni": 4999,
      "niespodzianie": 5000,
      "Skąd": 5001,
      "angiel": 5002,
      "powodu": 5003,
      "kaszkie": 5004,
      "obec": 5005,
      "szablę": 5006,
      "wstrząsa": 5007,
      "powtórzył": 5008,
      "ogórki": 5009,
      "żwawo": 5010,
      "szlocha": 5011,
      "niezmiernie": 5012,
      "pozwala": 5013,
      "wiódł": 5014,
      "najwyższe": 5015,
      "drzwiami": 5016,
      "Ostatniego": 5017,
      "Odezwał": 5018,
      "Równie": 5019,
      "wnuki": 5020,
      "porządek": 5021,
      "Targowi": 5022,
      "chustką": 5023,
      "Słyszałem": 5024,
      "Dziewczyna": 5025,
      "Gif": 5026,
      "Wąsa": 5027,
      "Wnet": 5028,
      "wżdy": 5029,
      "paznok": 5030,
      "miesiąca": 5031,
      "batalijon": 5032,
      "Podkomorzemu": 5033,
      "Bli": 5034,
      "Brze": 5035,
      "Cała": 5036,
      "Czego": 5037,
      "Czer": 5038,
      "Du": 5039,
      "Dzwo": 5040,
      "Fi": 5041,
      "Ge": 5042,
      "Gó": 5043,
      "Gnie": 5044,
      "Gła": 5045,
      "God": 5046,
      "Grzecz": 5047,
      "IE": 5048,
      "Inni": 5049,
      "Kra": 5050,
      "Krą": 5051,
      "Mów": 5052,
      "Or": 5053,
      "One": 5054,
      "Ogi": 5055,
      "Okręcił": 5056,
      "Pła": 5057,
      "Si": 5058,
      "Spie": 5059,
      "Stu": 5060,
      "Stą": 5061,
      "Skar": 5062,
      "Stała": 5063,
      "Tra": 5064,
      "Twa": 5065,
      "Try": 5066,
      "Tru": 5067,
      "Trza": 5068,
      "Uwa": 5069,
      "Ubra": 5070,
      "Ukła": 5071,
      "Wró": 5072,
      "Wska": 5073,
      "Wsty": 5074,
      "Wstrzy": 5075,
      "ZA": 5076,
      "Zdzi": 5077,
      "Zda": 5078,
      "Zbro": 5079,
      "Zdro": 5080,
      "Zmieni": 5081,
      "Zresztą": 5082,
      "are": 5083,
      "atak": 5084,
      "akor": 5085,
      "bna": 5086,
      "bną": 5087,
      "bod": 5088,
      "blo": 5089,
      "brzą": 5090,
      "brzemie": 5091,
      "cko": 5092,
      "cwał": 5093,
      "cką": 5094,
      "ctwa": 5095,
      "cji": 5096,
      "cnoty": 5097,
      "drę": 5098,
      "dały": 5099,
      "dało": 5100,
      "dniej": 5101,
      "dwu": 5102,
      "dniem": 5103,
      "eje": 5104,
      "echo": 5105,
      "gwa": 5106,
      "grał": 5107,
      "ist": 5108,
      "iskie": 5109,
      "jmu": 5110,
      "jały": 5111,
      "kna": 5112,
      "klu": 5113,
      "któw": 5114,
      "kół": 5115,
      "lna": 5116,
      "lba": 5117,
      "lała": 5118,
      "lstwo": 5119,
      "mna": 5120,
      "mszy": 5121,
      "mnym": 5122,
      "maki": 5123,
      "nd": 5124,
      "nną": 5125,
      "ntu": 5126,
      "nnego": 5127,
      "oło": 5128,
      "osi": 5129,
      "osa": 5130,
      "osza": 5131,
      "opar": 5132,
      "odar": 5133,
      "ostry": 5134,
      "ośle": 5135,
      "oczki": 5136,
      "opowiem": 5137,
      "owiec": 5138,
      "ozdoby": 5139,
      "oczęta": 5140,
      "obywate": 5141,
      "pów": 5142,
      "płu": 5143,
      "plem": 5144,
      "rała": 5145,
      "rdza": 5146,
      "sprze": 5147,
      "snych": 5148,
      "snu": 5149,
      "spół": 5150,
      "spło": 5151,
      "spadła": 5152,
      "smak": 5153,
      "schował": 5154,
      "tkie": 5155,
      "twej": 5156,
      "twem": 5157,
      "ul": 5158,
      "uz": 5159,
      "uni": 5160,
      "uda": 5161,
      "uga": 5162,
      "udob": 5163,
      "umil": 5164,
      "urazy": 5165,
      "uzbro": 5166,
      "usiadł": 5167,
      "ujrzy": 5168,
      "wsk": 5169,
      "wstał": 5170,
      "wzywa": 5171,
      "wpadli": 5172,
      "zmu": 5173,
      "zży": 5174,
      "zała": 5175,
      "zgło": 5176,
      "zdę": 5177,
      "zwać": 5178,
      "zwro": 5179,
      "zrywa": 5180,
      "zbladnął": 5181,
      "łak": 5182,
      "ńców": 5183,
      "ńcem": 5184,
      "śń": 5185,
      "ślu": 5186,
      "świąty": 5187,
      "źbie": 5188,
      "żnie": 5189,
      "żów": 5190,
      "żną": 5191,
      "żała": 5192,
      "żkę": 5193,
      "żkami": 5194,
      "rzona": 5195,
      "szwa": 5196,
      "szpi": 5197,
      "szczem": 5198,
      "szkole": 5199,
      "szczął": 5200,
      "człe": 5201,
      "czter": 5202,
      "chra": 5203,
      "chrzą": 5204,
      "chwali": 5205,
      "naza": 5206,
      "nawie": 5207,
      "naje": 5208,
      "nada": 5209,
      "nato": 5210,
      "napi": 5211,
      "nagro": 5212,
      "naśla": 5213,
      "nagłym": 5214,
      "nienia": 5215,
      "niebu": 5216,
      "ałą": 5217,
      "pot": 5218,
      "poś": 5219,
      "pomi": 5220,
      "poma": 5221,
      "połu": 5222,
      "popi": 5223,
      "ponad": 5224,
      "porzu": 5225,
      "poran": 5226,
      "poszedł": 5227,
      "pobla": 5228,
      "pochodził": 5229,
      "pożar": 5230,
      "postrzega": 5231,
      "pomimo": 5232,
      "pomocy": 5233,
      "pochwał": 5234,
      "rak": 5235,
      "rap": 5236,
      "raje": 5237,
      "radzić": 5238,
      "radość": 5239,
      "ramieniu": 5240,
      "raźli": 5241,
      "rota": 5242,
      "robie": 5243,
      "roga": 5244,
      "rotę": 5245,
      "rodził": 5246,
      "rować": 5247,
      "rogu": 5248,
      "rogów": 5249,
      "rosną": 5250,
      "rodak": 5251,
      "nili": 5252,
      "niki": 5253,
      "niji": 5254,
      "nikomu": 5255,
      "niźli": 5256,
      "kop": 5257,
      "kona": 5258,
      "kowy": 5259,
      "kokie": 5260,
      "kolu": 5261,
      "kolor": 5262,
      "kobié": 5263,
      "lik": 5264,
      "list": 5265,
      "liła": 5266,
      "liża": 5267,
      "licę": 5268,
      "liji": 5269,
      "liczne": 5270,
      "liściem": 5271,
      "wina": 5272,
      "wiwszy": 5273,
      "wizy": 5274,
      "wisko": 5275,
      "widzą": 5276,
      "wignął": 5277,
      "rzej": 5278,
      "rzeń": 5279,
      "rzeczach": 5280,
      "waw": 5281,
      "łok": 5282,
      "łopu": 5283,
      "łowił": 5284,
      "łowić": 5285,
      "łowów": 5286,
      "kanie": 5287,
      "kawy": 5288,
      "katy": 5289,
      "kamieni": 5290,
      "kamienie": 5291,
      "siędzie": 5292,
      "sięcy": 5293,
      "ciw": 5294,
      "zawa": 5295,
      "zaka": 5296,
      "zacie": 5297,
      "zary": 5298,
      "zasa": 5299,
      "zatem": 5300,
      "zasia": 5301,
      "zaczą": 5302,
      "zażył": 5303,
      "zarazem": 5304,
      "zabły": 5305,
      "zatar": 5306,
      "zamiesz": 5307,
      "zachowa": 5308,
      "zawzię": 5309,
      "zamiesza": 5310,
      "zamyka": 5311,
      "zapytał": 5312,
      "zawżdy": 5313,
      "aku": 5314,
      "wieki": 5315,
      "wiemy": 5316,
      "wieków": 5317,
      "wiedziała": 5318,
      "lew": 5319,
      "leje": 5320,
      "lewego": 5321,
      "leźć": 5322,
      "doń": 5323,
      "dowi": 5324,
      "dości": 5325,
      "dować": 5326,
      "dotych": 5327,
      "dojrzał": 5328,
      "domek": 5329,
      "dokładnie": 5330,
      "wygo": 5331,
      "wybi": 5332,
      "wycią": 5333,
      "wyrzu": 5334,
      "wyzwa": 5335,
      "wytry": 5336,
      "wyszła": 5337,
      "wygląda": 5338,
      "wyskoczył": 5339,
      "wyciągnął": 5340,
      "wyjdź": 5341,
      "kiwając": 5342,
      "jezi": 5343,
      "jekt": 5344,
      "jelenie": 5345,
      "jechali": 5346,
      "gom": 5347,
      "godzić": 5348,
      "mija": 5349,
      "miga": 5350,
      "miłą": 5351,
      "miód": 5352,
      "mistrza": 5353,
      "dziwna": 5354,
      "łań": 5355,
      "ławą": 5356,
      "nową": 5357,
      "nodze": 5358,
      "bystry": 5359,
      "darów": 5360,
      "tarzał": 5361,
      "taniec": 5362,
      "lamu": 5363,
      "laski": 5364,
      "lask": 5365,
      "laską": 5366,
      "laskę": 5367,
      "wola": 5368,
      "wory": 5369,
      "wołu": 5370,
      "wozy": 5371,
      "wozie": 5372,
      "wodza": 5373,
      "wodzić": 5374,
      "wodze": 5375,
      "wodzą": 5376,
      "wodą": 5377,
      "woźnie": 5378,
      "wodzów": 5379,
      "pań": 5380,
      "pawie": 5381,
      "pale": 5382,
      "pane": 5383,
      "paść": 5384,
      "patro": 5385,
      "pasem": 5386,
      "parami": 5387,
      "paster": 5388,
      "ciej": 5389,
      "cień": 5390,
      "cienie": 5391,
      "ciele": 5392,
      "tyki": 5393,
      "tysięcy": 5394,
      "dziera": 5395,
      "dzieja": 5396,
      "dziestu": 5397,
      "czyni": 5398,
      "ryk": 5399,
      "ryją": 5400,
      "towy": 5401,
      "toczy": 5402,
      "tość": 5403,
      "tować": 5404,
      "szyi": 5405,
      "szyszak": 5406,
      "żera": 5407,
      "dywał": 5408,
      "kup": 5409,
      "kuje": 5410,
      "kuru": 5411,
      "kupy": 5412,
      "bij": 5413,
      "bir": 5414,
      "biu": 5415,
      "bią": 5416,
      "biny": 5417,
      "bity": 5418,
      "biją": 5419,
      "tera": 5420,
      "tedy": 5421,
      "mai": 5422,
      "manie": 5423,
      "mami": 5424,
      "mając": 5425,
      "machu": 5426,
      "magna": 5427,
      "malarz": 5428,
      "morze": 5429,
      "mowie": 5430,
      "mogąc": 5431,
      "silne": 5432,
      "staw": 5433,
      "stara": 5434,
      "stawał": 5435,
      "stawu": 5436,
      "staremu": 5437,
      "stajni": 5438,
      "staruszek": 5439,
      "objąwszy": 5440,
      "oddać": 5441,
      "odgłos": 5442,
      "odbijał": 5443,
      "rur": 5444,
      "ruchu": 5445,
      "ruchem": 5446,
      "rumieni": 5447,
      "jami": 5448,
      "jadę": 5449,
      "mieczem": 5450,
      "jakże": 5451,
      "ług": 5452,
      "przeze": 5453,
      "przebra": 5454,
      "przechodził": 5455,
      "przeszło": 5456,
      "przeraźli": 5457,
      "reli": 5458,
      "reku": 5459,
      "refek": 5460,
      "mucha": 5461,
      "wek": 5462,
      "cel": 5463,
      "ceni": 5464,
      "cesarz": 5465,
      "szenie": 5466,
      "szeni": 5467,
      "szele": 5468,
      "szego": 5469,
      "piąc": 5470,
      "piór": 5471,
      "róży": 5472,
      "przysię": 5473,
      "przyda": 5474,
      "przyjem": 5475,
      "przyszli": 5476,
      "przyzwo": 5477,
      "przyjął": 5478,
      "przyjdzie": 5479,
      "przyjąć": 5480,
      "przyłożył": 5481,
      "dekre": 5482,
      "deszcz": 5483,
      "deszczu": 5484,
      "dectwo": 5485,
      "bieg": 5486,
      "bieda": 5487,
      "biegłem": 5488,
      "jąłem": 5489,
      "bom": 5490,
      "boki": 5491,
      "ściu": 5492,
      "ściskał": 5493,
      "gany": 5494,
      "gajów": 5495,
      "żyli": 5496,
      "żyta": 5497,
      "żyły": 5498,
      "żyję": 5499,
      "piej": 5500,
      "piero": 5501,
      "pienia": 5502,
      "pienią": 5503,
      "pieśń": 5504,
      "sać": 5505,
      "cyi": 5506,
      "ludu": 5507,
      "ludem": 5508,
      "ludzio": 5509,
      "skinieniem": 5510,
      "szar": 5511,
      "szać": 5512,
      "szarzał": 5513,
      "szatan": 5514,
      "chory": 5515,
      "choru": 5516,
      "chorą": 5517,
      "Pono": 5518,
      "Poły": 5519,
      "Pozna": 5520,
      "Polone": 5521,
      "Poznał": 5522,
      "tuła": 5523,
      "tuma": 5524,
      "ture": 5525,
      "tują": 5526,
      "rozy": 5527,
      "rozsta": 5528,
      "rozsze": 5529,
      "rozciąg": 5530,
      "rozkazał": 5531,
      "rozumiał": 5532,
      "rozkosz": 5533,
      "rozmawiał": 5534,
      "rozkazu": 5535,
      "Pal": 5536,
      "Patrzą": 5537,
      "wiara": 5538,
      "wiary": 5539,
      "skół": 5540,
      "skłó": 5541,
      "Niemie": 5542,
      "Nieszczę": 5543,
      "Niemen": 5544,
      "Nieprawda": 5545,
      "erwał": 5546,
      "Nagle": 5547,
      "Nadaremnie": 5548,
      "meta": 5549,
      "prawy": 5550,
      "pracu": 5551,
      "praszał": 5552,
      "prawiać": 5553,
      "sień": 5554,
      "sieka": 5555,
      "głosów": 5556,
      "podło": 5557,
      "stojący": 5558,
      "zega": 5559,
      "zechcesz": 5560,
      "skać": 5561,
      "znany": 5562,
      "znaki": 5563,
      "znając": 5564,
      "Jam": 5565,
      "Jana": 5566,
      "dumny": 5567,
      "Jezu": 5568,
      "Jegry": 5569,
      "Jedne": 5570,
      "lom": 5571,
      "lona": 5572,
      "losie": 5573,
      "probo": 5574,
      "projekt": 5575,
      "Zaga": 5576,
      "Zatem": 5577,
      "Zaledwie": 5578,
      "Zamek": 5579,
      "Zapewne": 5580,
      "spodzie": 5581,
      "spory": 5582,
      "wzniesi": 5583,
      "Sędzię": 5584,
      "Sędzią": 5585,
      "któż": 5586,
      "syła": 5587,
      "beł": 5588,
      "mięk": 5589,
      "dziać": 5590,
      "dziach": 5591,
      "dziadów": 5592,
      "krzycze": 5593,
      "krzyczą": 5594,
      "krzyczał": 5595,
      "cudów": 5596,
      "żają": 5597,
      "rączkę": 5598,
      "Mają": 5599,
      "węze": 5600,
      "węgrzy": 5601,
      "Chcąc": 5602,
      "Chciała": 5603,
      "grożąc": 5604,
      "służyć": 5605,
      "sek": 5606,
      "słowach": 5607,
      "siach": 5608,
      "skowy": 5609,
      "skoczyć": 5610,
      "braku": 5611,
      "brawszy": 5612,
      "bramą": 5613,
      "pel": 5614,
      "pelu": 5615,
      "pusta": 5616,
      "pusto": 5617,
      "chyla": 5618,
      "chybia": 5619,
      "burzy": 5620,
      "budo": 5621,
      "buja": 5622,
      "burzę": 5623,
      "butel": 5624,
      "strzele": 5625,
      "niejszych": 5626,
      "Moja": 5627,
      "jęk": 5628,
      "jęta": 5629,
      "Jakie": 5630,
      "Jakże": 5631,
      "dłszy": 5632,
      "rzekłem": 5633,
      "piersią": 5634,
      "piersiach": 5635,
      "czuć": 5636,
      "czuba": 5637,
      "strona": 5638,
      "strojem": 5639,
      "stronni": 5640,
      "ziar": 5641,
      "zimę": 5642,
      "suwa": 5643,
      "ciąć": 5644,
      "Podróżny": 5645,
      "Panna": 5646,
      "zoczył": 5647,
      "została": 5648,
      "zostały": 5649,
      "krok": 5650,
      "Wyso": 5651,
      "Wyczha": 5652,
      "czowi": 5653,
      "czołem": 5654,
      "czonych": 5655,
      "czonej": 5656,
      "Wojszcza": 5657,
      "trzewi": 5658,
      "trzecią": 5659,
      "powietrze": 5660,
      "ciach": 5661,
      "archi": 5662,
      "Soplicą": 5663,
      "długa": 5664,
      "długą": 5665,
      "kłam": 5666,
      "żonę": 5667,
      "niosą": 5668,
      "bezła": 5669,
      "nudzi": 5670,
      "jakoby": 5671,
      "Toć": 5672,
      "dlaczego": 5673,
      "reszt": 5674,
      "kończąc": 5675,
      "kończyć": 5676,
      "jowi": 5677,
      "jowa": 5678,
      "jony": 5679,
      "równość": 5680,
      "złoto": 5681,
      "złotą": 5682,
      "złożone": 5683,
      "Tyś": 5684,
      "Wiele": 5685,
      "gęste": 5686,
      "dobrzy": 5687,
      "dobrego": 5688,
      "Kot": 5689,
      "Koń": 5690,
      "Koło": 5691,
      "pył": 5692,
      "pytała": 5693,
      "słyszę": 5694,
      "przedmio": 5695,
      "Przeprasza": 5696,
      "Przeciw": 5697,
      "jemy": 5698,
      "świeżo": 5699,
      "świecą": 5700,
      "świecąc": 5701,
      "zdrów": 5702,
      "dzaju": 5703,
      "wnego": 5704,
      "inni": 5705,
      "inne": 5706,
      "indy": 5707,
      "innym": 5708,
      "twarzą": 5709,
      "przezro": 5710,
      "pięta": 5711,
      "śmiech": 5712,
      "świadectwo": 5713,
      "dworach": 5714,
      "granie": 5715,
      "zwane": 5716,
      "zwady": 5717,
      "ścianie": 5718,
      "Coś": 5719,
      "figu": 5720,
      "filiża": 5721,
      "wemu": 5722,
      "najlep": 5723,
      "wiosno": 5724,
      "Przyja": 5725,
      "Przypomina": 5726,
      "znom": 5727,
      "Podkomorza": 5728,
      "stego": 5729,
      "kichnął": 5730,
      "Gerwazeńku": 5731,
      "rannych": 5732,
      "dzące": 5733,
      "robią": 5734,
      "twojej": 5735,
      "twojego": 5736,
      "rzemię": 5737,
      "strażą": 5738,
      "Rodzi": 5739,
      "Roman": 5740,
      "włości": 5741,
      "włoskiej": 5742,
      "włożywszy": 5743,
      "zdarzy": 5744,
      "dawna": 5745,
      "dawną": 5746,
      "dawnej": 5747,
      "ktoś": 5748,
      "Kluczniku": 5749,
      "Klucznikiem": 5750,
      "Rymsza": 5751,
      "męża": 5752,
      "tychmiast": 5753,
      "wstała": 5754,
      "wojnie": 5755,
      "wojsk": 5756,
      "wojska": 5757,
      "Więcej": 5758,
      "puszczę": 5759,
      "Moskalem": 5760,
      "kochana": 5761,
      "kochany": 5762,
      "wolność": 5763,
      "Propor": 5764,
      "Podkomorzym": 5765,
      "orły": 5766,
      "darmo": 5767,
      "marszu": 5768,
      "kreskę": 5769,
      "piękna": 5770,
      "pięknie": 5771,
      "piękność": 5772,
      "Hono": 5773,
      "wnikiem": 5774,
      "kłody": 5775,
      "kłonił": 5776,
      "lubię": 5777,
      "powrozy": 5778,
      "strzelbą": 5779,
      "strzelcom": 5780,
      "Dzia": 5781,
      "Dziwne": 5782,
      "nięte": 5783,
      "ustaw": 5784,
      "Saka": 5785,
      "pęk": 5786,
      "pędził": 5787,
      "księcia": 5788,
      "zmieszał": 5789,
      "daleki": 5790,
      "przyjaź": 5791,
      "przyjaźni": 5792,
      "błyszcz": 5793,
      "plany": 5794,
      "plane": 5795,
      "ciemnej": 5796,
      "dniał": 5797,
      "dnika": 5798,
      "książki": 5799,
      "zdrowa": 5800,
      "zdrowia": 5801,
      "możem": 5802,
      "Polska": 5803,
      "skrzypi": 5804,
      "skrzydłem": 5805,
      "powiatu": 5806,
      "biorę": 5807,
      "Jakoż": 5808,
      "Horeszki": 5809,
      "Brawo": 5810,
      "Daj": 5811,
      "Dawno": 5812,
      "Dawniej": 5813,
      "spójrze": 5814,
      "spójrzawszy": 5815,
      "spójrzeć": 5816,
      "rodzina": 5817,
      "rodzinę": 5818,
      "puściwszy": 5819,
      "blady": 5820,
      "postawą": 5821,
      "kształty": 5822,
      "wracało": 5823,
      "wzrokiem": 5824,
      "wzrostem": 5825,
      "pełni": 5826,
      "pełno": 5827,
      "głuszył": 5828,
      "polska": 5829,
      "polskich": 5830,
      "nowiny": 5831,
      "mieszcza": 5832,
      "rozmowa": 5833,
      "szlachciców": 5834,
      "zostawił": 5835,
      "chłopów": 5836,
      "płocie": 5837,
      "płotów": 5838,
      "ciekawie": 5839,
      "Wszystkich": 5840,
      "Cio": 5841,
      "wroga": 5842,
      "śpieszył": 5843,
      "Biedna": 5844,
      "Lubił": 5845,
      "zemsty": 5846,
      "niedźwiedzie": 5847,
      "niedźwiedzią": 5848,
      "Gospo": 5849,
      "starce": 5850,
      "starcom": 5851,
      "starych": 5852,
      "ptastwa": 5853,
      "zbierał": 5854,
      "Tamten": 5855,
      "słuchali": 5856,
      "słuchacze": 5857,
      "Księstwie": 5858,
      "Księdzu": 5859,
      "poznano": 5860,
      "czynach": 5861,
      "słońcu": 5862,
      "pytaj": 5863,
      "pręgi": 5864,
      "Żydzi": 5865,
      "wachlarz": 5866,
      "Scyzoryka": 5867,
      "Bernardynie": 5868,
      "Woźnego": 5869,
      "Kiedym": 5870,
      "klęka": 5871,
      "mąż": 5872,
      "splą": 5873,
      "wskiem": 5874,
      "wspar": 5875,
      "lekko": 5876,
      "gospody": 5877,
      "czekaj": 5878,
      "drży": 5879,
      "srebra": 5880,
      "cioł": 5881,
      "ciotka": 5882,
      "patrzyć": 5883,
      "obozie": 5884,
      "Protazego": 5885,
      "kwitnie": 5886,
      "krwawą": 5887,
      "krwawych": 5888,
      "uciekł": 5889,
      "konopiach": 5890,
      "kobiet": 5891,
      "wiązać": 5892,
      "wracając": 5893,
      "skronie": 5894,
      "świadkiem": 5895,
      "świsnął": 5896,
      "dostanie": 5897,
      "krótkie": 5898,
      "Krzycząc": 5899,
      "brzegi": 5900,
      "brzegu": 5901,
      "chmura": 5902,
      "szlacheckie": 5903,
      "Soplicami": 5904,
      "własnych": 5905,
      "własnej": 5906,
      "umiera": 5907,
      "miony": 5908,
      "miota": 5909,
      "mione": 5910,
      "panicze": 5911,
      "sejm": 5912,
      "słyszałem": 5913,
      "milczeć": 5914,
      "milczenia": 5915,
      "Ojczyzna": 5916,
      "Dąbrowskiego": 5917,
      "Słowo": 5918,
      "wdzięki": 5919,
      "śniadanie": 5920,
      "podarunku": 5921,
      "obraca": 5922,
      "Rózga": 5923,
      "bryki": 5924,
      "uderza": 5925,
      "zgad": 5926,
      "zgadza": 5927,
      "szczupak": 5928,
      "litewskim": 5929,
      "zabawki": 5930,
      "tajemni": 5931,
      "tajemne": 5932,
      "patrzcie": 5933,
      "wzięli": 5934,
      "Maćku": 5935,
      "trwogą": 5936,
      "karczmę": 5937,
      "Cesa": 5938,
      "Dziedzi": 5939,
      "Prus": 5940,
      "przemo": 5941,
      "schyliwszy": 5942,
      "widokiem": 5943,
      "dzieciństwa": 5944,
      "wesoł": 5945,
      "wesoły": 5946,
      "główki": 5947,
      "śmiertel": 5948,
      "strasznie": 5949,
      "wstrzyma": 5950,
      "wstrzymał": 5951,
      "Bartek": 5952,
      "Bartło": 5953,
      "Stryj": 5954,
      "grzeczności": 5955,
      "trąb": 5956,
      "ubranie": 5957,
      "ubrany": 5958,
      "ubrane": 5959,
      "białym": 5960,
      "obrazku": 5961,
      "odpowiedział": 5962,
      "jeżdżać": 5963,
      "wstyd": 5964,
      "łódź": 5965,
      "śmiały": 5966,
      "Chciałem": 5967,
      "świeciły": 5968,
      "wróciła": 5969,
      "wróciwszy": 5970,
      "owadów": 5971,
      "osobli": 5972,
      "smycze": 5973,
      "potraw": 5974,
      "wierci": 5975,
      "obłoki": 5976,
      "muzyce": 5977,
      "bogaty": 5978,
      "większa": 5979,
      "dobrych": 5980,
      "Długi": 5981,
      "Miejs": 5982,
      "Pio": 5983,
      "krąg": 5984,
      "krągłe": 5985,
      "ogon": 5986,
      "pałacu": 5987,
      "zerwał": 5988,
      "nauki": 5989,
      "zabija": 5990,
      "tysiącem": 5991,
      "mawiając": 5992,
      "weseli": 5993,
      "wesele": 5994,
      "bante": 5995,
      "Patrząc": 5996,
      "Moskwę": 5997,
      "Drugie": 5998,
      "Muzy": 5999,
      "cóś": 6000,
      "oblicza": 6001,
      "spokojny": 6002,
      "sąsiadki": 6003,
      "zwycięstwa": 6004,
      "gospodarstwa": 6005,
      "przeciwnej": 6006,
      "sejmików": 6007,
      "fortu": 6008,
      "grzbie": 6009,
      "opieki": 6010,
      "źwierzyny": 6011,
      "żelaz": 6012,
      "żelaza": 6013,
      "Dowejki": 6014,
      "głębokiem": 6015,
      "ileż": 6016,
      "ilekroć": 6017,
      "wówczas": 6018,
      "pochyliwszy": 6019,
      "talerz": 6020,
      "kielich": 6021,
      "ściom": 6022,
      "ludzkie": 6023,
      "lubisz": 6024,
      "kędyś": 6025,
      "karabele": 6026,
      "wnątrz": 6027,
      "sztab": 6028,
      "radością": 6029,
      "szarak": 6030,
      "burszty": 6031,
      "Domejko": 6032,
      "Zofija": 6033,
      "parkanie": 6034,
      "Szczęśli": 6035,
      "wstąpił": 6036,
      "tabakierę": 6037,
      "dbam": 6038,
      "herbo": 6039,
      "oficer": 6040,
      "oficerów": 6041,
      "złaca": 6042,
      "Łowczy": 6043,
      "chwalił": 6044,
      "robota": 6045,
      "wieczorem": 6046,
      "pacierze": 6047,
      "murawą": 6048,
      "czapki": 6049,
      "drobne": 6050,
      "sukienka": 6051,
      "sukienkę": 6052,
      "sukience": 6053,
      "księżyc": 6054,
      "czerwone": 6055,
      "folwark": 6056,
      "Szeroko": 6057,
      "stróny": 6058,
      "poranek": 6059,
      "powszechnie": 6060,
      "poczciwy": 6061,
      "kołpak": 6062,
      "komenda": 6063,
      "dziewica": 6064,
      "rękoma": 6065,
      "różowe": 6066,
      "sukni": 6067,
      "zamknąć": 6068,
      "dziedzińca": 6069,
      "kapelusz": 6070,
      "Pięknie": 6071,
      "grzędach": 6072,
      "kruż": 6073,
      "mądry": 6074,
      "ndarz": 6075,
      "wlekać": 6076,
      "dziesięć": 6077,
      "stanowisko": 6078,
      "wzdycha": 6079,
      "gałęzie": 6080,
      "przyjacielem": 6081,
      "dziedzictwie": 6082,
      "młodzieńca": 6083,
      "klasztoru": 6084,
      "srebrne": 6085,
      "tryumfal": 6086,
      "Hreczecha": 6087,
      "Zgoda": 6088,
      "brzęczą": 6089,
      "bernardyn": 6090,
      "otwierał": 6091,
      "uczynek": 6092,
      "ubogą": 6093,
      "ukryty": 6094,
      "szpiegi": 6095,
      "naczynia": 6096,
      "zalety": 6097,
      "zaszczyt": 6098,
      "legijon": 6099,
      "jeździe": 6100,
      "dzisiejszej": 6101,
      "ruchawy": 6102,
      "spotkał": 6103,
      "spozierał": 6104,
      "całując": 6105,
      "Kapita": 6106,
      "Kapitan": 6107,
      "Ciągnie": 6108,
      "pamiętacie": 6109,
      "historyje": 6110,
      "Mężczyznom": 6111,
      "nadzwyczaj": 6112,
      "Młodzież": 6113,
      "błaga": 6114,
      "córkę": 6115,
      "ochoty": 6116,
      "spuściła": 6117,
      "kolwiek": 6118,
      "dziesiąt": 6119,
      "mundur": 6120,
      "westchnie": 6121,
      "rozprawiał": 6122,
      "względów": 6123,
      "Chcecie": 6124,
      "Kościuszko": 6125,
      "instrumen": 6126,
      "głupstwa": 6127,
      "dziewczyną": 6128,
      "honoru": 6129,
      "Rejtanowi": 6130,
      "Jegomości": 6131,
      "Wziął": 6132,
      "izbę": 6133,
      "imiona": 6134,
      "krzaki": 6135,
      "usłysze": 6136,
      "szpadą": 6137,
      "nienacka": 6138,
      "poseł": 6139,
      "zadartą": 6140,
      "milijon": 6141,
      "tarata": 6142,
      "paszczęki": 6143,
      "przeczucie": 6144,
      "Zaczęli": 6145,
      "spoczynku": 6146,
      "Wojewody": 6147,
      "pierwszą": 6148,
      "dwadzieścia": 6149,
      "Mickiewicz": 6150,
      "Birbante": 6151,
      "psiarni": 6152,
      "Kręci": 6153,
      "Zwycię": 6154,
      "alkowy": 6155,
      "ołówek": 6156,
      "umarł": 6157,
      "wnioski": 6158,
      "zmrużył": 6159,
      "Żaden": 6160,
      "posrebrza": 6161,
      "dygnitar": 6162,
      "cofnął": 6163,
      "Państwu": 6164,
      "wzgórek": 6165,
      "synowca": 6166,
      "cudzych": 6167,
      "młodziana": 6168,
      "tłumaczył": 6169,
      "województwa": 6170,
      "mężczyzn": 6171,
      "mnóstwo": 6172,
      "Przemy": 6173,
      "Zniknął": 6174,
      "dóbr": 6175,
      "kościele": 6176,
      "łacinie": 6177,
      "czynownik": 6178,
      "odjazdem": 6179,
      "jagody": 6180,
      "przechadzki": 6181,
      "przeszkadza": 6182,
      "Jackowi": 6183,
      "Podczaszyc": 6184,
      "Waszmo": 6185,
      "Sagalasów": 6186,
      "nieboszczyka": 6187,
      "grzybobra": 6188,
      "Wilbik": 6189,
      "obecnych": 6190,
      "Grzeczność": 6191,
      "Twarz": 6192,
      "rodaków": 6193,
      "zacząć": 6194,
      "zatargi": 6195,
      "dotychczas": 6196,
      "pieniądze": 6197,
      "ludziom": 6198,
      "pracują": 6199,
      "architek": 6200,
      "filiżanki": 6201,
      "Proporszczyk": 6202,
      "Bartłomie": 6203,
      "!!": 6204,
      "\";": 6205,
      "):": 6206,
      "Aust": 6207,
      "Adama": 6208,
      "Apelu": 6209,
      "Brz": 6210,
      "Cz": 6211,
      "Drze": 6212,
      "Dwo": 6213,
      "Dal": 6214,
      "Dżok": 6215,
      "EK": 6216,
      "Ekono": 6217,
      "Fa": 6218,
      "For": 6219,
      "Gie": 6220,
      "Gda": 6221,
      "Gry": 6222,
      "Gwał": 6223,
      "Gon": 6224,
      "Gor": 6225,
      "IA": 6226,
      "Im": 6227,
      "JA": 6228,
      "Kr": 6229,
      "Klę": 6230,
      "Kłó": 6231,
      "MA": 6232,
      "Nuż": 6233,
      "Ost": 6234,
      "Owe": 6235,
      "Ogło": 6236,
      "Obu": 6237,
      "Około": 6238,
      "Ozwał": 6239,
      "Ogląda": 6240,
      "Ofice": 6241,
      "Pie": 6242,
      "Pta": 6243,
      "Prócz": 6244,
      "Puszcza": 6245,
      "Rwą": 6246,
      "Ruszy": 6247,
      "Se": 6248,
      "Ska": 6249,
      "Stó": 6250,
      "Spod": 6251,
      "Skrzy": 6252,
      "Skła": 6253,
      "Sej": 6254,
      "Spraw": 6255,
      "Sia": 6256,
      "Sprawa": 6257,
      "Spuścił": 6258,
      "STA": 6259,
      "Stały": 6260,
      "Tłu": 6261,
      "Tobie": 6262,
      "Twarzy": 6263,
      "Ucie": 6264,
      "Upada": 6265,
      "Uczuł": 6266,
      "Ucisz": 6267,
      "Wzd": 6268,
      "Wstał": 6269,
      "Wchodzi": 6270,
      "Wkrótce": 6271,
      "Wszczął": 6272,
      "Zdo": 6273,
      "Zja": 6274,
      "Zmie": 6275,
      "Zły": 6276,
      "Zrę": 6277,
      "Zgi": 6278,
      "Zim": 6279,
      "Znaj": 6280,
      "Zrobi": 6281,
      "Zdra": 6282,
      "Zdaje": 6283,
      "Zbudził": 6284,
      "Zląkł": 6285,
      "Zbyt": 6286,
      "ap": 6287,
      "ać": 6288,
      "agre": 6289,
      "astrono": 6290,
      "anioł": 6291,
      "areszt": 6292,
      "bob": 6293,
      "bzy": 6294,
      "blach": 6295,
      "brem": 6296,
      "brzo": 6297,
      "bądź": 6298,
      "błąd": 6299,
      "cja": 6300,
      "ckiem": 6301,
      "cusz": 6302,
      "cmaj": 6303,
      "dkie": 6304,
      "dkiem": 6305,
      "dkę": 6306,
      "dką": 6307,
      "drów": 6308,
      "drzem": 6309,
      "drwa": 6310,
      "daki": 6311,
      "eg": 6312,
      "fro": 6313,
      "frę": 6314,
      "gdo": 6315,
      "grą": 6316,
      "gwar": 6317,
      "gnąć": 6318,
      "gniony": 6319,
      "hy": 6320,
      "inie": 6321,
      "iku": 6322,
      "idę": 6323,
      "imieniu": 6324,
      "jną": 6325,
      "jdą": 6326,
      "jcą": 6327,
      "kąc": 6328,
      "knia": 6329,
      "krzą": 6330,
      "knąwszy": 6331,
      "lte": 6332,
      "mno": 6333,
      "mchu": 6334,
      "mnich": 6335,
      "mroku": 6336,
      "mrowi": 6337,
      "młódź": 6338,
      "ory": 6339,
      "osło": 6340,
      "osła": 6341,
      "ochło": 6342,
      "owych": 6343,
      "owym": 6344,
      "otar": 6345,
      "omen": 6346,
      "ozdo": 6347,
      "opuścił": 6348,
      "otrzą": 6349,
      "odzież": 6350,
      "opowiada": 6351,
      "oznaj": 6352,
      "ostrzegam": 6353,
      "pru": 6354,
      "ptak": 6355,
      "psie": 6356,
      "pso": 6357,
      "ptał": 6358,
      "pnąwszy": 6359,
      "phu": 6360,
      "płó": 6361,
      "rs": 6362,
      "rć": 6363,
      "rno": 6364,
      "rcy": 6365,
      "rwą": 6366,
      "rskie": 6367,
      "rża": 6368,
      "rpu": 6369,
      "rge": 6370,
      "sco": 6371,
      "snę": 6372,
      "scu": 6373,
      "snej": 6374,
      "swem": 6375,
      "spad": 6376,
      "smę": 6377,
      "spraw": 6378,
      "spuścił": 6379,
      "schro": 6380,
      "splami": 6381,
      "tw": 6382,
      "tce": 6383,
      "tnym": 6384,
      "tnim": 6385,
      "trów": 6386,
      "twych": 6387,
      "tkwi": 6388,
      "ugo": 6389,
      "umu": 6390,
      "urą": 6391,
      "udział": 6392,
      "usty": 6393,
      "ubli": 6394,
      "uchu": 6395,
      "utru": 6396,
      "użyć": 6397,
      "ukara": 6398,
      "ubr": 6399,
      "uszek": 6400,
      "utk": 6401,
      "uspoko": 6402,
      "uchodząc": 6403,
      "ubior": 6404,
      "ubiór": 6405,
      "ucałował": 6406,
      "wdo": 6407,
      "wraz": 6408,
      "wsza": 6409,
      "wsia": 6410,
      "wnej": 6411,
      "wście": 6412,
      "wkra": 6413,
      "wnic": 6414,
      "wszczę": 6415,
      "wcem": 6416,
      "wspó": 6417,
      "wskro": 6418,
      "wskoczył": 6419,
      "wrzo": 6420,
      "wplą": 6421,
      "wprost": 6422,
      "zną": 6423,
      "zwia": 6424,
      "zwą": 6425,
      "zbu": 6426,
      "zbił": 6427,
      "zgry": 6428,
      "zrazy": 6429,
      "zodu": 6430,
      "zmówił": 6431,
      "zgni": 6432,
      "zbłą": 6433,
      "ząb": 6434,
      "zwłaszcza": 6435,
      "zrób": 6436,
      "zrozumie": 6437,
      "zwracał": 6438,
      "zgieł": 6439,
      "zwlekać": 6440,
      "znienacka": 6441,
      "ówić": 6442,
      "óstym": 6443,
      "ĄTA": 6444,
      "ąwszy": 6445,
      "łka": 6446,
      "ńczyć": 6447,
      "ńską": 6448,
      "Świ": 6449,
      "Śle": 6450,
      "Świa": 6451,
      "Świę": 6452,
      "śne": 6453,
      "śpią": 6454,
      "śniona": 6455,
      "ździe": 6456,
      "źród": 6457,
      "źmija": 6458,
      "Żało": 6459,
      "żby": 6460,
      "żba": 6461,
      "żką": 6462,
      "żnych": 6463,
      "żały": 6464,
      "rzcie": 6465,
      "sznie": 6466,
      "szni": 6467,
      "szla": 6468,
      "szme": 6469,
      "szten": 6470,
      "sztę": 6471,
      "szczo": 6472,
      "szczał": 6473,
      "szpada": 6474,
      "szkle": 6475,
      "szemi": 6476,
      "szóstym": 6477,
      "czały": 6478,
      "czało": 6479,
      "cznego": 6480,
      "czkami": 6481,
      "czność": 6482,
      "cznika": 6483,
      "czéj": 6484,
      "czór": 6485,
      "cznemi": 6486,
      "czwacze": 6487,
      "czworo": 6488,
      "chą": 6489,
      "chcie": 6490,
      "chwal": 6491,
      "chwała": 6492,
      "chmistrz": 6493,
      "chcieli": 6494,
      "nal": 6495,
      "nać": 6496,
      "nali": 6497,
      "nały": 6498,
      "nazy": 6499,
      "nazna": 6500,
      "naon": 6501,
      "natę": 6502,
      "naród": 6503,
      "natar": 6504,
      "natenczas": 6505,
      "nawal": 6506,
      "nadzieje": 6507,
      "nazywa": 6508,
      "nazwali": 6509,
      "naprawić": 6510,
      "natychmiast": 6511,
      "niez": 6512,
      "nienie": 6513,
      "niedzie": 6514,
      "niezwy": 6515,
      "niewol": 6516,
      "niekiedy": 6517,
      "niedługo": 6518,
      "nierad": 6519,
      "niewier": 6520,
      "nieszczęście": 6521,
      "niepoję": 6522,
      "nieprzyjaciele": 6523,
      "niebyt": 6524,
      "niecierpli": 6525,
      "nieprzyjacielem": 6526,
      "dzem": 6527,
      "stw": 6528,
      "strzą": 6529,
      "pon": 6530,
      "porz": 6531,
      "pocz": 6532,
      "porze": 6533,
      "poła": 6534,
      "podzie": 6535,
      "poku": 6536,
      "pobo": 6537,
      "pował": 6538,
      "pomnie": 6539,
      "podział": 6540,
      "powło": 6541,
      "pomał": 6542,
      "pozby": 6543,
      "pospó": 6544,
      "pochodzi": 6545,
      "posłucha": 6546,
      "pokazał": 6547,
      "powrócił": 6548,
      "powody": 6549,
      "poszczu": 6550,
      "postrzał": 6551,
      "poprawił": 6552,
      "pojmie": 6553,
      "posłem": 6554,
      "pożału": 6555,
      "pożera": 6556,
      "pogrą": 6557,
      "rani": 6558,
      "ratu": 6559,
      "ranę": 6560,
      "rachu": 6561,
      "ranek": 6562,
      "ramieniem": 6563,
      "raczej": 6564,
      "ięła": 6565,
      "rowe": 6566,
      "roba": 6567,
      "rośli": 6568,
      "roso": 6569,
      "rośnie": 6570,
      "rojem": 6571,
      "rodem": 6572,
      "roman": 6573,
      "nina": 6574,
      "niny": 6575,
      "nije": 6576,
      "niczy": 6577,
      "niły": 6578,
      "niją": 6579,
      "niéj": 6580,
      "nisława": 6581,
      "korzy": 6582,
      "kował": 6583,
      "kopie": 6584,
      "kozy": 6585,
      "kosy": 6586,
      "kowych": 6587,
      "kowym": 6588,
      "lip": 6589,
      "lity": 6590,
      "lija": 6591,
      "listy": 6592,
      "liczył": 6593,
      "licem": 6594,
      "wije": 6595,
      "wiła": 6596,
      "wicza": 6597,
      "wiją": 6598,
      "wica": 6599,
      "wiszą": 6600,
      "wicą": 6601,
      "wiczem": 6602,
      "wicznie": 6603,
      "widzenia": 6604,
      "rzekli": 6605,
      "wana": 6606,
      "wale": 6607,
      "wabi": 6608,
      "wate": 6609,
      "wasa": 6610,
      "warzą": 6611,
      "walecz": 6612,
      "ważył": 6613,
      "waczów": 6614,
      "łono": 6615,
      "łoże": 6616,
      "łody": 6617,
      "łomu": 6618,
      "łotra": 6619,
      "łowski": 6620,
      "łożu": 6621,
      "kali": 6622,
      "kata": 6623,
      "kawia": 6624,
      "kamienia": 6625,
      "ciwszy": 6626,
      "ciska": 6627,
      "ciśnie": 6628,
      "ciół": 6629,
      "ciszej": 6630,
      "zap": 6631,
      "zacz": 6632,
      "zara": 6633,
      "zamie": 6634,
      "zaprze": 6635,
      "zabie": 6636,
      "zausz": 6637,
      "zatrzy": 6638,
      "zarów": 6639,
      "zadać": 6640,
      "zadał": 6641,
      "zagnie": 6642,
      "zanosi": 6643,
      "zapła": 6644,
      "zabić": 6645,
      "zalał": 6646,
      "zajeżdża": 6647,
      "zakończył": 6648,
      "zabój": 6649,
      "zadziwił": 6650,
      "zabiera": 6651,
      "zarosły": 6652,
      "zadzwonił": 6653,
      "zasłużył": 6654,
      "zadzwoni": 6655,
      "zapomniał": 6656,
      "zapomnia": 6657,
      "zagłuszył": 6658,
      "akt": 6659,
      "aksami": 6660,
      "wienie": 6661,
      "wieka": 6662,
      "wierzy": 6663,
      "wiedzie": 6664,
      "wieży": 6665,
      "wiekiem": 6666,
      "wietrzy": 6667,
      "wieniec": 6668,
      "wiecznie": 6669,
      "wieńce": 6670,
      "wieństwem": 6671,
      "wieczór": 6672,
      "lecia": 6673,
      "leniem": 6674,
      "lecąc": 6675,
      "leżał": 6676,
      "don": 6677,
      "doro": 6678,
      "dozo": 6679,
      "dosły": 6680,
      "dochodzi": 6681,
      "dozwo": 6682,
      "dotk": 6683,
      "dotyka": 6684,
      "dowci": 6685,
      "wyu": 6686,
      "wymi": 6687,
      "wyba": 6688,
      "wybo": 6689,
      "wyga": 6690,
      "wysie": 6691,
      "wylo": 6692,
      "wypu": 6693,
      "wypowie": 6694,
      "wyrazem": 6695,
      "wyzwał": 6696,
      "wyśle": 6697,
      "wypić": 6698,
      "wygna": 6699,
      "wyrazy": 6700,
      "wydawał": 6701,
      "wybiegł": 6702,
      "wyprowa": 6703,
      "wytk": 6704,
      "wyrok": 6705,
      "wybiera": 6706,
      "wystrzały": 6707,
      "wysłał": 6708,
      "wypełnia": 6709,
      "wywodzić": 6710,
      "kity": 6711,
      "kiwnął": 6712,
      "jene": 6713,
      "jesie": 6714,
      "jedź": 6715,
      "jeździ": 6716,
      "goty": 6717,
      "gonił": 6718,
      "godzą": 6719,
      "gonią": 6720,
      "godne": 6721,
      "miła": 6722,
      "miną": 6723,
      "miało": 6724,
      "mignął": 6725,
      "mignęła": 6726,
      "dzika": 6727,
      "dziob": 6728,
      "dzikich": 6729,
      "dziwnie": 6730,
      "łaj": 6731,
      "łap": 6732,
      "łany": 6733,
      "łatwo": 6734,
      "łatwą": 6735,
      "nom": 6736,
      "nosy": 6737,
      "nogę": 6738,
      "nować": 6739,
      "nowski": 6740,
      "noszę": 6741,
      "nocą": 6742,
      "nowego": 6743,
      "nogami": 6744,
      "bywał": 6745,
      "bydło": 6746,
      "dasz": 6747,
      "dajem": 6748,
      "dawano": 6749,
      "tala": 6750,
      "laska": 6751,
      "lazek": 6752,
      "wor": 6753,
      "woju": 6754,
      "wodzo": 6755,
      "wolą": 6756,
      "wozów": 6757,
      "paj": 6758,
      "past": 6759,
      "papi": 6760,
      "pasy": 6761,
      "paję": 6762,
      "panią": 6763,
      "padek": 6764,
      "patrzą": 6765,
      "patrzeć": 6766,
      "negdo": 6767,
      "cieni": 6768,
      "cieszą": 6769,
      "ciepły": 6770,
      "tygry": 6771,
      "tyżeś": 6772,
      "dziel": 6773,
      "dzien": 6774,
      "dzieło": 6775,
      "dzieju": 6776,
      "czyk": 6777,
      "czyn": 6778,
      "czyś": 6779,
      "czych": 6780,
      "czysta": 6781,
      "czyja": 6782,
      "czyją": 6783,
      "czynę": 6784,
      "czysco": 6785,
      "ryło": 6786,
      "ryby": 6787,
      "ryso": 6788,
      "rysu": 6789,
      "rydwa": 6790,
      "rystu": 6791,
      "rywal": 6792,
      "ryknie": 6793,
      "rynsztu": 6794,
      "towi": 6795,
      "tonem": 6796,
      "toczył": 6797,
      "toczą": 6798,
      "torem": 6799,
      "toale": 6800,
      "szyk": 6801,
      "szyje": 6802,
      "żenić": 6803,
      "dyma": 6804,
      "dymu": 6805,
      "dyję": 6806,
      "dynku": 6807,
      "kier": 6808,
      "kuta": 6809,
      "kuran": 6810,
      "kukuru": 6811,
      "biło": 6812,
      "bije": 6813,
      "biła": 6814,
      "bita": 6815,
      "biwszy": 6816,
      "bicia": 6817,
      "biczem": 6818,
      "bigos": 6819,
      "tea": 6820,
      "terze": 6821,
      "tele": 6822,
      "terem": 6823,
      "mane": 6824,
      "macie": 6825,
      "mate": 6826,
      "malo": 6827,
      "macał": 6828,
      "matki": 6829,
      "matka": 6830,
      "mosię": 6831,
      "moru": 6832,
      "mował": 6833,
      "mową": 6834,
      "mowę": 6835,
      "mojem": 6836,
      "monar": 6837,
      "motyle": 6838,
      "sil": 6839,
      "sin": 6840,
      "siał": 6841,
      "sili": 6842,
      "siła": 6843,
      "sito": 6844,
      "siwą": 6845,
      "stal": 6846,
      "stawię": 6847,
      "stanęli": 6848,
      "stawach": 6849,
      "starej": 6850,
      "obja": 6851,
      "obsza": 6852,
      "obrazy": 6853,
      "obchodził": 6854,
      "obwieści": 6855,
      "oddał": 6856,
      "odwro": 6857,
      "odsiecz": 6858,
      "odlew": 6859,
      "rut": 6860,
      "rusz": 6861,
      "rura": 6862,
      "rumie": 6863,
      "runął": 6864,
      "ruskie": 6865,
      "jasza": 6866,
      "jadł": 6867,
      "jadła": 6868,
      "jasno": 6869,
      "jaśni": 6870,
      "jaskra": 6871,
      "jazdę": 6872,
      "jaskół": 6873,
      "mien": 6874,
      "miedzą": 6875,
      "czeniem": 6876,
      "prześli": 6877,
      "przebu": 6878,
      "przestrze": 6879,
      "przestro": 6880,
      "przestra": 6881,
      "przeprasza": 6882,
      "przeina": 6883,
      "przechrz": 6884,
      "przeczytał": 6885,
      "rech": 6886,
      "muchy": 6887,
      "wewnątrz": 6888,
      "ces": 6889,
      "szenia": 6890,
      "szepta": 6891,
      "szeliście": 6892,
      "piwa": 6893,
      "pije": 6894,
      "piły": 6895,
      "pisarz": 6896,
      "czaro": 6897,
      "czaty": 6898,
      "czamar": 6899,
      "czasach": 6900,
      "róś": 6901,
      "przyro": 6902,
      "przywy": 6903,
      "przyto": 6904,
      "przymie": 6905,
      "przytu": 6906,
      "przysto": 6907,
      "przysło": 6908,
      "przynosi": 6909,
      "przypła": 6910,
      "przydom": 6911,
      "przymio": 6912,
      "przybrał": 6913,
      "przyjść": 6914,
      "przysłał": 6915,
      "bany": 6916,
      "baty": 6917,
      "bady": 6918,
      "badał": 6919,
      "dech": 6920,
      "derka": 6921,
      "deptał": 6922,
      "jąkał": 6923,
      "bonie": 6924,
      "boże": 6925,
      "boży": 6926,
      "bojąc": 6927,
      "bocia": 6928,
      "bockich": 6929,
      "ścili": 6930,
      "ściga": 6931,
      "gatu": 6932,
      "cować": 6933,
      "żydo": 6934,
      "żywe": 6935,
      "żywych": 6936,
      "pienie": 6937,
      "pieli": 6938,
      "piery": 6939,
      "pieski": 6940,
      "sając": 6941,
      "sarzem": 6942,
      "sarnie": 6943,
      "cyng": 6944,
      "cywili": 6945,
      "ludziach": 6946,
      "carem": 6947,
      "szach": 6948,
      "szacu": 6949,
      "szabla": 6950,
      "szabel": 6951,
      "chają": 6952,
      "charak": 6953,
      "chom": 6954,
      "chować": 6955,
      "chowski": 6956,
      "chowicz": 6957,
      "Pole": 6958,
      "Pogo": 6959,
      "Podział": 6960,
      "Pomiędzy": 6961,
      "Porząd": 6962,
      "Pochodzi": 6963,
      "Polowa": 6964,
      "Pokazał": 6965,
      "Pojedy": 6966,
      "Poprawi": 6967,
      "Poczci": 6968,
      "Poznałem": 6969,
      "tury": 6970,
      "tutej": 6971,
      "rozwa": 6972,
      "rozdzie": 6973,
      "rozbro": 6974,
      "rozję": 6975,
      "rozsą": 6976,
      "rozej": 6977,
      "rozpusz": 6978,
      "rozwar": 6979,
      "rozposta": 6980,
      "rozkoszy": 6981,
      "rozdziela": 6982,
      "roztacza": 6983,
      "rozmai": 6984,
      "rozpięta": 6985,
      "Pac": 6986,
      "Pas": 6987,
      "Pary": 6988,
      "jum": 6989,
      "jusza": 6990,
      "jutrz": 6991,
      "wiarę": 6992,
      "wiatry": 6993,
      "skle": 6994,
      "skała": 6995,
      "skrwa": 6996,
      "takich": 6997,
      "zysk": 6998,
      "Nieba": 6999,
      "Niebo": 7000,
      "Niewdzię": 7001,
      "giji": 7002,
      "Nasz": 7003,
      "Nazywał": 7004,
      "mety": 7005,
      "pracy": 7006,
      "prawię": 7007,
      "prawem": 7008,
      "pragnął": 7009,
      "pradziadów": 7010,
      "pracować": 7011,
      "sieli": 7012,
      "siedzieć": 7013,
      "podał": 7014,
      "podszedł": 7015,
      "podnosi": 7016,
      "podskoczył": 7017,
      "podnosząc": 7018,
      "podniesio": 7019,
      "podnieść": 7020,
      "podniesioną": 7021,
      "podróży": 7022,
      "stołe": 7023,
      "zebrać": 7024,
      "zestarzał": 7025,
      "kłów": 7026,
      "skach": 7027,
      "skakać": 7028,
      "znali": 7029,
      "znane": 7030,
      "znają": 7031,
      "znaków": 7032,
      "Taka": 7033,
      "Tabak": 7034,
      "Jan": 7035,
      "Jadę": 7036,
      "wąsy": 7037,
      "dują": 7038,
      "duchu": 7039,
      "dumał": 7040,
      "duchem": 7041,
      "Jena": 7042,
      "Jeste": 7043,
      "Jechał": 7044,
      "Jedną": 7045,
      "Jeździ": 7046,
      "lono": 7047,
      "lonym": 7048,
      "losów": 7049,
      "lokaj": 7050,
      "procz": 7051,
      "proch": 7052,
      "proby": 7053,
      "progi": 7054,
      "proste": 7055,
      "proszą": 7056,
      "progiem": 7057,
      "promienie": 7058,
      "ślił": 7059,
      "Zaba": 7060,
      "częścią": 7061,
      "sposo": 7062,
      "sporów": 7063,
      "sporach": 7064,
      "sposoby": 7065,
      "spowiedzi": 7066,
      "wzbra": 7067,
      "wzniosła": 7068,
      "wzniesioną": 7069,
      "Tego": 7070,
      "Teraje": 7071,
      "kąta": 7072,
      "kąpieli": 7073,
      "któremi": 7074,
      "sypie": 7075,
      "Woła": 7076,
      "bek": 7077,
      "besty": 7078,
      "benki": 7079,
      "beczek": 7080,
      "mięszał": 7081,
      "krzyków": 7082,
      "krzywił": 7083,
      "krzyżu": 7084,
      "cud": 7085,
      "cudną": 7086,
      "rzaj": 7087,
      "rzać": 7088,
      "żadna": 7089,
      "żalem": 7090,
      "żadnego": 7091,
      "rąb": 7092,
      "rączka": 7093,
      "Mając": 7094,
      "Mazu": 7095,
      "węzło": 7096,
      "Cha": 7097,
      "Char": 7098,
      "Chrystu": 7099,
      "grosz": 7100,
      "gronie": 7101,
      "grono": 7102,
      "groty": 7103,
      "grodzić": 7104,
      "gromem": 7105,
      "mówią": 7106,
      "sługą": 7107,
      "sługom": 7108,
      "słowi": 7109,
      "słowem": 7110,
      "Bożej": 7111,
      "Bogiem": 7112,
      "bronie": 7113,
      "brodą": 7114,
      "skom": 7115,
      "brak": 7116,
      "bramy": 7117,
      "bratem": 7118,
      "bracią": 7119,
      "pek": 7120,
      "pewni": 7121,
      "petersbur": 7122,
      "pełen": 7123,
      "puchem": 7124,
      "pustym": 7125,
      "puder": 7126,
      "purpu": 7127,
      "pódź": 7128,
      "pójdzie": 7129,
      "chyliwszy": 7130,
      "biada": 7131,
      "buje": 7132,
      "budynku": 7133,
      "Leci": 7134,
      "szczep": 7135,
      "szczery": 7136,
      "głszy": 7137,
      "strzeże": 7138,
      "strzechy": 7139,
      "strzenicę": 7140,
      "Żeś": 7141,
      "więź": 7142,
      "więźni": 7143,
      "niejszą": 7144,
      "Możem": 7145,
      "Można": 7146,
      "niknie": 7147,
      "drogo": 7148,
      "drogie": 7149,
      "drobiu": 7150,
      "opuszcza": 7151,
      "rzekłbyś": 7152,
      "sować": 7153,
      "sosny": 7154,
      "pierał": 7155,
      "piersio": 7156,
      "pierścio": 7157,
      "pierścień": 7158,
      "czuły": 7159,
      "stroi": 7160,
      "stronami": 7161,
      "zin": 7162,
      "zio": 7163,
      "zimy": 7164,
      "tent": 7165,
      "suwał": 7166,
      "sunął": 7167,
      "sumnie": 7168,
      "suche": 7169,
      "suwają": 7170,
      "Podniosł": 7171,
      "Panno": 7172,
      "Domi": 7173,
      "Dostał": 7174,
      "Dotąd": 7175,
      "zowią": 7176,
      "dźwięk": 7177,
      "kroczy": 7178,
      "kropi": 7179,
      "Wyda": 7180,
      "Wysła": 7181,
      "Wysmu": 7182,
      "Wyskoczył": 7183,
      "Wyciągnął": 7184,
      "wszystkiem": 7185,
      "giej": 7186,
      "lęta": 7187,
      "lękli": 7188,
      "Wojska": 7189,
      "Wilej": 7190,
      "nadto": 7191,
      "młoko": 7192,
      "młodą": 7193,
      "młodszy": 7194,
      "trzej": 7195,
      "trzysta": 7196,
      "trzykro": 7197,
      "trzystu": 7198,
      "wór": 7199,
      "powieki": 7200,
      "powiedzą": 7201,
      "Zostawi": 7202,
      "sądu": 7203,
      "tamci": 7204,
      "tamten": 7205,
      "tamtej": 7206,
      "żoną": 7207,
      "nionych": 7208,
      "niosły": 7209,
      "Której": 7210,
      "sławie": 7211,
      "sławę": 7212,
      "sławną": 7213,
      "słaniając": 7214,
      "styn": 7215,
      "jakoś": 7216,
      "Toż": 7217,
      "Tomasz": 7218,
      "trawami": 7219,
      "kończy": 7220,
      "kończą": 7221,
      "kończyła": 7222,
      "Taki": 7223,
      "jone": 7224,
      "jonych": 7225,
      "równe": 7226,
      "równą": 7227,
      "całéj": 7228,
      "złocie": 7229,
      "złości": 7230,
      "złoży": 7231,
      "złotego": 7232,
      "złożę": 7233,
      "złodziej": 7234,
      "złocona": 7235,
      "rządu": 7236,
      "Tysiąc": 7237,
      "Wier": 7238,
      "Wiecie": 7239,
      "Wieść": 7240,
      "gęsta": 7241,
      "gęściej": 7242,
      "śnieg": 7243,
      "śniegi": 7244,
      "śniegu": 7245,
      "Koza": 7246,
      "Kozodu": 7247,
      "Odgłos": 7248,
      "pyłu": 7249,
      "pychy": 7250,
      "słynął": 7251,
      "słyszano": 7252,
      "słyszała": 7253,
      "Dobrodzi": 7254,
      "dzoziem": 7255,
      "jedni": 7256,
      "jedne": 7257,
      "świeca": 7258,
      "rzucał": 7259,
      "oczyścić": 7260,
      "zdjął": 7261,
      "zdjęta": 7262,
      "gust": 7263,
      "guzy": 7264,
      "guzi": 7265,
      "gąsieni": 7266,
      "górą": 7267,
      "zuje": 7268,
      "zują": 7269,
      "zucha": 7270,
      "serc": 7271,
      "serów": 7272,
      "wróble": 7273,
      "dwiema": 7274,
      "dwiestu": 7275,
      "Czyny": 7276,
      "Gdym": 7277,
      "Gdybym": 7278,
      "inny": 7279,
      "inną": 7280,
      "instyn": 7281,
      "twarze": 7282,
      "czący": 7283,
      "czących": 7284,
      "Wara": 7285,
      "pięty": 7286,
      "śmiesz": 7287,
      "śmiele": 7288,
      "śmieta": 7289,
      "bliżej": 7290,
      "kraje": 7291,
      "krawę": 7292,
      "światu": 7293,
      "świadom": 7294,
      "niemczy": 7295,
      "dworza": 7296,
      "grać": 7297,
      "grani": 7298,
      "grają": 7299,
      "grabieży": 7300,
      "królo": 7301,
      "krótka": 7302,
      "zwano": 7303,
      "zwalił": 7304,
      "zważał": 7305,
      "ścianę": 7306,
      "Cofa": 7307,
      "fita": 7308,
      "filary": 7309,
      "najpierwszy": 7310,
      "najpierwsze": 7311,
      "najbliż": 7312,
      "wiom": 7313,
      "ciągnęli": 7314,
      "ciągnąc": 7315,
      "wiążą": 7316,
      "samą": 7317,
      "Przysią": 7318,
      "Przypomniał": 7319,
      "myślić": 7320,
      "myślili": 7321,
      "myśliła": 7322,
      "zamę": 7323,
      "Podkomor": 7324,
      "szukała": 7325,
      "stek": 7326,
      "łeś": 7327,
      "ranne": 7328,
      "robiąc": 7329,
      "twoja": 7330,
      "każdą": 7331,
      "Niż": 7332,
      "skutku": 7333,
      "straż": 7334,
      "straszy": 7335,
      "strawił": 7336,
      "stracił": 7337,
      "strasząc": 7338,
      "trwała": 7339,
      "miasto": 7340,
      "Robi": 7341,
      "Roze": 7342,
      "Rosy": 7343,
      "włość": 7344,
      "włosem": 7345,
      "zgoła": 7346,
      "szczęściu": 7347,
      "zdarzenia": 7348,
      "dawny": 7349,
      "dawnym": 7350,
      "zwykła": 7351,
      "Szmer": 7352,
      "Szczwacze": 7353,
      "będziemy": 7354,
      "ktorem": 7355,
      "myślę": 7356,
      "myślony": 7357,
      "północ": 7358,
      "północy": 7359,
      "Rym": 7360,
      "gniewie": 7361,
      "gnieniu": 7362,
      "gnieździ": 7363,
      "karty": 7364,
      "kryje": 7365,
      "swobo": 7366,
      "swoję": 7367,
      "swojego": 7368,
      "uszami": 7369,
      "Miała": 7370,
      "Miałem": 7371,
      "Reszta": 7372,
      "Resztę": 7373,
      "trzpio": 7374,
      "łąk": 7375,
      "łączyć": 7376,
      "Moskalom": 7377,
      "hań": 7378,
      "hanie": 7379,
      "czemu": 7380,
      "kochasz": 7381,
      "kochanków": 7382,
      "Panienko": 7383,
      "Podkomorzyna": 7384,
      "dłość": 7385,
      "dłonią": 7386,
      "kałeś": 7387,
      "order": 7388,
      "sztuka": 7389,
      "byłaś": 7390,
      "byłaby": 7391,
      "marki": 7392,
      "maria": 7393,
      "drzewem": 7394,
      "drzewami": 7395,
      "trud": 7396,
      "trupy": 7397,
      "krewni": 7398,
      "konno": 7399,
      "kontrak": 7400,
      "Star": 7401,
      "Stanie": 7402,
      "Stara": 7403,
      "Starzy": 7404,
      "Stany": 7405,
      "Stają": 7406,
      "Stanął": 7407,
      "Starzec": 7408,
      "Stanisława": 7409,
      "kłosów": 7410,
      "zwierzę": 7411,
      "ważny": 7412,
      "ważnych": 7413,
      "ważnej": 7414,
      "oknach": 7415,
      "powtarzał": 7416,
      "strzelał": 7417,
      "fan": 7418,
      "fawory": 7419,
      "nięta": 7420,
      "ustawnie": 7421,
      "ustawicznie": 7422,
      "szczyzny": 7423,
      "drzwiom": 7424,
      "ogrody": 7425,
      "ogromną": 7426,
      "Soplicowskim": 7427,
      "Asesorem": 7428,
      "gałą": 7429,
      "gałka": 7430,
      "ogląda": 7431,
      "pęki": 7432,
      "pędzi": 7433,
      "pędzić": 7434,
      "tkanie": 7435,
      "gościom": 7436,
      "wielkiego": 7437,
      "Stoi": 7438,
      "Stojąc": 7439,
      "księgi": 7440,
      "księciu": 7441,
      "zmierzył": 7442,
      "zmienić": 7443,
      "zmienni": 7444,
      "przyjaciół": 7445,
      "błysnął": 7446,
      "tłuszcza": 7447,
      "ciemność": 7448,
      "żebym": 7449,
      "żebyśmy": 7450,
      "Ojciec": 7451,
      "książek": 7452,
      "zdrowiem": 7453,
      "możny": 7454,
      "skrzypak": 7455,
      "skrzydeł": 7456,
      "mówiłem": 7457,
      "dłach": 7458,
      "dwórurki": 7459,
      "powiat": 7460,
      "powiadają": 7461,
      "Horeszkowie": 7462,
      "Prawie": 7463,
      "Rad": 7464,
      "Razem": 7465,
      "niechę": 7466,
      "studni": 7467,
      "gdybym": 7468,
      "Brali": 7469,
      "Dać": 7470,
      "chwiał": 7471,
      "chwile": 7472,
      "rodzice": 7473,
      "Rozkrzyżo": 7474,
      "Kuchci": 7475,
      "ojcu": 7476,
      "ojczyste": 7477,
      "płacze": 7478,
      "płatał": 7479,
      "płacząc": 7480,
      "zrobim": 7481,
      "postawie": 7482,
      "postacią": 7483,
      "postanowie": 7484,
      "wzroście": 7485,
      "pełz": 7486,
      "głucho": 7487,
      "polsku": 7488,
      "polskiego": 7489,
      "polskim": 7490,
      "domów": 7491,
      "nowicie": 7492,
      "palcach": 7493,
      "Myś": 7494,
      "klatki": 7495,
      "domowym": 7496,
      "mieszkała": 7497,
      "chart": 7498,
      "charta": 7499,
      "chartami": 7500,
      "rozmową": 7501,
      "zostaje": 7502,
      "zostawić": 7503,
      "chłopstwo": 7504,
      "chłopskiej": 7505,
      "środka": 7506,
      "płoty": 7507,
      "zaśmiał": 7508,
      "ciekawe": 7509,
      "ciekawość": 7510,
      "gromady": 7511,
      "drugiemu": 7512,
      "Choćby": 7513,
      "Kropić": 7514,
      "śpiewa": 7515,
      "śpieszy": 7516,
      "śpiewać": 7517,
      "dziękować": 7518,
      "ostatki": 7519,
      "zemu": 7520,
      "niedźwiedzia": 7521,
      "niedźwiedziej": 7522,
      "niedźwiedziem": 7523,
      "Gości": 7524,
      "byśmy": 7525,
      "ącego": 7526,
      "starców": 7527,
      "baki": 7528,
      "mnicha": 7529,
      "ptaszek": 7530,
      "ptastwu": 7531,
      "wołali": 7532,
      "wołają": 7533,
      "wołając": 7534,
      "Tamci": 7535,
      "słuchają": 7536,
      "słuchając": 7537,
      "Biało": 7538,
      "Księga": 7539,
      "Księstwa": 7540,
      "zdoła": 7541,
      "zdołał": 7542,
      "nieboga": 7543,
      "poznałem": 7544,
      "tance": 7545,
      "pytają": 7546,
      "pręży": 7547,
      "órka": 7548,
      "Żydów": 7549,
      "piosen": 7550,
      "grzyby": 7551,
      "mówcy": 7552,
      "szczwaczów": 7553,
      "struny": 7554,
      "strugi": 7555,
      "siostrą": 7556,
      "siostrzenicę": 7557,
      "rejter": 7558,
      "Woźnym": 7559,
      "długimi": 7560,
      "klęczkach": 7561,
      "urody": 7562,
      "wsparł": 7563,
      "wsparty": 7564,
      "czekając": 7565,
      "Kropidłem": 7566,
      "Trzeciego": 7567,
      "brwi": 7568,
      "klej": 7569,
      "sędzie": 7570,
      "zbożu": 7571,
      "pokoiku": 7572,
      "cioci": 7573,
      "ciocia": 7574,
      "wierzch": 7575,
      "patrzyli": 7576,
      "obowiązki": 7577,
      "zielony": 7578,
      "zielone": 7579,
      "zielonych": 7580,
      "zielonym": 7581,
      "zielonego": 7582,
      "Gdzieniegdzie": 7583,
      "gruntów": 7584,
      "rzciny": 7585,
      "konopi": 7586,
      "kobier": 7587,
      "kobietą": 7588,
      "wracali": 7589,
      "wracają": 7590,
      "hul": 7591,
      "hur": 7592,
      "hula": 7593,
      "miłośnik": 7594,
      "przerwała": 7595,
      "skroń": 7596,
      "skroniach": 7597,
      "Nowa": 7598,
      "Weso": 7599,
      "gwiaździ": 7600,
      "świszcząc": 7601,
      "zaczęto": 7602,
      "dalszej": 7603,
      "kłót": 7604,
      "kłócił": 7605,
      "kłótnia": 7606,
      "żart": 7607,
      "żołnierze": 7608,
      "światła": 7609,
      "krótko": 7610,
      "Maciejów": 7611,
      "Peter": 7612,
      "Petersbur": 7613,
      "brzeg": 7614,
      "brzezi": 7615,
      "uczcie": 7616,
      "uczty": 7617,
      "zbrojnie": 7618,
      "podobny": 7619,
      "podobną": 7620,
      "jakiem": 7621,
      "skarżyć": 7622,
      "wziąć": 7623,
      "szlachecka": 7624,
      "szlacheckim": 7625,
      "szlachectwa": 7626,
      "skończył": 7627,
      "trzymać": 7628,
      "własne": 7629,
      "własną": 7630,
      "Siedział": 7631,
      "kwiat": 7632,
      "umierać": 7633,
      "święta": 7634,
      "święto": 7635,
      "świętem": 7636,
      "świętych": 7637,
      "panicz": 7638,
      "dziewczę": 7639,
      "piąwszy": 7640,
      "Litwą": 7641,
      "Litwę": 7642,
      "Ojczyznę": 7643,
      "Mógł": 7644,
      "Mówił": 7645,
      "krzesło": 7646,
      "krzesła": 7647,
      "urzędem": 7648,
      "urzędnika": 7649,
      "wspomnę": 7650,
      "wdzięków": 7651,
      "podania": 7652,
      "polowaniu": 7653,
      "wilgo": 7654,
      "obracał": 7655,
      "gadanie": 7656,
      "gadali": 7657,
      "gadano": 7658,
      "prowadzi": 7659,
      "dawniejsze": 7660,
      "Róz": 7661,
      "bryka": 7662,
      "śladu": 7663,
      "kazywał": 7664,
      "zabawić": 7665,
      "gotowi": 7666,
      "gotowe": 7667,
      "gotową": 7668,
      "obława": 7669,
      "obławą": 7670,
      "obławę": 7671,
      "obławnicy": 7672,
      "trwogę": 7673,
      "karczma": 7674,
      "puszczają": 7675,
      "kilkakroć": 7676,
      "Dzieci": 7677,
      "Prusa": 7678,
      "drabi": 7679,
      "drabów": 7680,
      "przemy": 7681,
      "przemówić": 7682,
      "schylił": 7683,
      "czterech": 7684,
      "narodu": 7685,
      "narodowy": 7686,
      "kolan": 7687,
      "dzieckiem": 7688,
      "senny": 7689,
      "senne": 7690,
      "Ledwiem": 7691,
      "straszną": 7692,
      "strasznej": 7693,
      "wstrzymać": 7694,
      "Ręką": 7695,
      "grzeczność": 7696,
      "ubrana": 7697,
      "ubrania": 7698,
      "powinność": 7699,
      "porządkiem": 7700,
      "porządnym": 7701,
      "leciało": 7702,
      "nocle": 7703,
      "nocną": 7704,
      "żegnał": 7705,
      "obrazu": 7706,
      "odpowiedzi": 7707,
      "odpowiedziała": 7708,
      "szerokim": 7709,
      "składać": 7710,
      "składał": 7711,
      "Jankiela": 7712,
      "Jankielu": 7713,
      "siadłszy": 7714,
      "zdrajca": 7715,
      "krewną": 7716,
      "krewnych": 7717,
      "otwory": 7718,
      "otworem": 7719,
      "sceny": 7720,
      "lepszy": 7721,
      "lepsza": 7722,
      "Chciałbym": 7723,
      "błonie": 7724,
      "błotni": 7725,
      "kwestar": 7726,
      "osobna": 7727,
      "osobny": 7728,
      "trząsł": 7729,
      "uwagi": 7730,
      "chędo": 7731,
      "koniecznie": 7732,
      "zaścianki": 7733,
      "zaścianków": 7734,
      "wiernego": 7735,
      "wyraźnie": 7736,
      "obłoku": 7737,
      "długiemi": 7738,
      "dobrym": 7739,
      "szczęśliwa": 7740,
      "szczęśliwym": 7741,
      "Mierzy": 7742,
      "ogonie": 7743,
      "ogonem": 7744,
      "sądów": 7745,
      "zerwać": 7746,
      "kapela": 7747,
      "zabije": 7748,
      "wyprawę": 7749,
      "tańczy": 7750,
      "tańczyć": 7751,
      "weselu": 7752,
      "Moskwie": 7753,
      "Moskwą": 7754,
      "Myśliwi": 7755,
      "Myśliłem": 7756,
      "Ostatnia": 7757,
      "córy": 7758,
      "gestami": 7759,
      "małych": 7760,
      "otwarto": 7761,
      "tłoczy": 7762,
      "pomnę": 7763,
      "panien": 7764,
      "odezwał": 7765,
      "głośniej": 7766,
      "Marsz": 7767,
      "Marszał": 7768,
      "pewnego": 7769,
      "pułk": 7770,
      "pułko": 7771,
      "różnofar": 7772,
      "ognista": 7773,
      "książęcy": 7774,
      "sejmiku": 7775,
      "Głowa": 7776,
      "Kilka": 7777,
      "Kiryło": 7778,
      "Szano": 7779,
      "duszą": 7780,
      "drągiem": 7781,
      "grzmiały": 7782,
      "opiera": 7783,
      "opieku": 7784,
      "opiekę": 7785,
      "trzask": 7786,
      "trzasnął": 7787,
      "trzaskiem": 7788,
      "zbadał": 7789,
      "źwierzynę": 7790,
      "żałośnie": 7791,
      "żółta": 7792,
      "poważnym": 7793,
      "poważnemi": 7794,
      "żelazem": 7795,
      "ruszyć": 7796,
      "przykłady": 7797,
      "chodzących": 7798,
      "Niemna": 7799,
      "Dowejce": 7800,
      "Częstochowy": 7801,
      "Sokoł": 7802,
      "wczorajszej": 7803,
      "niebiosa": 7804,
      "pochylił": 7805,
      "potrzebie": 7806,
      "towarzystwo": 7807,
      "towarzyszów": 7808,
      "majora": 7809,
      "ludzkich": 7810,
      "stodole": 7811,
      "stodołę": 7812,
      "wznosił": 7813,
      "kontusze": 7814,
      "Król": 7815,
      "Krótkie": 7816,
      "Sycy": 7817,
      "Sybir": 7818,
      "hałas": 7819,
      "swary": 7820,
      "pogoni": 7821,
      "pogodę": 7822,
      "pojedynku": 7823,
      "jakiś": 7824,
      "weźmiesz": 7825,
      "wiadomość": 7826,
      "groźby": 7827,
      "Domejce": 7828,
      "tryumfu": 7829,
      "Milczy": 7830,
      "Milczał": 7831,
      "marszałka": 7832,
      "marszałkiem": 7833,
      "placką": 7834,
      "Polaków": 7835,
      "skrzydłami": 7836,
      "powiadano": 7837,
      "kapturze": 7838,
      "Napoleonem": 7839,
      "Prusaków": 7840,
      "Strzelby": 7841,
      "Strzelców": 7842,
      "obyczajem": 7843,
      "dbale": 7844,
      "harmo": 7845,
      "histor": 7846,
      "kłym": 7847,
      "ołtarz": 7848,
      "ołtarza": 7849,
      "pryska": 7850,
      "sznurki": 7851,
      "chleb": 7852,
      "chleba": 7853,
      "chlebie": 7854,
      "nieruchome": 7855,
      "roboty": 7856,
      "zapasy": 7857,
      "zajazdach": 7858,
      "tajnym": 7859,
      "wojenne": 7860,
      "pamiątka": 7861,
      "murawie": 7862,
      "murawy": 7863,
      "rozpacz": 7864,
      "rozkazem": 7865,
      "Niechajże": 7866,
      "hajże": 7867,
      "szturmak": 7868,
      "księżyca": 7869,
      "czerwony": 7870,
      "Het": 7871,
      "Szep": 7872,
      "gwałty": 7873,
      "klucznik": 7874,
      "ostrzem": 7875,
      "ozwały": 7876,
      "układów": 7877,
      "posłaniec": 7878,
      "poglądali": 7879,
      "kometa": 7880,
      "komendę": 7881,
      "zawiesił": 7882,
      "zamiany": 7883,
      "rycer": 7884,
      "rycerze": 7885,
      "różową": 7886,
      "szanował": 7887,
      "sierża": 7888,
      "sierpy": 7889,
      "służba": 7890,
      "służbę": 7891,
      "służbą": 7892,
      "suknia": 7893,
      "tęsknił": 7894,
      "młodego": 7895,
      "złocisty": 7896,
      "Dobrodzieje": 7897,
      "Dobrodziej": 7898,
      "Dobrodzieju": 7899,
      "dworski": 7900,
      "królewskim": 7901,
      "warkoczy": 7902,
      "śledztwa": 7903,
      "sprzęty": 7904,
      "Suworo": 7905,
      "Spojrzał": 7906,
      "Spotkanie": 7907,
      "Sławny": 7908,
      "brzuch": 7909,
      "gniazda": 7910,
      "gniazdo": 7911,
      "grzędy": 7912,
      "plusk": 7913,
      "psiarnie": 7914,
      "ułan": 7915,
      "wcisnął": 7916,
      "zbliżył": 7917,
      "powagą": 7918,
      "pozwolę": 7919,
      "wicin": 7920,
      "wiciny": 7921,
      "zadziwienie": 7922,
      "zadziwienia": 7923,
      "zadziwieniem": 7924,
      "wyznaczył": 7925,
      "wysokie": 7926,
      "damami": 7927,
      "kieszenie": 7928,
      "biorąc": 7929,
      "stanowiska": 7930,
      "cymbały": 7931,
      "Podobny": 7932,
      "Jenerała": 7933,
      "wzdychał": 7934,
      "ziemianie": 7935,
      "słuchi": 7936,
      "stronnicy": 7937,
      "trafem": 7938,
      "młodzieńców": 7939,
      "Hreczesza": 7940,
      "Grabo": 7941,
      "Grafie": 7942,
      "Spór": 7943,
      "brzmiał": 7944,
      "ekonom": 7945,
      "groził": 7946,
      "kwaśny": 7947,
      "owoc": 7948,
      "ogłosić": 7949,
      "otwiera": 7950,
      "Świeciły": 7951,
      "szpieg": 7952,
      "chciwie": 7953,
      "położył": 7954,
      "wiszące": 7955,
      "wiszący": 7956,
      "zaczynał": 7957,
      "biórku": 7958,
      "jakaś": 7959,
      "przyszłość": 7960,
      "bagnety": 7961,
      "podniosłszy": 7962,
      "prośby": 7963,
      "słusznie": 7964,
      "plebaniji": 7965,
      "rejteradę": 7966,
      "przemian": 7967,
      "samotnym": 7968,
      "sąsiedztwa": 7969,
      "sąsiedztwie": 7970,
      "historyja": 7971,
      "Ciebie": 7972,
      "Całą": 7973,
      "Konfedera": 7974,
      "Wznosi": 7975,
      "otwór": 7976,
      "opoką": 7977,
      "oręż": 7978,
      "obiad": 7979,
      "oszczepem": 7980,
      "ustąpić": 7981,
      "zmowie": 7982,
      "Śmierć": 7983,
      "napast": 7984,
      "naciera": 7985,
      "strwożył": 7986,
      "pociechy": 7987,
      "wichrów": 7988,
      "winienem": 7989,
      "zagony": 7990,
      "zakład": 7991,
      "zapału": 7992,
      "doświadczony": 7993,
      "wygrał": 7994,
      "wygięty": 7995,
      "wynalazek": 7996,
      "wynagrodzić": 7997,
      "obel": 7998,
      "obejrzał": 7999,
      "przestań": 8000,
      "przyszłej": 8001,
      "szablą": 8002,
      "rozlewa": 8003,
      "znajomo": 8004,
      "spotkaniu": 8005,
      "skoczywszy": 8006,
      "dźwięki": 8007,
      "powstania": 8008,
      "Rózeczka": 8009,
      "Jegomość": 8010,
      "Półkozic": 8011,
      "Błysnęła": 8012,
      "Różne": 8013,
      "Serce": 8014,
      "dżokejów": 8015,
      "dżokeje": 8016,
      "imion": 8017,
      "trójkąt": 8018,
      "założywszy": 8019,
      "zgrają": 8020,
      "złączył": 8021,
      "łóżku": 8022,
      "szpadki": 8023,
      "nadobną": 8024,
      "nazwiska": 8025,
      "strzale": 8026,
      "posażna": 8027,
      "posel": 8028,
      "wisiał": 8029,
      "kazać": 8030,
      "cichej": 8031,
      "zakończyć": 8032,
      "zatrudniał": 8033,
      "zadumany": 8034,
      "wieśniacy": 8035,
      "dostrzegł": 8036,
      "testamen": 8037,
      "objęcia": 8038,
      "rumieńca": 8039,
      "rumieńcem": 8040,
      "galop": 8041,
      "podróżnego": 8042,
      "służący": 8043,
      "pierwsza": 8044,
      "stronom": 8045,
      "dwadzieście": 8046,
      "zwierciadla": 8047,
      "powracać": 8048,
      "Wielkiego": 8049,
      "Birba": 8050,
      "uroczysty": 8051,
      "wspomnienie": 8052,
      "wspomniał": 8053,
      "tchórze": 8054,
      "Józef": 8055,
      "Sanguszków": 8056,
      "Hejże": 8057,
      "Kwesta": 8058,
      "Kwestarz": 8059,
      "Tęczy": 8060,
      "Wspomni": 8061,
      "flintę": 8062,
      "grało": 8063,
      "hojnie": 8064,
      "izbach": 8065,
      "ogłasza": 8066,
      "oparłszy": 8067,
      "uprzejmie": 8068,
      "natrę": 8069,
      "niebezpieczeństwem": 8070,
      "nieźmiernie": 8071,
      "początek": 8072,
      "porwawszy": 8073,
      "kościołem": 8074,
      "wiwaty": 8075,
      "dobywszy": 8076,
      "wypadki": 8077,
      "gorzkim": 8078,
      "gołębie": 8079,
      "minut": 8080,
      "ładunku": 8081,
      "kunszt": 8082,
      "bohater": 8083,
      "rozstrzygnie": 8084,
      "prostak": 8085,
      "Zamku": 8086,
      "szczerby": 8087,
      "króliki": 8088,
      "myśleć": 8089,
      "okrąg": 8090,
      "piosenkę": 8091,
      "obojętnie": 8092,
      "Krzyknęli": 8093,
      "skończywszy": 8094,
      "brylanto": 8095,
      "portret": 8096,
      "Buchmana": 8097,
      "Człowiek": 8098,
      "Owszem": 8099,
      "Strap": 8100,
      "Suwarów": 8101,
      "Uciekają": 8102,
      "ambonie": 8103,
      "diabeł": 8104,
      "tissi": 8105,
      "zlękła": 8106,
      "zwrócony": 8107,
      "Świątyni": 8108,
      "potokiem": 8109,
      "pończoszki": 8110,
      "kogutki": 8111,
      "widnokrę": 8112,
      "zanadrza": 8113,
      "lekarstwo": 8114,
      "wysmukłą": 8115,
      "gołąb": 8116,
      "pagór": 8117,
      "przetarł": 8118,
      "przeszkodził": 8119,
      "łysinę": 8120,
      "Podoba": 8121,
      "Poglądając": 8122,
      "roztrop": 8123,
      "rozmawiali": 8124,
      "sklepieniu": 8125,
      "gitarę": 8126,
      "wzmagał": 8127,
      "Chwilę": 8128,
      "peiza": 8129,
      "opętany": 8130,
      "równinie": 8131,
      "świéce": 8132,
      "wspominać": 8133,
      "wstrzymują": 8134,
      "błogosławił": 8135,
      "kuchcików": 8136,
      "Odezwały": 8137,
      "Targowicy": 8138,
      "Gifrejter": 8139,
      "Wąsal": 8140,
      "paznokcia": 8141,
      "Brzecha": 8142,
      "Dzwon": 8143,
      "Górą": 8144,
      "Ogiński": 8145,
      "Spiesz": 8146,
      "Stąpa": 8147,
      "Trudno": 8148,
      "Zdrowie": 8149,
      "jmuję": 8150,
      "uniżenie": 8151,
      "udobru": 8152,
      "wskrze": 8153,
      "szwadro": 8154,
      "nagrodę": 8155,
      "pobladła": 8156,
      "raptem": 8157,
      "wawrzy": 8158,
      "migające": 8159,
      "lamus": 8160,
      "relikwi": 8161,
      "przyjemne": 8162,
      "przyzwoi": 8163,
      "chorągie": 8164,
      "Nieszczęściem": 8165,
      "Jezus": 8166,
      "węgrzyna": 8167,
      "butelki": 8168,
      "czubate": 8169,
      "stronników": 8170,
      "Przepraszam": 8171,
      "indyki": 8172,
      "Honoro": 8173,
      "przyjaźń": 8174,
      "Ciociu": 8175,
      "Gospoda": 8176,
      "splątał": 8177,
      "zgadnąć": 8178,
      "Dziedzic": 8179,
      "grzbiet": 8180,
      "herbowne": 8181,
      "krużganku": 8182,
      "Kapitanie": 8183,
      "dygnitarskiej": 8184,
      "Sagalasówki": 8185,
      "grzybobrania": 8186,
      "Auster": 8187,
      "Drzewa": 8188,
      "Ekonom": 8189,
      "Gdań": 8190,
      "Imperato": 8191,
      "Krwią": 8192,
      "Stój": 8193,
      "Uciszcie": 8194,
      "Zdrada": 8195,
      "drzemać": 8196,
      "frontem": 8197,
      "smętarz": 8198,
      "wskroś": 8199,
      "zgniłe": 8200,
      "źródła": 8201,
      "sztenf": 8202,
      "nalibockich": 8203,
      "naonczas": 8204,
      "pomału": 8205,
      "pozbyć": 8206,
      "pospólstwo": 8207,
      "leciawszy": 8208,
      "dozor": 8209,
      "dowcip": 8210,
      "wygania": 8211,
      "rywalów": 8212,
      "przestrogę": 8213,
      "czamarce": 8214,
      "przypłacił": 8215,
      "cyngla": 8216,
      "rozpostar": 8217,
      "Jesteś": 8218,
      "wzbrania": 8219,
      "bestyi": 8220,
      "Chrystus": 8221,
      "więźniów": 8222,
      "piersiom": 8223,
      "pierścionek": 8224,
      "Kozodusin": 8225,
      "Dobrodziéj": 8226,
      "mariasza": 8227,
      "(\"": 8228,
      ".-": 8229,
      "AR": 8230,
      "An": 8231,
      "Anie": 8232,
      "Ama": 8233,
      "Abyś": 8234,
      "ASTA": 8235,
      "Bła": 8236,
      "Bru": 8237,
      "Błą": 8238,
      "Brej": 8239,
      "Baka": 8240,
      "Blask": 8241,
      "Car": 8242,
      "Czwał": 8243,
      "Czem": 8244,
      "CIA": 8245,
      "DZ": 8246,
      "Dra": 8247,
      "Dem": 8248,
      "Dwu": 8249,
      "Drogi": 8250,
      "Dzię": 8251,
      "Ej": 8252,
      "Ewa": 8253,
      "Fe": 8254,
      "Fał": 8255,
      "Gę": 8256,
      "Grz": 8257,
      "Grze": 8258,
      "Głu": 8259,
      "Gnia": 8260,
      "Hi": 8261,
      "Hu": 8262,
      "Hy": 8263,
      "Her": 8264,
      "Ich": 8265,
      "Isa": 8266,
      "Imię": 8267,
      "Idą": 8268,
      "Inne": 8269,
      "IĄTA": 8270,
      "KO": 8271,
      "Kry": 8272,
      "Kru": 8273,
      "Kre": 8274,
      "Krwa": 8275,
      "Kobie": 8276,
      "Lę": 8277,
      "MI": 8278,
      "Mała": 8279,
      "Mąd": 8280,
      "Mniej": 8281,
      "Mich": 8282,
      "Mrok": 8283,
      "Nó": 8284,
      "NASTA": 8285,
      "Ol": 8286,
      "Ot": 8287,
      "Oł": 8288,
      "Owa": 8289,
      "Ogo": 8290,
      "Oby": 8291,
      "Ocie": 8292,
      "Oce": 8293,
      "Obie": 8294,
      "Obo": 8295,
      "Okiem": 8296,
      "Obra": 8297,
      "Otwo": 8298,
      "Okry": 8299,
      "Okrop": 8300,
      "Ognia": 8301,
      "Okna": 8302,
      "Prz": 8303,
      "Pob": 8304,
      "Pły": 8305,
      "Psze": 8306,
      "Plu": 8307,
      "Pusz": 8308,
      "Pia": 8309,
      "Pobu": 8310,
      "Plany": 8311,
      "RA": 8312,
      "Rw": 8313,
      "Rz": 8314,
      "Rą": 8315,
      "Rwał": 8316,
      "Rzy": 8317,
      "Rumie": 8318,
      "Sku": 8319,
      "Spra": 8320,
      "Snu": 8321,
      "Szwa": 8322,
      "Sok": 8323,
      "Spuści": 8324,
      "Sobie": 8325,
      "Swój": 8326,
      "Skrwa": 8327,
      "Skończył": 8328,
      "Schylił": 8329,
      "Skłonił": 8330,
      "TW": 8331,
      "Tem": 8332,
      "Tło": 8333,
      "Trwał": 8334,
      "Ul": 8335,
      "Uro": 8336,
      "Uto": 8337,
      "Uży": 8338,
      "Ujrzał": 8339,
      "Uwiąza": 8340,
      "Udawał": 8341,
      "Ukazał": 8342,
      "Udając": 8343,
      "Ustąpił": 8344,
      "Ucich": 8345,
      "Urosła": 8346,
      "Utkwi": 8347,
      "Wra": 8348,
      "Wich": 8349,
      "Wdział": 8350,
      "Wód": 8351,
      "Wstała": 8352,
      "Wraca": 8353,
      "Wpadły": 8354,
      "Wstrzą": 8355,
      "Zy": 8356,
      "Zni": 8357,
      "Zem": 8358,
      "Zwa": 8359,
      "Zwał": 8360,
      "Zała": 8361,
      "Zdar": 8362,
      "Zmar": 8363,
      "Zwierz": 8364,
      "Zmiesza": 8365,
      "Zmienia": 8366,
      "Zbłą": 8367,
      "Ziem": 8368,
      "Zrobię": 8369,
      "Zerwał": 8370,
      "ad": 8371,
      "aj": 8372,
      "anie": 8373,
      "alo": 8374,
      "adwo": 8375,
      "abym": 8376,
      "alić": 8377,
      "afek": 8378,
      "anegdo": 8379,
      "bó": 8380,
      "bnie": 8381,
      "bał": 8382,
      "bni": 8383,
      "blu": 8384,
      "bski": 8385,
      "bkiem": 8386,
      "bnych": 8387,
      "bród": 8388,
      "bcem": 8389,
      "blów": 8390,
      "bór": 8391,
      "błów": 8392,
      "brzemię": 8393,
      "cją": 8394,
      "ccy": 8395,
      "ctw": 8396,
      "dmu": 8397,
      "dnem": 8398,
      "dnię": 8399,
      "dżu": 8400,
      "dląc": 8401,
      "drzemie": 8402,
      "dlona": 8403,
      "dącego": 8404,
      "et": 8405,
      "epo": 8406,
      "eli": 8407,
      "ety": 8408,
      "enty": 8409,
      "echami": 8410,
      "fą": 8411,
      "fli": 8412,
      "fmy": 8413,
      "fer": 8414,
      "fale": 8415,
      "fal": 8416,
      "fum": 8417,
      "gwi": 8418,
      "glach": 8419,
      "grza": 8420,
      "grząd": 8421,
      "gwarzy": 8422,
      "gdaj": 8423,
      "gięty": 8424,
      "gmachu": 8425,
      "hra": 8426,
      "hry": 8427,
      "hor": 8428,
      "hrabi": 8429,
      "iło": 8430,
      "iny": 8431,
      "iki": 8432,
      "iną": 8433,
      "isk": 8434,
      "iste": 8435,
      "iona": 8436,
      "imienia": 8437,
      "imieniem": 8438,
      "jć": 8439,
      "jka": 8440,
      "jszy": 8441,
      "jdę": 8442,
      "jrzą": 8443,
      "jmę": 8444,
      "kwie": 8445,
      "kcie": 8446,
      "kkie": 8447,
      "kcy": 8448,
      "ktem": 8449,
      "kały": 8450,
      "knu": 8451,
      "klą": 8452,
      "knęła": 8453,
      "knąć": 8454,
      "knęły": 8455,
      "kmistrz": 8456,
      "krzemie": 8457,
      "kląkł": 8458,
      "ld": 8459,
      "lle": 8460,
      "lno": 8461,
      "lku": 8462,
      "lnia": 8463,
      "lska": 8464,
      "lnej": 8465,
      "lskich": 8466,
      "lodu": 8467,
      "lśni": 8468,
      "lniku": 8469,
      "laku": 8470,
      "mki": 8471,
      "mne": 8472,
      "mże": 8473,
      "mnem": 8474,
      "mgła": 8475,
      "mtąd": 8476,
      "mchem": 8477,
      "mgle": 8478,
      "mgłę": 8479,
      "mgli": 8480,
      "mgły": 8481,
      "mścić": 8482,
      "mąca": 8483,
      "mgłą": 8484,
      "mgnieniu": 8485,
      "nci": 8486,
      "ncie": 8487,
      "nsy": 8488,
      "nha": 8489,
      "ndar": 8490,
      "nkach": 8491,
      "nfede": 8492,
      "nktów": 8493,
      "ow": 8494,
      "oli": 8495,
      "ota": 8496,
      "ocie": 8497,
      "oty": 8498,
      "odzie": 8499,
      "oru": 8500,
      "ocze": 8501,
      "ocza": 8502,
      "oży": 8503,
      "ową": 8504,
      "osy": 8505,
      "okrzy": 8506,
      "osłu": 8507,
      "ować": 8508,
      "owem": 8509,
      "ozda": 8510,
      "osobie": 8511,
      "ogar": 8512,
      "opuści": 8513,
      "ostę": 8514,
      "oprawa": 8515,
      "okazy": 8516,
      "owego": 8517,
      "opas": 8518,
      "oszukał": 8519,
      "ostęp": 8520,
      "ostępu": 8521,
      "opowiadał": 8522,
      "oniemi": 8523,
      "opowiedzieć": 8524,
      "osma": 8525,
      "ofia": 8526,
      "okrzykiem": 8527,
      "oczom": 8528,
      "opatrzyć": 8529,
      "oprocz": 8530,
      "ozłocona": 8531,
      "pt": 8532,
      "pka": 8533,
      "psi": 8534,
      "psze": 8535,
      "pstro": 8536,
      "płe": 8537,
      "pfe": 8538,
      "pnęli": 8539,
      "psami": 8540,
      "qu": 8541,
      "rwi": 8542,
      "rwie": 8543,
      "rdzi": 8544,
      "rpa": 8545,
      "rwe": 8546,
      "rski": 8547,
      "rało": 8548,
      "rich": 8549,
      "rkach": 8550,
      "rżące": 8551,
      "sna": 8552,
      "sąc": 8553,
      "sfe": 8554,
      "snęli": 8555,
      "sprzeci": 8556,
      "snkę": 8557,
      "swat": 8558,
      "spisa": 8559,
      "sfał": 8560,
      "swemi": 8561,
      "sprowadza": 8562,
      "ti": 8563,
      "tna": 8564,
      "tnę": 8565,
      "tków": 8566,
      "tnej": 8567,
      "tnik": 8568,
      "tchu": 8569,
      "tnego": 8570,
      "twym": 8571,
      "ur": 8572,
      "upo": 8573,
      "uwi": 8574,
      "udzie": 8575,
      "ury": 8576,
      "ucze": 8577,
      "ując": 8578,
      "usia": 8579,
      "utrzy": 8580,
      "utra": 8581,
      "ucię": 8582,
      "ukra": 8583,
      "uszedł": 8584,
      "uwol": 8585,
      "ubił": 8586,
      "usnął": 8587,
      "uczyć": 8588,
      "unosi": 8589,
      "ubio": 8590,
      "unika": 8591,
      "umiesz": 8592,
      "uzem": 8593,
      "uwal": 8594,
      "ustę": 8595,
      "upada": 8596,
      "uklę": 8597,
      "upatrzy": 8598,
      "uwiąza": 8599,
      "udawał": 8600,
      "ukazy": 8601,
      "uśmi": 8602,
      "udając": 8603,
      "uczenie": 8604,
      "usługi": 8605,
      "ustąpił": 8606,
      "ujrzawszy": 8607,
      "ustryja": 8608,
      "uchybił": 8609,
      "usiada": 8610,
      "uwiązane": 8611,
      "upatrywał": 8612,
      "ułoży": 8613,
      "upadkiem": 8614,
      "udało": 8615,
      "ulicę": 8616,
      "ukląkł": 8617,
      "wrze": 8618,
      "wrę": 8619,
      "wtó": 8620,
      "wnę": 8621,
      "wlę": 8622,
      "wdział": 8623,
      "wrzał": 8624,
      "wpar": 8625,
      "wstwo": 8626,
      "wbił": 8627,
      "wścią": 8628,
      "wznak": 8629,
      "wdawał": 8630,
      "wczasu": 8631,
      "wjechał": 8632,
      "wciągnął": 8633,
      "włó": 8634,
      "wczego": 8635,
      "wstaje": 8636,
      "wpadło": 8637,
      "wstają": 8638,
      "wprawdzie": 8639,
      "wnością": 8640,
      "wpatrywał": 8641,
      "wsiędzie": 8642,
      "wpaść": 8643,
      "wchodzących": 8644,
      "znie": 8645,
      "zrze": 8646,
      "zla": 8647,
      "zry": 8648,
      "zca": 8649,
      "zwę": 8650,
      "zbra": 8651,
      "zwią": 8652,
      "zszedł": 8653,
      "zgłu": 8654,
      "zżę": 8655,
      "zwoli": 8656,
      "zwraca": 8657,
      "zjechał": 8658,
      "zdziwił": 8659,
      "zjeść": 8660,
      "zmyka": 8661,
      "zjedli": 8662,
      "zmaty": 8663,
      "zbudził": 8664,
      "zląkł": 8665,
      "zobaczy": 8666,
      "zleciała": 8667,
      "związane": 8668,
      "zmąca": 8669,
      "ąż": 8670,
      "ączą": 8671,
      "ćwieki": 8672,
      "ćwierci": 8673,
      "Łączą": 8674,
      "łko": 8675,
      "łkę": 8676,
      "łkach": 8677,
      "łzach": 8678,
      "ńcze": 8679,
      "ńco": 8680,
      "ńca": 8681,
      "ńcu": 8682,
      "ńczu": 8683,
      "ńskiej": 8684,
      "Śro": 8685,
      "Śpie": 8686,
      "Śnia": 8687,
      "Ścia": 8688,
      "śki": 8689,
      "śną": 8690,
      "śniej": 8691,
      "ślą": 8692,
      "Źle": 8693,
      "źno": 8694,
      "źwignął": 8695,
      "Żal": 8696,
      "Żubr": 8697,
      "żko": 8698,
      "ższy": 8699,
      "żéj": 8700,
      "ższych": 8701,
      "żemi": 8702,
      "żaki": 8703,
      "iero": 8704,
      "iery": 8705,
      "rzli": 8706,
      "rzów": 8707,
      "rzały": 8708,
      "rzących": 8709,
      "szcie": 8710,
      "szkie": 8711,
      "szte": 8712,
      "szwe": 8713,
      "szką": 8714,
      "szały": 8715,
      "szpan": 8716,
      "szmia": 8717,
      "sztych": 8718,
      "sztan": 8719,
      "szkara": 8720,
      "szpil": 8721,
      "czak": 8722,
      "czno": 8723,
      "czma": 8724,
      "czmy": 8725,
      "czon": 8726,
      "czniej": 8727,
      "czcież": 8728,
      "czniejszy": 8729,
      "cznica": 8730,
      "czniku": 8731,
      "czników": 8732,
      "czém": 8733,
      "chna": 8734,
      "chru": 8735,
      "chły": 8736,
      "chlu": 8737,
      "chała": 8738,
      "chcia": 8739,
      "chnęli": 8740,
      "chnące": 8741,
      "chrzciny": 8742,
      "nao": 8743,
      "nawy": 8744,
      "nady": 8745,
      "nama": 8746,
      "nagi": 8747,
      "namię": 8748,
      "nabył": 8749,
      "napó": 8750,
      "nagie": 8751,
      "narzę": 8752,
      "nakła": 8753,
      "naszał": 8754,
      "nastu": 8755,
      "nakazał": 8756,
      "namio": 8757,
      "nagli": 8758,
      "natło": 8759,
      "naprzeciw": 8760,
      "następ": 8761,
      "natrzeć": 8762,
      "nagłą": 8763,
      "napot": 8764,
      "nastroi": 8765,
      "niewi": 8766,
      "nieje": 8767,
      "niemo": 8768,
      "niewia": 8769,
      "niechy": 8770,
      "niezgo": 8771,
      "niewielki": 8772,
      "niewoli": 8773,
      "niedosta": 8774,
      "nieporząd": 8775,
      "niewiele": 8776,
      "niewielkim": 8777,
      "niespoko": 8778,
      "niewymo": 8779,
      "niewielu": 8780,
      "niezgody": 8781,
      "niewesoło": 8782,
      "nieprzyjaciela": 8783,
      "niewolę": 8784,
      "niewyraź": 8785,
      "niewin": 8786,
      "nieżywy": 8787,
      "nieroztro": 8788,
      "niełacno": 8789,
      "nieporządek": 8790,
      "niedbale": 8791,
      "nieprzyjemne": 8792,
      "dzką": 8793,
      "strę": 8794,
      "strzę": 8795,
      "stój": 8796,
      "strój": 8797,
      "strzemię": 8798,
      "powy": 8799,
      "poty": 8800,
      "posi": 8801,
      "poprzy": 8802,
      "pocho": 8803,
      "polach": 8804,
      "pozie": 8805,
      "pocią": 8806,
      "porów": 8807,
      "pobli": 8808,
      "poróż": 8809,
      "pokre": 8810,
      "pokło": 8811,
      "połowie": 8812,
      "pokole": 8813,
      "policy": 8814,
      "pobić": 8815,
      "poszła": 8816,
      "pochwy": 8817,
      "podawał": 8818,
      "poświę": 8819,
      "pokrze": 8820,
      "powany": 8821,
      "pocało": 8822,
      "powód": 8823,
      "powróci": 8824,
      "potrzą": 8825,
      "poprawi": 8826,
      "pożół": 8827,
      "pokaże": 8828,
      "połowy": 8829,
      "postępu": 8830,
      "pochwa": 8831,
      "pomyka": 8832,
      "posłów": 8833,
      "pochodzą": 8834,
      "posłusz": 8835,
      "powrót": 8836,
      "postrzegam": 8837,
      "pogładził": 8838,
      "polował": 8839,
      "pochwycił": 8840,
      "pomocą": 8841,
      "pomieszał": 8842,
      "poszarzał": 8843,
      "poprawiać": 8844,
      "powstała": 8845,
      "powiększa": 8846,
      "pozłaca": 8847,
      "pomyślić": 8848,
      "pokazywał": 8849,
      "pogroził": 8850,
      "raj": 8851,
      "racz": 8852,
      "raka": 8853,
      "raki": 8854,
      "radzie": 8855,
      "raju": 8856,
      "rając": 8857,
      "rasy": 8858,
      "radzą": 8859,
      "raniony": 8860,
      "rażony": 8861,
      "rapiera": 8862,
      "ięte": 8863,
      "ron": 8864,
      "roż": 8865,
      "rodzie": 8866,
      "rową": 8867,
      "rosy": 8868,
      "rolę": 8869,
      "rowu": 8870,
      "rotny": 8871,
      "rogiem": 8872,
      "rożny": 8873,
      "rowane": 8874,
      "rosłe": 8875,
      "rodzaju": 8876,
      "roiną": 8877,
      "nicza": 8878,
      "niskie": 8879,
      "niłem": 8880,
      "nigdzie": 8881,
      "niczki": 8882,
      "niżej": 8883,
      "niżeli": 8884,
      "nicach": 8885,
      "niłam": 8886,
      "nikowi": 8887,
      "emknął": 8888,
      "kos": 8889,
      "korze": 8890,
      "kone": 8891,
      "kosa": 8892,
      "kotem": 8893,
      "kową": 8894,
      "kobe": 8895,
      "kosą": 8896,
      "kopy": 8897,
      "koszu": 8898,
      "kokar": 8899,
      "koszą": 8900,
      "kowano": 8901,
      "kowego": 8902,
      "kowskiej": 8903,
      "koszta": 8904,
      "korzenie": 8905,
      "kopać": 8906,
      "kownikiem": 8907,
      "lis": 8908,
      "liło": 8909,
      "lika": 8910,
      "liwy": 8911,
      "lisi": 8912,
      "lista": 8913,
      "liły": 8914,
      "linę": 8915,
      "linam": 8916,
      "licach": 8917,
      "liczone": 8918,
      "liczać": 8919,
      "lijusza": 8920,
      "wic": 8921,
      "wile": 8922,
      "wista": 8923,
      "wiga": 8924,
      "wisk": 8925,
      "wiała": 8926,
      "winął": 8927,
      "winę": 8928,
      "wiśnie": 8929,
      "witał": 8930,
      "widny": 8931,
      "winna": 8932,
      "witali": 8933,
      "wiczowi": 8934,
      "wiórka": 8935,
      "wikcie": 8936,
      "rzece": 8937,
      "rzekę": 8938,
      "rzeniem": 8939,
      "rzewni": 8940,
      "rześki": 8941,
      "wan": 8942,
      "wań": 8943,
      "waś": 8944,
      "waki": 8945,
      "wala": 8946,
      "waną": 8947,
      "wazę": 8948,
      "waszych": 8949,
      "łona": 8950,
      "łota": 8951,
      "łopa": 8952,
      "łokie": 8953,
      "łowe": 8954,
      "łoża": 8955,
      "łożyć": 8956,
      "łozach": 8957,
      "łodziec": 8958,
      "łokrągłe": 8959,
      "kary": 8960,
      "kato": 8961,
      "kate": 8962,
      "kapra": 8963,
      "kasy": 8964,
      "kabłą": 8965,
      "kamieniem": 8966,
      "kamieniu": 8967,
      "kanda": 8968,
      "kandy": 8969,
      "kanc": 8970,
      "kawale": 8971,
      "cik": 8972,
      "cina": 8973,
      "ciki": 8974,
      "ciła": 8975,
      "cicy": 8976,
      "ciste": 8977,
      "cisnął": 8978,
      "cicę": 8979,
      "zar": 8980,
      "zat": 8981,
      "zapo": 8982,
      "zada": 8983,
      "zadzie": 8984,
      "zapi": 8985,
      "zabo": 8986,
      "zamy": 8987,
      "zasie": 8988,
      "zaką": 8989,
      "zazie": 8990,
      "zagro": 8991,
      "zapu": 8992,
      "zabu": 8993,
      "zanu": 8994,
      "zaczem": 8995,
      "zasnął": 8996,
      "zakon": 8997,
      "zadła": 8998,
      "zacznie": 8999,
      "zapło": 9000,
      "zasmu": 9001,
      "zawro": 9002,
      "zasę": 9003,
      "zaszła": 9004,
      "zawierz": 9005,
      "zachwy": 9006,
      "zagląda": 9007,
      "zajął": 9008,
      "zawody": 9009,
      "zabiegł": 9010,
      "zatrwo": 9011,
      "zadość": 9012,
      "zabrał": 9013,
      "zajechał": 9014,
      "zawód": 9015,
      "zapas": 9016,
      "zapomni": 9017,
      "zasługi": 9018,
      "zaboru": 9019,
      "zastęp": 9020,
      "zająć": 9021,
      "zatknął": 9022,
      "zasłania": 9023,
      "zaspał": 9024,
      "zadrżał": 9025,
      "zażarty": 9026,
      "zajmował": 9027,
      "zasnąć": 9028,
      "zawiąże": 9029,
      "zagrał": 9030,
      "zamachu": 9031,
      "zapraszał": 9032,
      "zapytała": 9033,
      "zakochany": 9034,
      "zawiązać": 9035,
      "zajeździe": 9036,
      "zagrzmiały": 9037,
      "akta": 9038,
      "wien": 9039,
      "wiela": 9040,
      "wieścią": 9041,
      "wiedli": 9042,
      "wieczny": 9043,
      "wiedziano": 9044,
      "wieszać": 9045,
      "wiewiórka": 9046,
      "rzym": 9047,
      "rzysta": 9048,
      "rzystał": 9049,
      "lewa": 9050,
      "lego": 9051,
      "lesta": 9052,
      "lega": 9053,
      "lewał": 9054,
      "lesie": 9055,
      "lewca": 9056,
      "leśni": 9057,
      "leżało": 9058,
      "lesnej": 9059,
      "doku": 9060,
      "doma": 9061,
      "docho": 9062,
      "dozwa": 9063,
      "dokto": 9064,
      "dowany": 9065,
      "dokończył": 9066,
      "dowiedzieć": 9067,
      "dowałem": 9068,
      "dociec": 9069,
      "dojrzeć": 9070,
      "dorosła": 9071,
      "dobiec": 9072,
      "dopiero": 9073,
      "dozwoli": 9074,
      "wyro": 9075,
      "wywa": 9076,
      "wywie": 9077,
      "wyje": 9078,
      "wycie": 9079,
      "wyrę": 9080,
      "wymy": 9081,
      "wykł": 9082,
      "wysy": 9083,
      "wykła": 9084,
      "wydę": 9085,
      "wydru": 9086,
      "wyrzą": 9087,
      "wycię": 9088,
      "wydał": 9089,
      "wystra": 9090,
      "wygła": 9091,
      "wyrwał": 9092,
      "wychodzi": 9093,
      "wypada": 9094,
      "wypadł": 9095,
      "wyprawa": 9096,
      "wyobra": 9097,
      "wypuszcza": 9098,
      "wybrał": 9099,
      "wyrywa": 9100,
      "wybierze": 9101,
      "wypisa": 9102,
      "wyboru": 9103,
      "wystąpił": 9104,
      "wybija": 9105,
      "wyjrzawszy": 9106,
      "wykwita": 9107,
      "wynieść": 9108,
      "wyrówna": 9109,
      "wykręca": 9110,
      "wyczytał": 9111,
      "wyszczer": 9112,
      "wytłuma": 9113,
      "wydrzeć": 9114,
      "wyjeżdżać": 9115,
      "wydyma": 9116,
      "wypłatał": 9117,
      "wyliczać": 9118,
      "kimi": 9119,
      "kita": 9120,
      "kilko": 9121,
      "kitę": 9122,
      "kijo": 9123,
      "kiwanie": 9124,
      "kichali": 9125,
      "kijami": 9126,
      "jek": 9127,
      "jera": 9128,
      "jesieni": 9129,
      "godnie": 9130,
      "godna": 9131,
      "gościem": 9132,
      "godłem": 9133,
      "godniej": 9134,
      "gońców": 9135,
      "gorzej": 9136,
      "godzien": 9137,
      "mić": 9138,
      "mini": 9139,
      "mile": 9140,
      "migo": 9141,
      "miąc": 9142,
      "miar": 9143,
      "miji": 9144,
      "dzik": 9145,
      "dzili": 9146,
      "dziwy": 9147,
      "dziwo": 9148,
      "dziku": 9149,
      "dziły": 9150,
      "dziłem": 9151,
      "działy": 9152,
      "dziwu": 9153,
      "dziwem": 9154,
      "dzidą": 9155,
      "dziéj": 9156,
      "dziwną": 9157,
      "łaś": 9158,
      "łanie": 9159,
      "łako": 9160,
      "łago": 9161,
      "ławia": 9162,
      "łabę": 9163,
      "ładem": 9164,
      "ławach": 9165,
      "ładny": 9166,
      "łaskę": 9167,
      "łapami": 9168,
      "not": 9169,
      "noga": 9170,
      "nosów": 9171,
      "nowskiej": 9172,
      "noszono": 9173,
      "nożów": 9174,
      "bystro": 9175,
      "bydła": 9176,
      "bytek": 9177,
      "bydłem": 9178,
      "bywało": 9179,
      "dany": 9180,
      "dawać": 9181,
      "dachu": 9182,
      "dachem": 9183,
      "dalów": 9184,
      "darował": 9185,
      "tabu": 9186,
      "taśmie": 9187,
      "tatar": 9188,
      "tasak": 9189,
      "tabor": 9190,
      "tarzyk": 9191,
      "takowy": 9192,
      "takową": 9193,
      "ówczas": 9194,
      "lane": 9195,
      "latem": 9196,
      "lant": 9197,
      "latuje": 9198,
      "latują": 9199,
      "wonie": 9200,
      "wodzie": 9201,
      "woja": 9202,
      "wolu": 9203,
      "wodu": 9204,
      "wować": 9205,
      "wozem": 9206,
      "wością": 9207,
      "woźni": 9208,
      "worek": 9209,
      "wokanda": 9210,
      "pax": 9211,
      "pają": 9212,
      "pacho": 9213,
      "pasą": 9214,
      "padał": 9215,
      "palił": 9216,
      "pastu": 9217,
      "państwa": 9218,
      "pańskim": 9219,
      "pańska": 9220,
      "nety": 9221,
      "nelów": 9222,
      "necki": 9223,
      "cieć": 9224,
      "cieja": 9225,
      "cielu": 9226,
      "ciemię": 9227,
      "cienki": 9228,
      "ciepła": 9229,
      "cienkie": 9230,
      "cienką": 9231,
      "tyk": 9232,
      "tyś": 9233,
      "tymi": 9234,
      "tyku": 9235,
      "tykać": 9236,
      "tykał": 9237,
      "dzieście": 9238,
      "dzielnie": 9239,
      "dzierać": 9240,
      "dzienne": 9241,
      "czyje": 9242,
      "czyną": 9243,
      "czytam": 9244,
      "czyim": 9245,
      "czyciel": 9246,
      "czystą": 9247,
      "czytać": 9248,
      "czypospoli": 9249,
      "rywał": 9250,
      "rytu": 9251,
      "rychło": 9252,
      "ryczał": 9253,
      "rymów": 9254,
      "rygnął": 9255,
      "toń": 9256,
      "toż": 9257,
      "tonie": 9258,
      "tory": 9259,
      "tocząc": 9260,
      "towem": 9261,
      "topole": 9262,
      "towicz": 9263,
      "toczyła": 9264,
      "szywy": 9265,
      "szyki": 9266,
      "szymi": 9267,
      "szyby": 9268,
      "szyty": 9269,
      "szyte": 9270,
      "szyja": 9271,
      "szyją": 9272,
      "szyków": 9273,
      "szyder": 9274,
      "żebra": 9275,
      "żeczkę": 9276,
      "dyk": 9277,
      "dymi": 9278,
      "dygnie": 9279,
      "dywano": 9280,
      "dymem": 9281,
      "kiera": 9282,
      "kiemi": 9283,
      "kiety": 9284,
      "kierują": 9285,
      "kub": 9286,
      "kurz": 9287,
      "kupi": 9288,
      "kuchar": 9289,
      "kupią": 9290,
      "kunda": 9291,
      "bina": 9292,
      "bito": 9293,
      "biąc": 9294,
      "biły": 9295,
      "biłem": 9296,
      "biało": 9297,
      "bijem": 9298,
      "bitwa": 9299,
      "tezi": 9300,
      "telów": 9301,
      "tecznej": 9302,
      "mara": 9303,
      "mali": 9304,
      "maka": 9305,
      "marzy": 9306,
      "maru": 9307,
      "maję": 9308,
      "masła": 9309,
      "macząc": 9310,
      "mamę": 9311,
      "marzyć": 9312,
      "malował": 9313,
      "marzeń": 9314,
      "moz": 9315,
      "mowi": 9316,
      "moczy": 9317,
      "mode": 9318,
      "mogi": 9319,
      "mogło": 9320,
      "modą": 9321,
      "modni": 9322,
      "mogli": 9323,
      "modli": 9324,
      "mowca": 9325,
      "mowiąc": 9326,
      "modre": 9327,
      "mowolnie": 9328,
      "morzach": 9329,
      "modląc": 9330,
      "sich": 9331,
      "sita": 9332,
      "sine": 9333,
      "siod": 9334,
      "siły": 9335,
      "siwu": 9336,
      "siwej": 9337,
      "silnie": 9338,
      "silny": 9339,
      "stado": 9340,
      "stany": 9341,
      "statu": 9342,
      "starzem": 9343,
      "stawić": 9344,
      "stanęła": 9345,
      "stanęły": 9346,
      "stamtąd": 9347,
      "obwie": 9348,
      "obru": 9349,
      "obce": 9350,
      "obrę": 9351,
      "obsa": 9352,
      "obróż": 9353,
      "obchodzi": 9354,
      "obcym": 9355,
      "obszer": 9356,
      "odę": 9357,
      "odwe": 9358,
      "odwią": 9359,
      "oderwa": 9360,
      "odmia": 9361,
      "odmówił": 9362,
      "odwrócił": 9363,
      "odjechał": 9364,
      "odjeżdża": 9365,
      "oddam": 9366,
      "odmienia": 9367,
      "odstąpił": 9368,
      "oddanie": 9369,
      "odwrót": 9370,
      "odwagi": 9371,
      "odwracał": 9372,
      "odbierał": 9373,
      "odprawia": 9374,
      "odwracając": 9375,
      "oddasz": 9376,
      "ruj": 9377,
      "ruta": 9378,
      "rucza": 9379,
      "ruski": 9380,
      "rując": 9381,
      "ruskim": 9382,
      "rumak": 9383,
      "rubel": 9384,
      "ruchów": 9385,
      "rumaki": 9386,
      "jać": 9387,
      "jada": 9388,
      "jamie": 9389,
      "jając": 9390,
      "jarzę": 9391,
      "jaśnie": 9392,
      "jadą": 9393,
      "jaźni": 9394,
      "jaszczu": 9395,
      "jasną": 9396,
      "jastrzę": 9397,
      "mierzy": 9398,
      "miecze": 9399,
      "miecza": 9400,
      "mieści": 9401,
      "miewał": 9402,
      "mienio": 9403,
      "miedzy": 9404,
      "miechu": 9405,
      "miedzę": 9406,
      "jakich": 9407,
      "jakeś": 9408,
      "łupy": 9409,
      "czen": 9410,
      "czere": 9411,
      "cześć": 9412,
      "czegó": 9413,
      "przeczy": 9414,
      "przede": 9415,
      "przedził": 9416,
      "przelę": 9417,
      "przedłu": 9418,
      "przegu": 9419,
      "przeszedł": 9420,
      "przeszli": 9421,
      "przewidział": 9422,
      "przerzuca": 9423,
      "przeszły": 9424,
      "przejrzy": 9425,
      "przeprosić": 9426,
      "przedziwny": 9427,
      "przeleciała": 9428,
      "przegrał": 9429,
      "przerywał": 9430,
      "ren": 9431,
      "res": 9432,
      "redu": 9433,
      "regu": 9434,
      "rejen": 9435,
      "rewolu": 9436,
      "muj": 9437,
      "mum": 9438,
      "murzy": 9439,
      "muje": 9440,
      "musza": 9441,
      "mując": 9442,
      "musu": 9443,
      "muchę": 9444,
      "munsztu": 9445,
      "wety": 9446,
      "wezwa": 9447,
[...]
